[UNK]
<s>
</s>
[PAD]
[CLS]
[SEP]
[MASK]
▁
、
。
の
が
は
を
に
で
・
と
」
!
「
)
(
も
?
から
や
な
...
】
です
し
する
1
した
▁「
か
2
って
▁【
る
して
について
日
3
:
年
～
月
/
た
さん
』
など
人
て
よ
-
という
『
とか
4
には
ー
でも
ね
へ
ら
その
では
だ
5
ます
|
い
まで
♪
り
として
お
なら
この
大
情報
>
中
ない
より
等
▁この
・・・
10
▁※
▁お問い合わせ
&
”
【
w
している
く
わ
します
こと
だった
とは
ので
サービス
ス
第
本
日本
一
された
6
者
しました
さ
み
分
だけ
▁!
けど
ました
及び
▁(
回
います
いる
7
への
方
にも
話
できる
いた
す
笑
による
き
に関する
8
つ
9
ある
時
である
になる
される
う
.
子
▁また
った
市
法
こ
しています
,
なんて
時間
、「
国
がある
名
]
円
だから
30
A
〜
“
記事
性
もの
新
のか
化
金
でした
見
ク
上
水
ご
ト
ア
サイト
そう
高
後
的な
前
数
物
ん
ゲーム
♡
山
事業
☆
歳
ちゃん
事
商品
ド
力
又は
イ
手
だろ
リ
ニュース
!」
▁2
▁『
20
生
コ
ズ
あり
▁<
出
[
→
ブログ
ですね
ル
してる
のは
はこちら
んだ
当該
ラ
問題
用
たい
いい
11
よう
かな
長
▁その
企業
韓国
内
田
方法
における
お問い合わせ
ですが
」「
元
的
だと
12
タ
あ
部
なので
環境
C
っ
レシピ
もう
画像
目
ください
利用
店
動画
下
アニメ好き名無しさん
いて
ように
また
などの
マ
▁そして
ミ
検索
ま
?」
気
により
ノ
川
カ
今
ば
家
まとめ
したい
む
点
ため
小
等の
生活
型
日本の
え
管理
め
ず
★
活動
なかった
会
支援
料理
私
万
イベント
投資
だけど
様
T
になった
位
ナ
登録
株式会社
何
道
写真
コメント
地
口
ている
ぞ
ページ
広告
会社
その他
これ
町
ち
号
しない
バ
東京
先
S
たら
データ
▁でも
対応
(1)
三
ポイント
野
販売
@
系
#
仕事
ロ
しか
駅
色
され
を見る
心
良い
15
▁↑
車
サ
一覧
19
シ
向け
オ
▁1
場合
に係る
B
版
ッ
二
結果
されている
ジ
ほど
人の
+
教育
外
ながら
平成
調査
カテゴリの最新記事
▁■
度
代
食
社会
線
状況
と思う
世界
キ
くらい
▁>
社
関係
対策
戦
内容
システム
人が
なし
女
機能
自分の
ウ
▁お
ろ
ヘ
▁続きを読む
J
評価
ツ
感
技術
できない
られる
せ
だな
所
年度
時に
地域
したら
無料
書
開発
レ
フ
氏
ような
100
着
業務
ことを
風
*
島
=
なんか
すると
品
変更
エ
全
前に
ランキング
において
的に
表示
け
行
していた
原
メディア
および
ところ
ン
更新
だけで
にて
よね
約
条件
男
ちょっと
女性
ネット
よく
猫
または
映画
▁しかし
ブ
設定
カード
それ
木
だよ
じゃない
別
米
美
ダ
さんの
▁その他
取引
理由
アンテナ
ガ
場
に対する
白
らしい
については
中国
によって
P
々
無
愛
各
だし
大学
イン
毎日
▁第
取り
と思います
海
不
相談
D
M
ネ
のご案内
G
"
×
のですが
チ
施設
すべて
から探す
ハ
万円
予定
足
ム
からの
になって
超
50
参加
0
ニ
センター
にある
のみ
いたします
ファン
じ
制度
頭
以上
となる
花
公開
屋
いない
に対して
▁日本
れ
こんな
株
予約
体
人気
人は
グ
OK
味
メニュー
購入
▁3
グループ
本当に
確認
運用
E
事件
^^
れば
っと
収納
平
とき
経済
新しい
みたいな
www
割
パン
なく
まだ
メ
ビ
デザイン
漫画
関連
村
のお知らせ
作品
▁これ
F
2019
だろう
ビジネス
契約
以下
民
▁́
人間
神
モ
パ
顔
投稿
▁もっと見る
同
場所
られた
配信
好き
▁そんな
スポーツ
ません
有
リー
m
資料
親
率
18
文化
すぎる
おすすめ
そんな
テ
光
初
んで
計画
速報
市場
面
くる
学
体験
文
価格
▁よくあるご質問
使用
海外
このページのトップ
前の記事
W
暮らし
著
間
なぁ
台
シリーズ
お知らせ
メール
じゃ
営業
同じ
ではない
選
期
他の
バー
マン
テレビ
プ
があります
研究
のある
きた
ヶ月
......
o
サポート
ヤ
なのに
次
見て
がない
件
んだけど
んだよ
でしょう
アニメ
なのか
流
セット
付き
発
いく
セ
ありがとうございます
日に
ひ
のこと
状態
東
チーム
のために
楽
店舗
しよう
直
プラン
されて
コンテンツ
17
金額
トップ
作
実
ぎ
量
紹介
できます
どう
▁次の記事
重
開催
悪
ティ
編
機
ことが
▁これは
旅行
担当
経験
e
肉
すること
くん
提供
火
高い
表
発表
対象
R
ています
になります
馬
私の
太
▁今
入
25
U
させる
組織
指定
ホテル
ぶ
アップ
掲載
ch
成長
の方が
▁もう
和
行動
入り
日本人
29
s
結婚
らない
ぐ
▁●
期間
K
式
しております
保険
開始
を探す
感じ
夫
可愛い
だが
電話
買い
かった
アプリ
身
p
放送
ブランド
してください
思い
時代
枚売れて
んです
プロジェクト
ど
下さい
大きな
もっと
マーケティング
言う
安
再
空
質問
カー
現在
コン
の話
南
ザ
セミナー
の方
音
ネタ
子供
考え
たち
なる
があった
額
コース
犬
13
レベル
となります
▁*
朝
総合
ために
そして
紙
デ
時の
ボ
番
焼き
会員
場合は
中の
北
分析
ことは
家族
石
さんが
14
あの
西
▁◆
作業
ワ
び
選手
予想
天
経営
でしょ
V
団体
死
終了
24
限定
美味しい
とも
運営
塩
熱
私は
年間
よりも
16
健康
させて
井
N
なん
だって
▁ただ
リンク
キャンペーン
40
▁いつも
区
法人
安心
ご利用
れる
<
スタッフ
番組
サッカー
気持ち
モノ
いつも
事故
スト
持ち
すれば
ちゃんねる
レポート
プロ
付け
のための
簡単
銀行
銘柄
効果
報
室
L
▁5
O
※
▁お気に入り
何か
枚
しても
にして
必要
主
つの
論
されます
したり
てる
チェック
削除
業
費
君
改善
料金
◆
やって
アメリカ
出し
正
バス
理解
業界
代表
他
切り
大会
産
来
多
自
っている
のような
手続き
やろ
一番
▁詳細を見る
企画
ソ
通り
ばかり
方が
もある
ファンド
明
ですよね
ではなく
決定
真
とする
話題
ホームページ
募集
文字
Web
人に
報告
立
国際
作り
楽しい
ですか
ユーザー
少し
こう
交換
▁平成
学校
特集
例
▁にほんブログ村
観光
旅
行為
▁私は
俺
産業
ママ
を行う
欲しい
通
医療
一般
奴
土
当
さらに
タイプ
あんてな
▁[
入れ
記事の評価
育児
悲報
男性
製品
▁情報を記憶
かも
28
自分
処理
協会
期待
種
行く
比較
してた
大阪
応援
▁よくある質問
ときは
活用
万国あのにますさん
個人
丸
谷
全部
ゴ
女子
地方
ケ
これは
曲
スター
カフェ
達
試合
すぎ
▁コメントを投稿する
組
ことで
費用
夢
ると
じゃん
▁↓
であり
米国
ママさん
H
モデル
ほ
良かった
21
)」
報道
そうな
特別
員
▁4
機関
情報を
なくて
いました
ツール
▁現在
付
前の
のため
夜
▁こんな
宮
が多い
無理
病院
ヒ
対
閉じる
の中で
ディ
人生
形
席
戦略
差
後の
げ
↓
込み
基準
会議
そ
出す
ベ
通信
オープン
リスク
服
裏
を見て
器
お金
制
ピ
順
ですよ
されています
娘
ふ
のように
はない
以外の
無い
黒
委員会
リング
とても
ちゃんと
お店
すぐ
最高
意識
60
アイテム
を含む
公
強い
連絡
作成
ごはん
a
保存
追加
新聞
被害
ログイン
になり
未来
やる
目的
根
すべき
悪い
ずっと
面白い
発売
災害
物件
どんな
しながら
個
認定
制作
王
増
ぐらい
松
ぬ
草
低
リスト
顧客
食べ
g
ランチ
つく
年に
後に
上の
値
夏
知
月に
語
勉強
批判
スマホ
すぎて
説明
毛
22
読んで
インターネット
日々
をする
条
X
▁★
設計
違う
さま
弾
必ず
館
総
があり
引き
読み
部分
早
城
初めて
映像
あります
URL
ご飯
サイズ
▁最近
られ
能力
多い
エリア
声
連載
サン
みたい
一人
一部
魚
と言う
あと
賞
▁まあ
自動車
と同じ
税
禁止
役
図
なり
課
23
IT
派
監督
アン
やすい
出来る
百
母
古
イメージ
31
はず
強
べ
好きな
▁本
」(
歴史
アクセス
やら
戦争
薬
みんな
あった
工事
シー
様々な
講座
撮影
売り
権
住宅
攻撃
画面
申請
になりました
バカ
試験
注意
その他の
見る
おり
展開
となった
以上の
派遣
されました
選択
ねぇ
▁さらに
中に
倍
メッセージ
ってる
準備
だと思う
▁だから
▁あ
▁なお
防災
やつ
酒
軍
採用
の二
ギ
実績
遊び
ほしい
検査
横
幸せ
メンバー
階
26
スタート
名無しさん
方は
者の
新たな
年の
記録
葉
心配
▁それ
そうです
ケース
国民
言って
半
キャラ
使う
一緒に
合
株式
未
の場合
言い
書類
局
希望
そういう
証券
さんは
成功
よな
Q
にとって
導入
ポ
i
っていう
成
当社
四
お願いします
資産
早く
八
安全
手数料
▁あと
ヘルプ
事例
ご要望
ラーメン
歌
資格
週
こちら
ということ
各種
障害
時は
音楽
昭和
られて
若しくは
▁1.
口座
▁日本の
なんで
と思って
学生
設備
事務
子育て
キーワード
旧
連携
いただいた
なんだ
電子
赤
まして
敵
カレー
治
ひと
恋
国家
行って
ざ
かわいい
不安
すごい
27
ガイド
政治
集
なあ
病
シャ
ファイル
専門
調整
使い
..
多くの
先生
しまう
不動産
んだから
芸能
わかる
ことに
鳥
もん
を見
グッズ
子ども
寝
こそ
しろ
トン
といった
くて
だわ
第一項
千
まる
事務所
現実
ハイ
自由
ソフト
ワイ
おいしい
得
保護
ましょう
道路
箱
課題
週間
私が
金融
利用規約
アジア
全国
命
ドル
▁2.
ホ
たり
を使って
責任
信
ビル
星
章
続きを読む
▁私も
ありません
ワン
雪
出産
メーカー
座
のかな
言葉
船
韓国人
知らない
を持つ
次の
決済
移動
レビュー
変
煮
(2)
デジタル
国内
級
介護
最新
北海道
世
t
職
の記事
コラム
やった
別の
プレゼント
発言
客
コード
通知
やん
解決
良
▁☆
マー
残り
しっかり
それを
はありません
科
生まれ
要
詳細
リン
実施
大人
ソース
運転
すぐに
▁おすすめ
発行
時期
卵
つき
ときに
使って
可能
日記
ペ
ター
簡単に
相手
使える
基本
意味
名無しさんファミリー
しまった
表現
春
絵
まま
街
▁▼
特定
買って
まず
気が
英語
野菜
料
秋
▁7
極
御
▁映画
大変
推進
地図
レス
ぜひ
それは
ww
存在
インテリア
オンライン
勝
ほぼ
のお
観
政策
▁今回は
注目
士
スープ
特に
トイレ
WEB
LINE
残
ロー
やっぱり
ていた
スタイル
と思った
かつ
などを
相場
地震
玉
最近
もない
出来ない
逆
季節
ショップ
ても
五
資金
られない
スレ
ドラマ
▁本当に
カメラ
ラン
雑誌
回答
雨
わけ
べき
大丈夫
日の
▁ちなみに
よかった
向上
AI
だったら
自分が
意見
なぜ
最大
タイ
を受け
日本に
取材
える
全く
部屋
事を
ぼ
としては
...」
▁3.
シーン
してきた
普通
自然
込んで
とともに
▁8
Yahoo
インタビュー
森
血
福祉
よい
あって
食事
FX
落ち
クラブ
受付
けれど
注文
PC
を中心に
を受けた
何も
全て
青
▁しかも
込む
▁東京
香
それぞれ
ほか
フリー
番号
マンガ
ω
事実
あれ
内の
楽しく
ための
億
橋
▁一
規制
でしょうか
作って
嬉しい
吉
ライン
成果
九州
―
を持って
案内
しかない
取得
傷
相
政府
ット
衝撃
拡大
◎
かもしれない
大統領
かなり
直接
近
持って
事項
きました
日本は
豚
時点で
案
項
に行く
体制
行き
労働
波
指
嫁
▁ただし
しい
ること
みる
麺
》
カン
プラス
業者
立ち
Y
術
に関して
クソ
ダウンロード
自分で
テーマ
すら
グルメ
ミニ
公式
鉄
新規
者が
整備
飯
チーズ
素
上で
動
措置
ジャ
類
してます
温泉
年齢
ご紹介
▁コメントする
チャ
怖い
桜
図書館
あまり
合い
ここ
英
人と
48
ホーム
アイ
史
弱
させ
こういう
食べる
ライフ
袋
ぜ
なかなか
社員
▁そもそも
の情報
名前
一覧を見る
記
都市
腹
妻
事業者
マンション
夫婦
出版
利
以下の
奥
上げ
おります
板
断
事情
いっぱい
やってる
レストラン
絶対
k
▁いや
個人情報
そのまま
万人
広
と一緒に
と言って
▁6
くれる
土地
議員
法律
ゲ
外国人
ことができます
u
ライブ
に対し
項目
知識
ゴミ
自己
非
ファ
せる
もしくは
ご意見
あなたの
お客様
カット
結構
カラー
訪問
解説
やり
取
できません
終わり
500
ID
とこ
変化
ヨ
済み
判断
依頼
保
ろう
出して
馬鹿
完全
掃除
かけ
▁私
朝鮮
ちゃ
プログラム
反日
じゃなくて
反
んですが
の流れ
スーパー
るのは
考えて
売
オフィス
操作
印象
友
扱い
億円
里
層
探し
現地
PR
つけ
づくり
ねー
認識
んだが
冬
みたいに
世代
つか
▁10
I
材料
負担
んだろ
県
最
上昇
投資信託
過去
逮捕
ファッション
の内容
目標
としても
中央
みた
アル
▁今日は
制限
角
尾
だね
過ぎ
京都
ラー
仲間
一度
食品
協力
予算
名無し
急
アイドル
Z
緊急
全然
検討
湯
券
お弁当
してくれる
アカウント
違い
オン
キー
▁あの
となり
頃
】「
程
家事
▁韓国
引
脳
字
北朝鮮
▁まぁ
官
失敗
書き
なくなる
価値
研修
してしまう
異
1.
オススメ
彼女
台風
していない
スキル
質
していく
CM
ゆ
乗り
のない
油
友人
主婦
するのは
ことができる
楽しみ
登場
クリスマス
統計
配送
▁ブログ
記憶
運動
食材
全員
ソン
の声
犯罪
in
嘘
公園
発見
入力
右
▁2019
食べて
住所
言
▁ちょっと
のうち
修正
替え
気になる
ネットワーク
などで
脱
自動
軽
好
路
編集
を除く
閲覧
走
継続
ものを
韓国の
可
イラスト
なって
謝罪
父
会社の
第一
サー
ガン
電
そば
出て
その後
打ち
ジャパン
巻
d
趣味
▁大
飲み
になっている
失
機会
月の
韓国の反応
の変更
七
茶
日常
なくなった
十
電気
投票
▁株式会社
鍋
▁こんにちは
に規定する
バン
ありがとうございました
興味
特
出演
▁何
技
送信
ボール
をして
弁当
会場
利益
お届け
調
ができる
ツアー
球
タン
が悪い
程度
訳
核
沖縄
節
すごく
ダメ
ちゃう
輪
にする
普通に
続き
そこ
が無い
みて
書いて
審査
実は
はこちらから
させていただきます
200
居
何を
ええ
タイム
指導
シェア
を使った
今の
というのは
高校
社長
️
▁それは
園
かどうか
津
ようです
あたり
家庭
できた
マイ
ったら
便
バッグ
特典
それが
長期
痛
パー
優勝
転
男子
細
があって
キッチン
お仕事
▁特に
深
勝手に
70
色々
はある
ぶり
あなた
骨
歳の
関係者
ガス
状
チケット
動物
宇宙
もあります
牛
▁二
越
今回の
方針
職員
オリジナル
シュ
ゼロ
連
ずに
種類
どうぞ
反対
押し
ことも
空間
▁子育て
現場
なくても
されてる
交通
スペース
_
フル
返信
せず
専用
することで
定
左
2020
国の
必要な
大好き
息子
素材
注
病気
証
気分
友達
さんに
ック
っぽい
に向けて
日から
バイト
解
元気
来た
なければ
処分
窓口
肌
卒業
を通じて
テスト
著作権
速
涙
危険
関
動き
信用
側
キャリア
キャンセル
・・・。
江
権利
洋
発送
警察
クラス
グローバル
計算
だけでなく
建設
きて
▁そう
の求人
▁私の
提案
精神
てしまう
請求
見た
清
をご覧ください
クロ
を作る
ものです
政権
別に
枠
自転車
ルール
1000
進
満
感情
世界の
実際に
コレ
ベスト
いたら
場合には
胸
エル
実行
遠
瞬間
コーヒー
許可
まり
獲得
ねえ
製
戸
■
y
運
したこと
民族
出来
ケーキ
分の
とっても
私も
買う
パートナー
内で
崎
市民
いただき
(3)
ボランティア
2018
弁
税金
家に
ックス
科学
端
▁その他の
寺
書籍
というか
受け
(*
たっぷり
保証
80
とした
は何
福
クーポン
被害者
90
クリック
良く
ぁ
京
があれば
姿
優しい
感想
守
なった
TV
たくない
3.
してない
物語
これから
トラブル
難しい
詳しく
ないと
消費
コマ
今後
ニー
▁なん
に行って
2.
ミス
▁まだ
誌
アレ
団
スポット
岡
SNS
生産
志
ってこと
ごとに
試
罪
求人
正社員
少年
片
立て
安定
楽天
行った
競馬
宿
▁記事
だと思います
損
完成
ハウス
タイトル
凄い
が高い
柄
ケア
入札
お客様の
師
聞いて
」→
コミュニケーション
00
すべての
作る
最も
人を
ブラック
リーグ
の場合は
隊
込んだ
防止
切
からな
ウェブサイト
ワイン
企業の
支払
是非
んだろう
なー
▁三
EC
キャ
記載
レイ
ソリューション
▁ご
長女
視
家の
▁もっと
鉄道
台湾
名無しのコピペ
するために
想像
逃げ
反応
先に
歩
くれ
議論
渡
免許
メイン
おかず
日本語
太郎
▁9
の歴史
れない
▁すべての
作った
させた
たくさん
人材
診断
ガー
答え
...!
第二項
耳
▁中国
文章
▁今回の
飛び
放
意
高校生
人で
長い
実践
情報は
片付け
ブル
占い
六
いって
可能性があります
両
朝鮮人
れた
バック
日本が
思う
今日
皆
▁もちろん
手続
落
薄
減
▁4.
永
ひとり
附則
受
いいね
歯
明日
共
結局
彼氏
激
出した
くなる
応募
福岡
の取り組み
ちゃんの
当然
ではありません
払い
を受ける
最後の
沢
サイ
頑張って
始めた
らん
メンテナンス
目に
理
チョコ
ベル
ジェ
一つ
たん
フィ
髪
0.
▁新
幅
学習
以外
の上
マル
転職
ギフト
ライ
を使う
こだわり
恋愛
構造
いま
お気に入り
距離
▁海外
院
ありがとう
殺
プレイ
部門
素敵な
リア
しており
勤務
2017
ビール
年金
母親
の大
利用者
のでしょうか
空港
岩
リアル
門
印刷
ノー
が必要
教室
重要
負け
限り
布
トマト
発生
▁なんで
記念
打
ボタン
バイク
施策
サラダ
掛け
決算
ティー
いたしました
120
br
んですね
誰も
致します
大きく
安い
いや
平均
されていた
用の
モバイル
説
に伴う
さまざまな
だったので
感動
▁ゲーム
場合があります
巻き
外国
ダー
屋さん
▁小
～!
に基づく
周辺
いろいろ
提出
党
カテゴリ
が好き
プラ
大手
野球
ホール
プライバシーポリシー
レン
▁毎日
の特徴
申込
配
育成
うどん
エンジニア
PS
担当者
将来
久
参考
今まで
読む
の魅力
選挙
製造
35
州
温
女の子
バランス
揚げ
上に
無視
確定
ッと
▁やっぱり
わからない
工場
格
人も
先輩
の概要
言ってる
収入
展
▁#
近く
複数
多く
くれた
鶏
考える
再生
身体
共同
分かる
弁護士
即
末
杯
▁そこで
復興
路線
治療
ちょ
正しい
しましょう
校
都
強化
彼
便利
弊社
の開催について
かけて
▁各
相当
▁ログイン
の方へ
教えて
在
加工
死亡
モン
開示
売上
翻訳
▁自分の
特徴
嫌い
を表示
v
ッチ
証明書
が一番
通常
トリ
エネルギー
>>
住
ぷ
重要な
であること
誰
不足
売却
続ける
を知る
現代
ゲー
普通の
政
素晴らしい
コメ
であった
ハン
ついて
会話
不思議
トロ
で探す
の三
ボックス
若い
非常に
に関しては
結
小さい
いただく
小説
の一部
らず
きます
結末
当たり前
過
をした
`)
小さな
やはり
参加者
だよね
筋
影響
画
サイトマップ
林
若
▁まずは
買い物
ぇ
隠
どんどん
▁なんか
検証
若者
エン
いじめ
泊
お出かけ
を入れて
ったり
or
嫌
▁もし
もなく
建築
首
した場合
ミー
食い
ビー
を見た
んですよ
婚活
5.
お菓子
構成
者は
キャラクター
f
漬け
最終
キロ
就職
うち
投資家
▁その後
▁海外の反応
鼻
時間が
購読
ロシア
シーズン
加
余裕
――
▁引用をストック
4.
幼稚園
盛り
東京都
が必要です
ご確認ください
現
▁このサイトについて
大きい
の世界
ワーク
申し込み
休
来て
出る
少ない
を選択
乱
お問合せ
セキュリティ
赤ちゃん
段
車両
からね
自ら
補償
読
梅
満足
んだな
菜
少女
フォロー
努力
生き
祭
過ぎて
完了
縁
働く
そうだ
雰囲気
マーケット
納得
武
ほとんど
二人
ガイドライン
開
まち
▁まとめ
冷
●
河
所得
ゼ
兄
DIY
記者
現状
気がする
▁なぜ
もあり
することができる
ストーリー
になると
一日
しなければならない
坂
テン
のです
十分
ゆっくり
駐車場
雄
アンケート
ストレス
挑戦
選び
ナビ
止め
アホ
秒
九
優
パパ
ローン
差別
見え
腕
ただ
45
の紹介
バイ
相手に
収
地区
実験
わない
絶
▁それが
詳細を見る
つつ
c
回復
片づけ
300
でき
穴
の利用
スイーツ
株価
コーナー
▁これが
在庫
゚
流れ
てきた
レポ
かん
教
認証
はまだ
の方は
何度も
マジ
○
我が家
めっちゃ
改正
生徒
所属
合わせ
思い出
待ち
間に
雑貨
ライト
取り組み
常
んだろうな
難
勝利
樹
ヴィ
携帯
nbsp
の違い
アドレス
収益
ないから
行政
副
によると
いか
仕事を
に参加
離婚
浜
おかしい
数字
勝ち
職場
界
ないけど
ペット
食べた
研究所
されない
の中
登
並びに
感謝
ダイ
▁5.
ぽ
羽
ツイート
コスト
を取り
個別
炒め
シン
下の
~
める読者に
る読者になる
読者をや
マーク
すでに
助
▁読者です
▁A
思考
義
▁ヘルプ
今回
関西
底
調理
TOP
シート
藤
買った
とう
振り
時代の
辛い
るか
無し
▁こういう
ーン
パソコン
出典
!』
鬼
集団
ヌ
ところで
▁あなたの
(6)
通販
ける
名無しの冒険者
▁他の
▁みんな
のほうが
はどう
▁“
医師
▁プライバシー
美しい
醤油
嬉しいです
パス
雇用
電力
今回は
以来
▁19
はもう
計
必須
人たち
適用
広報
主人公
粉
ここまで
省
ップ
領域
ダイエット
オフ
っこ
虫
だぞ
ピー
」【
変わる
原因
のお客様
性格
進化
まとめアンテナ
来る
健
▁今回
しゃ
共有
公表
金利
昔
だけの
ぃ
今日は
うちに
感覚
▁コメント
︎
お申し込み
▁お知らせ
伝
ショー
トップページ
を選ぶ
もらって
さんと
ドイツ
妹
お前
期限
める
チャンス
▁さて
の中に
したもの
よし
ネタバレ
加入
イギリス
社内
ストア
主張
▁実は
(12)
の仕事
を開催します
(7)
どこ
仕様
ロン
異常
緑
あん
マップ
にならない
あらすじ
入れて
切れ
舞台
平和
可能性
と共に
ブラ
よー
工
を超える
に行った
解除
節約
までに
気に
▁̄
かもしれません
んや
年代
厳しい
フード
保有
ころ
がん
聞き
ポチ
機器
中で
たく
割引
いつ
向き
なくなって
不要
よろしくお願いします
メリット
の種類
予防
行う
▁本日
ジー
停止
なければならない
なんだよ
既に
遊
避難
に入って
タグ
のご紹介
お風呂
手法
抜け
日韓
年生
短
がいる
今年
アー
整理
支給
うまく
専門家
返
6.
って感じ
分類
n
もらった
に戻る
を確認
▁>>
だろうな
札幌
銀
デビュー
アイデア
▁オワタあんてな
バラ
NHK
まい
破
務
の問題
氏は
主義
関東
アート
人々
8.
従
もいい
本社
を紹介
れて
早い
▁同じ
寿司
蔵
床
お酒
入って
今日の
るべき
を受けて
ものは
するため
クレジットカード
フォーム
を目指す
実現
クラ
報告書
スマートフォン
申込み
横浜
竹
▁元
密
っていた
間違い
機械
有名
等を
地球
▁つまり
金融機関
生物
エントリー
壁
ナー
JavaScript
そもそも
農業
日間
否定
ご相談
人口
疑問
チェ
完全に
スピード
ルーム
カバー
知りたい
あるある
便利な
子さん
市の
令
姉
につき
復旧
への取り組み
キャンプ
スタ
の使い方
防
模様
んじゃ
名古屋
アリ
しないと
自信
義務
帰り
匹
るのが
笑顔
医療機関
▁応募する
になってる
除
切って
医
メールアドレス
▁私が
コーデ
高級
軍事
▁今まで
当たり
きっと
それぞれの
余
l
7.
いった
糞
様に
端末
(^^)
こんなに
ないし
外部
要素
るから
霊
▁楽天
空気
までの
大型
具
被
通貨
するための
独立
ことがあります
美味しく
魅力
刺
分け
どのような
ランド
をしている
以降
住民
財産
を行い
廃
堂
目の
支払い
してから
履歴
セン
いません
r
文句
地域の
どの
▁ご意見
トップへ
を開始
んか
インド
ブルー
小学校
弟
複製
テーブル
(5)
かい
年収
本人
知る
にした
ハロウィン
ワード
Google
兄弟
読者
▁こちら
害
を取得
カテゴリー
買取
大切な
パスワード
交流
をご確認ください
さえ
が多く
背
一時
中止
▁12
実家
そんなに
上記
アウト
商
事が
お願い
の規定
まったく
▁お探しのページが見つかりません
症
さない
クリア
みました
委託
2016
本日
だよな
厚
ユ
中華
之
展示
▁今日の
▁結局
消費者
▁そういう
んですよね
5%
できませんでした
兵
設置
明らかに
業績
ホワイト
なんだけど
常に
多数
豆腐
そこまで
うま
商品の
修
昨年
可能な
悩み
消費税
瀬
いただけます
のだ
発展
ペン
ようになった
ゴール
にくい
おうち
いても
ポン
cm
の設定
内に
待って
の皆様
の規定により
在日
ジャンル
建物
司
をご紹介
がいい
拠点
庭
外交
今は
麻
交
▁この記事
借り
売買
さが
トレンド
買
債券
味噌
印
アナ
周り
自殺
指摘
交渉
提携
際
佐
いう
泣き
んだよね
宣言
市町村
爆
付与
▁うちの
釣り
半分
ール
絵日記
習
することができます
いただきました
覚え
朗報
源
▁ありがとうございます
食べたい
栄
位置
第二
列
受け入れ
er
満載
クリ
情報提供
初の
パック
分で
起
▁Q
ますが
知事
▁→
言語
幸
キープするキープ
してほしい
男女
ウェブ
問い合わせ
次男
ジュ
精
CD
全ての
あげ
一生
もらえる
自社
かない
もらう
リニューアル
ルー
ロック
コンビニ
降
深い
を作って
していて
乗
サイド
ならない
当時
つけて
デート
機構
慰安婦
概要
近い
庁
マスコミ
▁先日
トラック
オー
あらゆる
韓
クリーム
過去の
忘れ
に必要な
を実施
をはじめ
危機
ラグビー
活
授業
お買い物
でしたが
肩
傾向
均
沢山
都道府県
新宿
低い
パターン
献立
かかる
コピー
作り置き
▁11
練習
ィ
】【
汁
わからん
写
示
たま
当日
▁2018
合う
系の
入院
これが
未経験
の続きを読む
想い
▁俺
書いた
中学生
an
移転
手を
▽
怒り
途中
▁お客様
防衛
なお
あるいは
香港
ネコ
ていく
ステージ
皮
証拠
を開催
中国人
復帰
スッキリ
スペシャル
最新の
散
任
するか
Twitter
名無しのツバメ軍団
▁これから
カル
セール
分野
助け
レース
人物
なんだから
捨て
んの
上司
わたし
孫
雑
はもちろん
がありました
児童
▁仕事
お母さん
見せ
無く
定期
会長
一言
メイク
恵
長く
犯
死ぬ
書店
中国の
取って
h
魔
策
ラジオ
全体
日本で
約束
建
仲
勢
協議
ボタンを押してください
カップ
をお
地元
為替
事は
本部
のだが
ゆう
わけで
氏が
ということで
最低
規定
ほうが
恐怖
ロボット
に合わせて
造
自衛隊
指数
ジョ
会計
大好きな
クス
控除
振
接続
チャンネル
▁今は
グリーン
向
出場
出来事
分からない
パート
現在の
っち
午後
に向けた
リーダー
お申込み
▁全国から探す
復活
渋谷
固定
天気
予測
お茶
生きる
wwww
公演
ひとつ
～♪
父親
輸出
紀
時間を
マイナス
▁子供
陽
万国アノニマスさん
見た目
放置
が違う
っけ
講師
話を
エピソード
剤
・・・・
素敵
等について
もし
まとめたニュース
像
情報の
9.
られている
のレシピ
プレミアム
るけど
のブログ
聖
宿泊
プロモーション
ザー
のまま
に関する情報
テクノロジー
返し
b
保険料
仕組み
これを
管理者
と思い
チョ
標準
しません
の意味
ラブ
の国
再度
であって
個性的な名無しさん
の実施
状態で
バター
息
いくら
▁新しい
目を
レンタル
▁これで
ようだ
調べ
▁大阪
カス
HP
設立
を行います
欠
合意
であれば
なんとか
んですけど
に出
コミュニティ
仕方ない
続けて
時から
←
言った
パーティー
まとめのまとめ
続く
こちらの
活躍
を実現
第三項
なきゃ
反映
裁判
知って
えて
複数の
からのお知らせ
従業員
患者
要求
が出る
迫
いただきます
▁過去の
維持
人気の
俺は
池
ラク
つもり
退
皆さん
だからな
歓迎
につきましては
連続
旦那
陣
まぁ
▁地域
児
おしゃれ
▁6.
舞
アルバイト
2015
美容
ないように
手術
リリース
拒否
一人で
単行本
両親
楽しむ
回り
不正
信頼
(9)
の規定による
ベース
の事
有効
▁投資
のおすすめ
おい
取扱
高齢者
焼
▁今日も
んな
たかった
寄り
給与
ないか
リメイク
となりました
下げ
るのか
誤
詐欺
めちゃくちゃ
メモ
公共
博
善
になっています
置
ども
発信
こっち
診療
づ
同意
ればいい
と思っています
改めて
PDF
常識
を考える
初期
スマート
▁ご利用
値段
▁確かに
天皇
の新
景気
子の
笑い
賃貸
まん
廃止
疲れ
壊
条例
ごと
▁無料見積もり
ニート
差し
▁家族
▁未経験者
コンサルティング
奈
していきます
心の
ング
んじゃないか
▁《
委員
いけ
ニーズ
ようで
居酒屋
自宅
前から
積
品質
一体
アド
解消
当サイト
議
チャン
▁アメリカ
▁くらし
子が
サイン
数は
▁例えば
宗教
オーナー
デモ
まって
生きて
問
修羅場
講演
変な
ダン
東北
タイミング
は無い
▁掲載終了まであと
上場
広島
の結果
▁笑
合わせて
を持ち
食べ物
不可
次第
純
規模
ロード
何が
為
しな
新たに
していました
新幹線
自民党
伝統
上がり
ダウン
養
シャツ
クルマ
～」
休日
ほんと
面倒
障害者
▁まず
カ月
コチラ
ますね
臭い
諸
比
▁外国人
│
ご案内
いきます
再び
昨日
生地
するのが
にあった
をいう
法令
更に
のページ
一覧へ
ワールド
窓
2000
グラ
アクション
の状況
貴
追い
しま
してしまった
教師
レモン
の写真
送料
連中
初めて歓迎
あい
ラップ
けん
倒
ものの
教授
でもない
お客さま
役員
などが
スタンプ
迷惑
課税
出会い
安心して
まとめて
チン
クラウド
できること
快
配慮
長男
イケメン
SBI
人類
以前
これまで
▁それでも
▁人気の
抜き
終わった
編集部
ものが
するには
執筆
人達
声優
同項
始め
初心者
移住
訓練
としての
断捨離
トラ
田舎
汚れ
2014
実際の
ーちゃん
しく
マネジメント
と思いました
フランス
動向
下記の
できて
ねこ
パスタ
保育園
時短
欧州
娘の
安倍
装
全般
ピン
んだよな
自治体
生まれた
▁よく
プレ
作家
の時
Amazon
キン
知ってる
パンツ
言えば
キャベツ
を楽しむ
取る
たちの
の確認
汗
ります
小学生
望
01
▁ご利用ガイド
年以上
引き続き
想定
たか
かよ
増加
癖
お気軽に
見学
海外の反応
みよう
ことがある
ご注文
▁入札
プレー
情
電車
見通し
都合
闇
で見る
案件
ませ
毎回
ましたが
オタク
交付
納付
崩壊
女優
日本代表
旨
キング
首相
をご紹介します
はじめ
(8)
最初の
ほう
第三
ごろ
ご質問
自分に
下記
書き込み
投げ
なよ
媒体
商品を
によっては
相手の
39
票
最強
預金
」、「
ぱ
死んで
せて
ご登録
続け
くら
どういう
ウィ
宝
〇
モード
割り
携帯電話
したのは
しなかった
▁広告
毎年
力を
口コミ
使え
妊娠
▁ア
せん
投
▁みんなの
子供が
じゃないか
学び
荒
解析
野党
母さん
真実
イタリア
んですか
とんでもない
くなった
変わって
カイ
つい
視聴
給
»
お前ら
の規定は
送
ニュー
仕
とかいう
突然
思って
説明会
考え方
毎月
ぴ
ブロック
無印良品
離
見つかりました
平日
出身
▁日本は
を活用した
張
クズ
ゾ
いるので
後は
寄付
日付
のニュース
うちの
に関するお知らせ
上位
楽しんで
▁ページトップへ
残念
NPO
▁そのため
世帯
か月
たちが
▁Yahoo
老
サービスの
受賞
▁ホーム
▁企業
消防
頼
ませんでした
とにかく
けどね
音声
ブラウザ
るし
商品一覧
▁このページ
▁昨日
大臣
職種
x
華
主催
見える
絶対に
強制
遊んで
いつでも
▁それを
ってのは
ar
出張
報酬
FF
帯
炎
段階
ライター
出た
丼
支持
張り
お支払い
クッキー
どこに
勝負
休み
▁ワイ
きっかけ
最高の
どうしても
メン
こさん
一気に
中です
事前に
オプション
ますよ
銃
酷い
破壊
逆に
になったら
ことになる
敗
再開
インフラ
くらいの
お話
短期
しん
レー
どっち
靴
くれて
▁今の
に掲げる
って何
on
跡
JR
かわ
▁気になる
《
を通して
当時の
民間
確保
過ぎる
やな
▁あれ
承認
をチェック
▁とりあえず
わざわざ
襲
追
生命
背景
演出
玄関
祭り
少
▁朝
お料理
上がる
することが
手段
冷蔵庫
有料
働き
32
▁米
眠
一部の
無料で
ますか
也
留
セル
ピンク
▁広告掲載について
第三者
'
記事を
主要
ココ
徒歩
(1
辛
場合がございます
マジで
ドリンク
以内
範囲
国債
イー
中古
古い
をお願いします
させて頂きます
娘が
査定
あら
転載
が可能
ゆる
退職
宣伝
圧
会員登録
流行
寒い
給料
▁当
置き
届出
益
しまい
の高い
甘
ッツ
収集
の日常
訂正
候補
寄せ
ノン
▁ここ
人権
るのに
装置
▁○
撃
集客
著者
保管
新潟
盛
人数
いろんな
共感
・・・・・・
最後に
たけど
動か
劇
衣
参考に
まさに
もあった
求人情報
ダム
僕
▁はじめての方へ
運命
ブックマーク
困難
不具合
妄想
変わり
ただの
人事
言われて
めて
電子書籍
ブログです
パワー
まちづくり
詳しい
かれ
に入る
構築
って言う
ついに
なさい
豆
人間の
送料無料
などに
前後
マネー
高速
発達障害
違反
疑
頂いた
貿易
関心
ディズニー
電話番号
てた
私に
上手く
安倍首相
姫
立場
昼
チャレンジ
を読んで
▁お前
NG
ワロタ
のコメント
支え
34
だろうが
ヤツ
コラボ
とり
ナイ
噂
▁むしろ
最大の
忙しい
支配
▁詳しくは
聞く
でいい
鍵
リサーチ
乳
^^;
時代に
チキン
▁世界の
パフォーマンス
改革
才
メートル
ちゃった
ここで
業種
臭
やめ
詰め
▁これからも
みんなで
あげて
中心
決め
引っ越し
しばらく
新作
を読む
受験
圏
スパ
負
中小企業
ポケモン
基礎
姿勢
にゅー
お肉
っぱ
サロン
缶
美人
経営者
文書
▁前
かり
フォト
立って
を入力
工夫
手作り
韓国に
個室
とのこと
▁全
同時に
をもとに
帰宅
いき
チャート
なお従前の例による
自身
ハー
この法律
フレ
ミン
アドバイス
といえば
ルート
明治
一回
やっと
申告
までは
に基づき
400
幹部
ドン
かた
どうやって
犯人
これで
ナン
財政
検索結果
共通
世界で
メールで
はじめて
▁すべて
お取引
後半
農
お得な
道具
入学
ヒロに謝れヒロに謝れヒロに謝れ
ひな
SP
統一
間違って
るだけ
っちゃ
盗
同一
何でも
日本を
急に
翌日
ライブドアブログ
シンプル
正直
営
▁自分
せない
最後まで
女性の
てくれる
する事
に関するお問い合わせ
表記
用品
議会
暴
してくれ
バトル
wwwww
プラットフォーム
クリエイティブ
日本人の
com
こいつ
有名な
を提供
お客様に
いただける
▁ぜひ
なのは
すみません
うる
んじゃない
競技
思った
周
暮らす
▁7.
本当
原作
当て
の名前
資産運用
本当の
トランプ
となっている
気軽に
沼
たった
って事
備え
ボディ
決
コミック
ガチ
ブック
俺の
強く
様の
降り
コー
来年
ステップ
FP
にしても
しやすい
ありました
まった
46
▁実際
▁詳しくはこちら
られます
の活動
通報
動作
子供の
振興
マラソン
側の
という事
半島
▁俺は
サイトです
浮気
やま
ければ
組合
魂
あっ
が良い
アイス
占い師
それでも
お部屋
達成
ハード
鈴木
なんです
家具
消
パンケーキ
のですか
神戸
スケジュール
たくさんの
譲渡
バレ
材
澤
▁だめぽアンテナ
前提
の様子
弱い
データを
の一つ
に入れて
智
仲良く
相続
命令
きちんと
在庫確認
の人気
他に
カラ
しまって
ショート
栄養
接
始めて
チャー
豊
てしまった
済
入れる
子会社
しまいます
あげる
手当
≫
まとめブログ
回収
むしろ
嵐
効率
最初に
方の
グル
パク
該当
▁LINE
グループの
ケン
エア
代行
水準
収録
ならば
至
エンジン
▁テレビ
不倫
要因
からも
となっています
入社
今後の
わけです
は本当に
奴は
けて
カレンダー
ショッピング
財
的には
▁商品
のもの
クロス
自体
矢
一切
河川
▁どんな
お試し
そうで
▁(2)
▁以前
雲
モニター
秘
棚
CO
喜び
浦
管
第四項
龍
損失
ちゃんが
性能
ステ
をご利用
到着
おお
にお
に応じて
朝日新聞
の使用
ドライバー
もう少し
方がいい
そのもの
ております
簡単な
働き方
ついた
の可能性
をもって
方に
の関係
年目
▁まとめサイト
見たい
不満
ままさん
苦労
物を
についても
センス
事態
▁台風
スイッチ
AKB
喜んで
テキスト
フルーツ
の動き
なか
創
マシ
以後
おく
ST
お願いいたします
のせい
ーん
念
反省
叩き
富
寒
男の子
いなかった
松本
両方
ソー
ヒット
はコチラ
ベッド
作り方
在住
ご協力
にとっては
ノート
氷
芸人
有り
▁ページが見つかりません
凄く
を目指して
されていない
不明
カート
描いて
No
創造
だらけ
まあ
一括
住まい
する場合
ブリ
豊かな
』(
自分は
しまいました
大事
看護師
ゴルフ
貯金
続いて
証明
読書
リクエスト
▁投資信託
▁人気
を検索
公務員
言わない
路線から探す
▁野菜
聴
てん
布団
東海
-1
出発
▁最新の
デン
ソフトウェア
政治家
方向
眼
日程
お互い
分かって
の影響
を経て
へと
を感じる
製作
▁チェックボックスにチェック
福島
レジ
内容を
喜
データを取得しています
震災
砂
塾
おう
▁戻るこの条件で検索する
のお仕事
の四
現役
ないので
府
個人の
引用
変わらない
語り
月から
事に
作れる
▁個人
の一
のコツ
最初から
忘年会
豚肉
ジャー
アレンジ
衛生
題
検索条件
ーー
山口
じゃあ
方式
創業
年末
普段
(4)
家電
態度
へん
痛い
ポリシー
▁▲
吹
込め
警戒
を発表
ヤバい
腰
適切な
走り
彦
となって
▁一方
皿
面接
飽き
回目
目が
理論
に来て
仮
特定の
他人
バル
オリンピック
ティング
びっくり
占
伸び
が出て
学会
冷凍
の間に
ツイッター
件の求人が
数値
▁世界
▁お探しの条件で
限界
フォー
介
ご購入
等は
36
ボーナス
同法
コト
らしく
▁こちらの
を買う
地上
ところに
!】
調達
ノウハウ
銀座
▁今年の
ボン
おもちゃ
勘違い
分配金
▁それに
折
アーティスト
が必要な
ビュー
死んだ
事前
終
照
誰でも
おっさん
色んな
まずは
・・・」
▁お手数ですが
も同じ
奪
▁お探しのページは見つかりません
▁北海道
大事な
促進
タイヤ
汚
コール
タウン
コツ
なんと
やめて
ダンス
減少
の方法
デザイナー
の方々
算
えない
使い方
韓国は
限
かね
▁前のページ
バンド
誰が
把握
〉
関係ない
鑑定
損害
店内
艦
以上に
別れ
本気で
コンセプト
トレーニング
アメリカの
飲食店
氏の
ファースト
トメ
冊
最適化
ヨーロッパ
は一切
ようと
装備
▁にゅーぷる
荷物
原則
管理人
が語る
どうか
綺麗
風景
供給
どれだけ
くらし
りゃ
影
▁他
車で
IS
ネイル
進む
パラ
▁そりゃ
るように
新法
SEO
先の
色の
を出して
ここに
基盤
厳
分割
▁イベント
の変化
浅
執行
考えた
かす
^
フェ
▁弊社
よろしくお願いいたします
いるのか
もちろん
倉
言え
を変える
補助
使った
▁8.
するもの
ていない
地獄
柴犬
というのが
諦め
韓国が
どちら
高橋
港
いたので
政令で定める
変動
を利用する
一年
能
しょ
誰か
頂き
どれ
/>
の作り方
100%
たまに
ボー
豊富な
ご連絡
周年
期間限定
免責事項
艸
受講
容疑者
情報が
ハム
絶賛
神経
ないのに
画像あり
正解
▁次のページ
許
引退
のチェック解除
▁ス
千葉
33
▁20
表情
太陽
フォ
黄
統合
をもっと見る
残業
▁おはようございます
どうする
採
描き
んやろ
ぅ
武器
オーストラリア
の管理
ませんか
爆発
こい
徳
FA
▁日本人
と思ったら
恥
のだろうか
競争
現金
することは
風呂
覚悟
DVD
スルー
ずつ
文庫
だけは
植物
に興味
みると
リス
歩いて
ジン
かと
いわゆる
族
▁高
皆様
なぜか
為に
勝つ
個人情報保護
代の
夫の
▁この商品
手順
する方法
時には
調味料
単位
プリ
々と
感が
湖
の有無
違和感
熊本
▁(1)
▁東京都
保守
動く
原発
パリ
可能です
見たら
定番
くなって
気象
の下
まだまだ
公募
奴ら
独自の
おか
映
暗
を作り
だったり
リビング
ドア
車の
誕生
できなかった
募金
38
成績
確実に
上限
教え
の良い
最後
呼び
参
方も
こども
豪華
レベルの
NEW
▁駅
▁京都
息子の
大根
評判
配当
落札
ビン
を出す
の人
なります
✨
高く
の基本
好み
見えない
削減
に基づいて
自身の
毒
が発生
▁当サイトについて
とその
メント
見直し
覚えて
UP
とあるのは
ガラス
ッシュ
書く
魔法
FC
基準価額
話し
の説明
呼ばれ
⇒
発想
サイトの
資源
いける
は日本
いずれ
同僚
航空
略
策定
民主党
女性が
▁今すぐ
j
月末
もので
貧乏
世界に
謎の
ですので
間の
合格
用意
手間
菌
需要
さんも
回避
賀
工業
監視
まれ
結婚式
MO
バージョン
測定
あんまり
ビジョン
を変更
▁残り時間
アピール
修理
でございます
どうして
カップル
延長
もう一度
炎上
ショック
輸入
悲しい
があるから
補
...?
型の
取り扱い
〈
子どもたち
.1
を求める
それで
納
基地
800
;)
❤
のお話
育
お返事
▁各種
通勤
どころか
▁詳しく見る
というもの
だろうけど
名無しの歴史部員
▁我が家の
散歩
の開発
苦情
埼玉県
ドラ
専
検
世界一
お父さん
誕生日
調子
ッド
価値観
しょう
芸術
護
を守る
......。
集計
楽しめる
だけでも
吉田
お電話
▁ID
とし
遅れ
トーク
下落
具体的な
なんだろう
の森
ゲスト
火災
頂
規則
手に
困る
マルチ
年前
受信
お腹
ようになりました
みたら
▁日経
姉妹
勧誘
化する
明け
離れ
なども
になれる
▁子ども
はこの
言われ
テロ
剣
鏡
洗い
▁新着
も良い
評
▁こんばんは
非表示にする
ご注意
やすく
告白
読者登録
深夜
トル
のんびり
(^
グラフ
ちょうど
をしています
を獲得
本格
会見
下手
ご覧ください
実際
わかった
だろうか
灯
おもてなし
▁それで
不思議な
提供する
歴
プール
の中から
の提供
帰って
上部
の研究
用語
解約
積極的に
を書く
伊
Cookie
に関わる
箇所
レッスン
ゲン
持
殺人
かかって
ブーム
47
彩
だったから
資本
深く
シフト
するという
ですから
んじゃね
ヲタ
神社
米中
確率
▁今年
抽選
作戦
IC
時間帯
出店
でもある
謎
取組み
豪
を行った
独身
タオル
就活
とりあえず
陰
押
エビ
借金
ァ
るような
数が
クル
ニング
呼んで
クリニック
喧嘩
co
つける
先日
▁最近の
リスティング広告
してくる
フェア
形で
に貢献
だろうし
症状
ともに
英国
中間
▁9.
くせに
卒
▁当社
ふく
イチ
てくる
ステーキ
宅
道の駅
職人
似
幅広い
杉
阪神
程度の
ロゴ
優先
メイ
の推進
どのように
切る
-2
居る
集中
聞いた
移籍
オール
謝
;
群
だけに
懸念
内部
協定
被災地
に該当する
論文
大人の
▁ネット
を行っています
要請
ぉ
だからこそ
▁サービス
中学
を入れ
同条
▁イ
洗濯
パッケージ
パーク
暑い
裕
こんな感じ
これらの
整
らい
前回
の評価
うまい
公式サイト
一緒
ばっかり
親子
山本
得意
丁目
サーバー
普及
変わった
思想
置いて
手帳
やる気
なんでも
と言い
芋
に伴い
ート
▁お客さま
山田
の前に
巨人
ニトリ
経
代金
脚
登山
のことを
残高
ほん
もはや
譲
サブ
世間
掲示板
気持ち悪い
社会人
無事
ベトナム
の詳細
』『
合計
しかも
もち
の考え方
せずに
インストール
絵本
再度お試しください
の間
桃
▁100
主に
やろう
建て
悪化
手が
陸
なんだか
移民
おやつ
所有
すき
▁あとは
処
オーダー
を設置
一方
だれ
当選
寝る
を確認する
投信
定義
▁ストック
財布
家で
MA
出品者の商品を
作者
恥ずかしい
物流
してて
の差
と思うけど
150
ジャンプ
▁Web
おき
朝食
株主
▁キープする
を利用して
多少
過ごす
開設
ボード
▁ほんと
捏造
思います
指標
大和
書面
被災
郷
▁J
ワー
声を
上がった
尚
が登場
自由に
▁2017
子供を
少しでも
に近い
してきました
細胞
ご利用いただけます
ムン
時間は
長崎
▁ポイント
専門店
彼ら
はこれ
必見
個性
まえ
転換
ICT
枝
日本政府
対戦
の本
のヒント
いれば
決して
果
腐
飼い主
天才
辺
ジョン
無駄
内容は
のポイント
って話
出てくる
人間が
暇
ある程度
隣
して下さい
わかります
半年
お祝い
確かに
エコ
の販売
可能性がある
津波
700
つながり
味わい
者に
最適な
エラー
ブス
滅
干し
冒険
にいる
(2
岸
飛行機
仏
違法
ーーー
▁とても
サイトで
されること
くま
ふるさと
子供たち
ホン
航
三菱
◇
漫画家
回し
はかなり
境
▁犬
▁カテゴリ
徴収
心地
軽く
刑
▁いま
デー
▁正直
はっきり
を公開
ビデオ
町の
言えない
誠
▁初めて
飛
次世代
ここから
を担当
札
いいよ
になりたい
理想
▁同
味方
日本人は
走る
▁修復歴
乗せ
の時に
▁レシピ
小さく
に登録
の運用
にかけて
当ブログ
香り
乾燥
ロス
洗
をつくる
プリン
向けの
選べる
マネージャー
年生まれ
ターゲット
カウンター
わかって
600
▁今日
ホント
独
国立
～～
子供達
がありません
奇
理由は
っぽ
いると
マス
忘れて
るよ
実質
帳
▁とにかく
ヘア
かぶ
データベース
?』
自慢
りー
祝
将
▁お客様の声
戦後
稲
時々
甲
売れ
名称
IN
白い
jp
労働者
ニア
芸能人
オーバー
にかかる
いだ
速度
ないよ
んじゃないかな
学園
などは
江戸
おもしろ
畑
プライベート
の商品
流通
移行
のお店
に関すること
同居
してくれた
のではないか
獣
気温
さら
リップ
学部
ぺ
一致
▁明日
対処
主な
モンスター
の対応
配置
どうでもいい
職業
学ぶ
静
税込
セレブ
^)
見ると
を検討
の悩み
風邪
と思っていた
↑
焼肉
▁スマホ
ポケット
出荷
おじさん
なのですが
が少ない
–
独自
濃
▁今年も
入手
タクシー
いで
タレント
デバイス
感じる
ソニー
いただいて
アラ
ナイト
国産
含まれ
取った
闘
▁四
かし
海老
俳優
活動を
上げて
のご
少しずつ
貼
わずか
財務
驚き
日本と
んだね
世紀
を購入
TO
売って
基
▁わたし
ファミリー
商標
特別な
ワケ
になれば
自分を
泉
仁
狂
市長
異なる
国が
のほか
網
のデータ
優しく
中古車
発注
カツ
スカ
しようとする
バナー
の顔
おでかけ
サラ
等で
▁エリア
準
放題
初め
▁女性
ご契約
▁普段
場所に
丁寧に
餃子
ほうがいい
と思ってる
アプリケーション
を提供する
東大
ご覧
挨拶
情報を記憶
利回り
▁だが
経過
帰
の人気記事
で一番
オレ
前日
低下
のお問い合わせ
できました
乾
▁今週の人気記事
日は
付録
くり
思わず
やってた
面白かった
に対応
無能
であろう
迎え
お土産
亀
上がって
擁護
ユニクロ
天然
味が
竜
思
ミサイル
ワークショップ
▁水
ポスト
があるので
彼の
郡
宴会
▁ワロタあんてな
射
田中
効
クール
っ子
日本人が
殿
の上に
昔から
この人
金を
用できません
アナリスト
▁ページが見つかりませんでした
日々の
コイン
臨
礼
クリエイター
我が家の
当社の
戻
正しく
の皆様へ
毎週
広い
の登録
シティ
グレー
男が
視点
言われる
徹底
安倍政権
そんなこと
続
国道
付近
って言って
日米
出版社
食感
デイ
暴力
ことから
ブレ
干
フィー
していること
刺激
表示で見る
美味しそう
頂ける
刀
観測
ショット
奴隷
フラ
事務局
○○
▁ページの先頭へ戻る
▁にゅーもふ
キュー
助成
落とし
県民
の手
プル
捕
国会
▁おすすめ記事
▁スマートフォン用の
決勝
テル
糖尿病
コーチ
選択肢
で検索
軸
▁・「
--
甘い
37
歩く
▁今後
▁無料
厳選
区域
大規模
(2019
しっかりと
わか
根拠
▁当サイト
z
応え
憲法
おいて
に加え
遺
いきなり
できれば
そこから
エンド
月号
どこか
▁15
名の
こちらから
日まで
相談窓口
全体の
の娘
規約
▁プロ
踏み
ご利用ください
秀
んじゃないの
延
朝日
圧力
欧米
ターをつけました
域
をご利用ください
栗
問題は
まるで
タグ絞り込み検索
そこに
条約
はい
▁このコメントは削除されました
方々
ページへ
タワー
▁限定公開
恐れ
主人
のため引
やばい
お問い合わせください
▁おすすめの
餅
持つ
酢
コーン
なさ
してみた
月期
所得税
幕
OS
チュ
様な
ダブル
白菜
すり
旗
多分
お得
エクサワロス
今でも
重い
▁夏
っす
情報や
働き方改革
無効
主演
デス
マナー
米軍
オブ
方はこちら
加速
日目
ためには
オリ
GO
コート
男の
まめ
ができない
習慣
薪
午前
入る
ショ
わかり
殺害
安く
といい
雅
帰る
進んで
と言われる
所在地
の対象
糸
も多く
大量
世の中
名様
広がる
があると
▁お前ら
飲んで
色々な
形成
AR
るので
シンプルな
化学
エス
子は
敬
革命
いかに
交際
と言われた
スキー
たちは
決断
生き物
まずログインしてください
▁引用する
だい
旬
兼
に追加
ものだ
情報サイト
▁昨日の
たくなる
連れ
目で
コメント欄
後ろ
認知
種類の
自動的に
知らず
猿
玉ねぎ
と言えば
怪我
しようと
付いて
シール
▁逆に
コトメ
縦
国民の
行事
だったけど
地下
我慢
が出
りん
国連
終わる
日銀
やっている
▁こちらも
の取得
店員
転用
完
よくある
から施行する
以外は
いらない
広く
をさがす
ウェ
失礼
ジャン
共に
容器
戦闘
我
を感じ
飾り
お手伝い
係
が入って
水道
接客
基金
▁次回
大学生
高さ
給付
表面
保健
紫
に役立つ
お子様
と呼ばれる
へ戻る
願
▁投稿する
隠し
あなたに
同社
の生活
改
をつけて
五十
第二条
ログ
銭
種の
カナダ
を追加
硬
存
ランク
65
ようになる
パーツ
マリ
IR
アマゾン
▁詳細はこちら
筋肉
▁インターネット
に定める
ボス
マッチ
称
漁
せい
力が
おにぎり
本文
いきたい
の向上
やりたい
講演会
に見える
2010
re
▁特定商取引法に基づく表示
くない
オート
CA
反論
優遇
▁猫
に入った
お花
できるように
▁何か
いいな
キッズ
にしか
じゃがいも
と思っている
を支える
っちゃう
始める
コンサルタント
訴え
巡
スケ
きょう
いつか
がい
コメントを
がち
の旅
因
ドー
築
部の
じゃなく
セリア
なのだ
遅い
ハート
言ってた
みんなの株式
忠
切った
の設置
別途
漢字
はなぜ
たる
58
(;
も多い
債
週末
▁一般
ようやく
ミルク
配布
形式
ウン
▁やはり
捜査
読んだ
▁これまで
旦那さん
奴が
無印
カリ
晴れ
のサービス
のご利用
抗議
タンク
食堂
▁国内
進出
さい
SE
に関連する
ウチ
つぶ
▁レシピブログに参加中
告知
対立
絶品
ンズ
▁予約
過去に
方へ
判定
ベイ
剥
モテ
ドリ
佐藤
のメリット
皆さま
棒
ことはない
ダンナ
ウェイ
手紙
ある日
協議会
発達
行きたい
・`)
潮
SA
苦
若手
▁いい
正義
トピ
07
日本酒
😊
夏の
するなら
本サービス
▁カード
の存在
体力
事業所
恐ろしい
入会
した後
le
停電
意味で
盤
菅
伝える
ニューヨーク
進行
保育
すればいい
パネル
ポイントは
2013
郎
らせて
を使い
を知って
留学
みたいです
単
用途
知らん
の改正規定
心を
体重
だったのか
攻め
一歩
になってしまう
組み合わせ
▁゚
第一号
倉庫
▁このサイト
っています
やれ
一品
アニ
ヶ
ぽん
次に掲げる
メル
デザート
大雨
年から
あるけど
ちゃんは
ページを
サンド
整形
ときの
パイ
亜
で作る
日時
可哀想
蒸し
時計
ユー
の刺客
はその
とある
露
回数
こんにちは
今日も
年末年始
猛
▁ハ
になれ
とお
3000
写真を
付ける
へのアクセス
我々
機種
▁アニメ
遊ぶ
はございません
が可能です
ロング
信託
お友達
スクール
仕上げ
触れ
かれる
▁購入
ポスター
いますが
何故
わり
頂きました
リアルタイム
寝て
依存
猫の
竹島
がよく
心が
側に
の皆さん
人形
当社が
上げる
いち
会談
知った
風に
▁最大
変え
禁
大人気
▁人生
われた
期間中
点検
先物
大阪府
▁ありがとうございました
合併
en
韓国政府
敷
するのか
−
算出
始
と思われる
ェ
%
戦い
やらない
破綻
相互
嫌な
祝日
いちご
IP
▁はじめての
納税
高額
トレ
使
▁ま
遺伝子
早期
終わって
NISA
判
▁お申し込み
ゴム
愛情
走って
合わない
こともある
並
面積
をクリック
各国
いること
じゃね
マスター
いろいろな
度の
特殊
▁自分が
クライアント
巨大
回転
代理店
返品
頂いて
▁このブログについて
最新情報
心に
だけが
を引き
怖
いたり
してみました
泡
すっきり
よろしく
談
などなど
中学校
美味
芸
家族の
研
▁大学
・・・・・
ふり
削
触
プレイヤー
国籍
人家族
様式
ニット
鶏肉
の感想
かぼちゃ
規格
見られる
定期的に
をみる
身長
時給
Д
記事に
を始め
を持っている
話す
男は
筆
円で
レア
体調
しないで
ノリ
塚
のせいで
そろそろ
次女
しろよ
▁息子
リターン
時まで
ポあんてな
めん
が変更
なこと
典
まし
場面
巡り
ばっか
こない
会社が
芽
こん
晩
録
iPhone
ガキ
タレ
ちん
はどこ
紅茶
十二
りする
あらかじめ
ママ友
様子
ロンドン
不可能
温度
顔を
アフィリエイト
亡
を行って
中村
キムチ
労
しておく
貫
大さじ
神様
含む
看板
女の
五輪
という言葉
美術
▁名無しの
家計
ようになって
▁ヌル
クリックで
緩和
プロセス
ございます
切り替え
痛み
土曜日
▁じゃあ
引き出し
ネットで
棟
単に
えた
の更新
が大好き
申し上げます
▁少し
はいけない
返済
をかけて
実況
▁Google
当初
食器
吸
閉
▁それから
の反応
風味
秘密
アプローチ
エース
開き
▁このブログ
ラスト
ないのか
奥さん
タイプの
ってきた
おめでとうございます
メールマガジン
継
時刻
ており
al
身に
から選ぶ
持ってる
社の
配達
新築
嫌いな
シア
現象
kg
結び
イカ
混
見えて
言うと
医者
ヤバイ
ないこと
▁一番
恋人
苦手
わけではない
歩き
避け
49
▁メール
事で
社会的
▁韓国人
データの
の投稿
▁管理人
サービスを
子どもの
双子
指示
息子が
▁金
払って
でしょうね
▁注目の
▁写真
チョコレート
02
(※
まさかの
十四
2012
私たち
駆け
漏れ
ション
続けた
▁初めての方へ
▁簡単
言い訳
真似
は無理
偽
トー
感染
▁登録
虐待
カジュアル
課金
店で
ほどの
めちゃ
内容が
以外に
送付
が変わる
売れる
わん
それに
コム
届
あの人
ジム
会社員
▁PC
狭
に入り
語る
砂糖
▁かんたん
三十
つくり
首里城
05
▁ラーメン
▁こちらは
ロール
意図
NY
▁NHK
▁検索
の原因
ハンバーグ
▁ここで
イル
NTT
見てる
企業が
相手が
婚
方法で
すぎた
▁エリアから探す
▁ごあいさつ
けた
等に関する
しつつ
▁超
尻
他社
親の
した結果
ユニ
お金を
結論
成立
判決
通行止め
自体が
」←
のお願い
付けて
チカ
たび
連結
テンション
かえ
に関する法律
研究会
高速道路
みんなの
ヨン
このページのトップへ
邪魔
のイメージ
確認できます
選手が
快適
出品
食卓
おこ
予定です
西日本
フリ
の最新
突
改定
の為に
フライ
日更新
アップデート
前半
隆
かっこいい
入った
のおかげで
市場の
がいっぱい
家を
熟
これら
っても
理念
▁暮らし
頂く
メンズ
なもの
任天堂
滞在
の作成
なりました
由
ごみ
連絡先
面白
今も
ウソ
創作
セブン
るな
梨
今日速の名無し
とはいえ
広告の
これだけ
秋の
時点
09
浪
▁新規
を有する
わな
パル
名無しさん縦走中
口座開設
位の
ブロガー
なのです
を得る
しちゃう
できず
付く
みかん
伸
集合
人間関係
勤務地
への対応
送り
アパート
北欧
なんや
が欲しい
レッド
▁夫
de
ちょっとした
ページの
といって
を求め
ひどい
かき
自覚
を作った
目次
何で
今年の
▁このストア
の表示
じゃないの
らなかった
このような
史上
発表した
歳で
将来の
料理を
ビックリ
連休
夫が
というより
▁◎
申し訳ありません
上げた
警
マイル
勇気
ほんとに
保護者
タブレット
もやし
応
エイ
43
ヤクルト
キュ
あんな
ネギ
液
っか
をご
ソウル
フォームへ
(13)
▁送信
▁法人
2009
なす
近くに
公告
ーズ
何とか
もり
の活用
解散
肝
の五
が出た
5000
なさそう
コロ
めた
ぶっ
バンク
泣いて
増えて
鳴
領
バラエティ
価
がり
一郎
▁親
すっかり
赤字
向いて
しさ
まとめ速報
▁コストコ
実装
外部サイト
ユーザーの
飲み放題
を買って
を示す
に挑戦
求める
かと思います
ゴールド
ra
軽い
ろよ
CS
愛知県
排除
向こう
並び
は全く
都内
必要がある
まともな
プレス
99
会社に
km
と言われ
のもと
固
ラム
かけた
崩れ
▁スマートフォン
スク
を行うこと
先生の
でもいい
ムー
割れ
大好きです
ヘッドライン
かなぁ
返す
前項
ガーデン
老後
▁別に
方面
ント
お願い致します
外れ
紅
途中で
黙
応援して
よくあるご質問
先行
則
割合
大体
ヴ
合って
テクニック
イライラ
車を
美術館
アレルギー
反発
スタジオ
分からん
ナチュラル
刻
んでしょ
ヤフー
ッコ
サイクル
選考
の多い
楽しかった
疑惑
俺が
そうですね
演
工作
加藤
意思
犯罪者
インスタ
泥
リース
かわからない
に変更
ソフトバンク
狙い
ニダ
騒動
制御
提示
の申請
をお持ちの方
粒
ラス
さず
していません
タッチ
▁法人のお客さま
▁次の
マット
炭
▁こども
十一
前条
文学
要望
を見ると
フェス
秋田
添付
▁沖縄
ラベル
静岡
本体
希
なのかな
ドライブ
▁全国
をお届けします
りんご
ポイントが
添
おススメ
デブ
ようとする
採用情報
コンピュータ
して欲しい
誘導
既
を入れる
一家
ってた
抗
次回
多数の
さっぱり
Fi
モー
賢
▁最初から読む
コントロール
店頭
▁農産物の上手な利用法
彼は
ブロ
ってしまう
Wi
75
大変な
を導入
罰
際に
事業年度
怒
▁私たち
▁当社は
明るい
伊藤
なんですが
年前の
最悪
同士
プロフィール
ビア
仕掛け
の頃
元気に
りました
しかし
at
死刑
クマ
突き
朝から
グリ
▁全国の
の基礎
貸
で開催
体を
稼ぎ
も無い
刊
どこまで
▁10.
ご家族
各社
▁2016
ていました
並み
判明
暴力団
▁全ての
広げ
どうも
ダイレクト
弘
ごとの
サンプル
▁デジタル
開く
だか
いえ
RE
海の
▁大人
ぶん
どん
マッサージ
ヘッド
やっぱ
▁普通に
年度第
認可
鬼女
きゅうり
まとめサイト
ON
バッ
対話
▁お金
があるの
がたくさん
そこで
ピックアップ
のひとつ
逆転
舌
シミュレーション
老人
▁花
社会の
▼
を求めて
たから
IM
有価証券
てない
委員長
件数
信じ
睡眠
ごめんなさい
なかったら
悪魔
ーさん
るわ
ないで
クレ
の見方
宮崎
チラシ
の運営
に記載
酸
が低い
加算
効率化
ピザ
においては
ドル円
引越し
解釈
じゃなかった
供
激しい
これからも
▁シェアする
▁やっぱ
かみ
バンコク
申請書
落ちて
ご予約
ツナ
第二号
比率
高齢
おりません
競
▁さすが
の購入
興
を大切に
の方に
コンテスト
レジャー
大切に
お任せ
テラス
新刊
▁昔
怖い話
表示される
わけじゃない
ゆく
ウイルス
くださいね
学校の
あまりにも
公開中
適
景色
ーい
東日本大震災
に乗って
たのに
ユーザ
劇場
がわかる
を対象に
義母
▁問い合わせ
燃料
選定
が増えて
の際に
代目
▁みなさん
なかったので
の際は
スパイス
怪
きり
意義
述べ
オイル
オカルト
はできません
コレクション
茹で
協
伝え
▁北
号の
人生の
ぼく
本田
ポートフォリオ
かもしれん
忍
牛乳
夏休み
を続ける
海苔
イング
▁学生
快適に
わけだ
メルマガ
リンクについて
方法について
プレスリリース
生姜
富士
引っ
和風
南朝鮮
ソロ
to
おつまみ
大幅
という意味
の業務
あえて
姿を
〜!
総額
03
意外と
ミッション
もあって
間で
するなど
ポイントを
監査
さすがに
▁米国
抑え
ますよね
方が良い
部品
わかりやすく
周りの
ペーパー
ライフスタイル
が来る
の整備
うわ
親が
▁ふるさと納税
アドバイザー
▁皆さん
個人情報の
だという
夕方
してるから
嶋
彼女の
昨日の
お手
ご注意ください
放射線
殺し
ディナー
吹き
届く
パーティ
したとき
第一項に規定する
お役立ち
月給
ヵ月
ということは
話が
AT
▁現在は
▁早く
米国の
休業
久しぶりに
語って
中身
チェーン
ないよう
人もいる
さと
化した
日経
マニュアル
マガジン
得た
ファー
アウトドア
博士
▁個人情報の取り扱いについて
しね
たれ
を超えて
青山
ハンドメイド
浩
攻略
2011
プロダクト
方を
に思う
の成長
無職
▁11.
かかった
再現
確
のホームページ
DA
▁特定商取引法に基づく表記
機能を
イヤ
こともあります
と言った
ができます
させていただきました
たのは
頑張れ
後悔
ボリューム
伴
貴重な
だけだ
押して
▁大変
令和
知らなかった
が強い
どころ
が大きく
ならではの
連合
ハリ
剛
お問い合わせ先
トヨタ
言葉を
オレンジ
ご紹介します
補助金
ケイ
スカイ
控え
侵害
ユーザーが
になりそう
アルバム
エネ
変換
お断り
と思いますが
このまま
堀
ER
記入
連載中
残って
疑い
総理
▁こいつ
ニャ
お客様へ
なりません
未だに
区分
▁これを
キャスト
粗
セルフ
遅
これからの
内科
▁無
消し
警告
マスク
▁著作権
用に
▁上記
と思うよ
ディー
学者
▁昨年
▁結婚
第一条
近くの
るもの
僕は
夫と
経緯
▁18
近所の
締結
抜群
自分たち
に来た
ご了承ください
▁災害
▁冬
▁社会
ドレス
ということです
イヤー
隣の
入門
たまたま
遠く
下に
をお願いいたします
▁最後に
並んで
RI
ダメージ
取消
言いたい
妻が
って思う
軒
の記録
本来
教員
レーション
狭い
千葉県
したので
に入れ
▁とっても
クリス
するような
ロボ
母が
いくつか
たくて
ひたすら
ブログで
あくまで
いかない
休暇
還元
▁本日の
ばら
滑
ヒト
信者
復
冷え
▁初
気になって
▁自分で
令和元年
に来る
沈
▁これらの
モール
彼女が
奇跡
砲
新しく
YouTube
となっております
月額
劣化
他国
他人の
ブラジル
しかった
受け取り
ヤマ
投手
の味
予告
調べて
混ぜ
としたら
故障
話は
例えば
の女性
はとても
▁話題の
いこう
単語
辺り
選ぶ
飲む
優秀
新型
起き
当事者
でない
かもしれませんが
といいます
徐々に
ッキー
観光客
駅から
才能
に掲載
きのこ
郵便
証券会社
みなさん
げる
日曜日
ギャ
言える
四国
働いて
小売
](
決まり
されたら
▁ここから
ありがたい
▁なんでも
たので
柱
バリ
▁韓国の
帰国
利用できる
臨時
販売会社
かわい
事業の
部署
入場
んだろうか
つけた
導
ポリ
を行いました
羅
受託
るんだ
緊張
人目
旦那が
にゃん
頻度
度に
毎
飲料
株主優待
お休み
数量
あおい
ローズ
戦闘機
輝
ふたり
アンチ
と言われて
08
という話
週刊
なんとなく
飾
のではないでしょうか
いるから
の花
することを
農家
実家に
男性が
心理
やめた
笑える
初回
)』
ホット
柳
唯一の
債務
お気に入りの
やさしい
資料請求
▁次のページへ
おすすめの
繰り返し
荷
某
甘え
の色
の戦い
昔の
そっち
サイトへ
づらい
かず
▁白
にゃ
晩ごはん
を用いた
声が
精度
▁肉
かれて
子供に
キチ
になっても
プログラミング
▁クリスマス
を掲載
行け
チョイス
笑って
不幸
生まれて
に限る
件の
リード
こちらも
うまなみ
たし
励みになります
たて
得点
外来
仮想通貨
しておりません
率は
付き合い
権限
個人投資家
を中心とした
▁会員
ごく
を選んで
あふれる
知り合い
▁東
経費
込
どー
住み
短い
るなら
充電
復讐
US
食べられる
じて
ナス
過程
インター
予めご了承ください
集まり
涼
祝い
夕食
あわせて
のお客さま
8%
をよく
を作成
▁是非
レンジ
∀`)
お世話
成り
エー
選手の
の推移
の話題
困った
囲
▁どうせ
▁URL
を学ぶ
賃金
世界中の
サービスです
店の
だからね
まくり
を設定
担
ところが
兆
55
コンパクト
ヘルシー
もらい
憧れ
彼女は
気をつけ
分から
イノベーション
だいぶ
ri
白人
うちの子
咲
場合において
整理収納
いいですね
る事
の仕組み
植
初めての方
日本企業
PA
仕事が
体に
ブログに
FAQ
が増える
を語る
引き上げ
の確保
暴行
的で
アイコン
清掃
しているので
縮
愛用
箸
トピックス
としている
丘
大量の
立つ
レンタカー
TA
与
オタ
の課題
▁書籍
一般的な
つまり
ゲット
を徹底
を読み
連れて
ご依頼
岳
うれしい
▁お弁当
蓋
▁一覧を見る
旬の
▁前回
いただきたい
したのか
個人情報保護方針
いいけど
フロー
願い
焼け
外食
招待
する人
今年も
ペース
を考えて
するので
裁判所
の目的
接触
啓発
をしていた
ユーロ
劣
クルーズ
▁なに
▁きっと
去
去年
訴訟
勢力
▁40
ないといけない
自主
迷
ポジション
がとても
哲学
方法を
のランチ
宅配
へのお問い合わせ
ブログを
との連携
システムの
辞め
▁主な
のだろう
サーバ
ウト
やってきた
ご支援
フロント
センチ
鹿児島
▁あなた
検定
イラストレーター
えん
▁――
うた
必死
実感
さくら
以外で
階段
合同
だけではなく
ある意味
獲
開幕
リサイクル
開催中
あるもの
の中でも
うれしいです
の高さ
物の
海岸
▁海
分かった
構え
▁JR
▁お気に入りに追加
▁まだまだ
くじ
までの流れ
あるから
口に
第四条
細かい
がなく
せよ
ますので
なのが
仙台
場所で
観て
)【
旨味
直後
の人気商品
04
ポチッと
コスプレ
えっ
業務の
懐かしい
はほぼ
けれども
基本的に
ビジュアル
▁ホームページ
されても
お楽しみ
加熱
さを
彼が
博物館
かれた
とおり
▁はじめまして
を育てる
もらえ
の為
を食べ
ミル
スレッド
徹
ものとします
話題の
の意見
原則として
▁手
穂
カンタン
分かりやすく
けっこう
パンフレット
を持った
重視
フォーラム
のイベント
が好きな
マイページ
中野
デメリット
アナログ
母ちゃん
元祖
実力
伏
が表示されます
言われた
ヒーロー
を逮捕
汚染
りと
存在しない
役割
の部分
お米
▁リンク
に行き
けどな
巣
拡散
皆様の
われる
インスタグラム
それら
▁名古屋
▁千葉
開いて
税額
冠
くれない
随時
にあつては
はありますか
楽しみに
欄
▁前のページへ
コンバージョン
を表示する
添え
ことが多い
見かけ
要件
を高める
を選択してください
してるの
売り上げ
二つ
初めての
▁去年
冬の
▁過去
所に
出せ
経験者
取れる
味付け
ラボ
してました
らし
▁それでは
施設の
はやや
使ってる
素人
覚
年で
抵抗
氏名
嫁が
カネ
日本国内
はあまり
佳
ディスプレイ
泣
概念
▁雑誌
ますます
今から
代わりに
離脱
44
を使用して
❗
気持ちが
挙
私達
学歴
特定商取引法の表示
ものであり
相性
僕の
たびに
濃厚
良かったです
はどんな
知っている
んのか
手軽に
知り
)-
先進国
ご提供
伝説
援助
行かない
遅く
チュー
▁12.
監修
幸せな
演技
DS
活性化
亡くなった
だったのに
ッター
を教えてください
頭が
最初
▁以下
函館
▁それとも
加盟店
等により
疾患
▁会員登録
払
のではなく
された場合
お片づけ
参照
シンガポール
を考慮
小林
食べ放題
してね
web
子猫
アス
ドキドキ
キモ
第五項
決まって
もらいました
熱い
る人
小型
支店
物質
助けて
みつ
最近の
埋め
収穫
デジタルマーケティング
締め
特例
新人
クビ
10%
知ら
88
メンタル
香川
金融商品
本の
ご理解
の間で
ing
コンサート
悩んで
微
支出
残る
を更新
▁女
それまで
さっさと
お勧め
OL
▁多分
新設
いら
間取り
糖
爪
▁ご利用にあたって
の時代
にんにく
は誰
エール
走行
動画を
房
見つかりませんでした
看護
ごま
がございます
をどう
法第
拡張
観察
制裁
(11
ねぎ
体の
いましたが
笑う
通話
スポンサー
されており
月間
姑
▁まさに
駐
が多かった
を取る
発売中
大事に
日中
▁名無しさん
はしない
等が
シニア
▁詳細は
Re
具合
使用する
じっくり
は全て
つかない
飛行
第四
飛ば
すみ
▁今年は
ハゲ
どれも
探す
あれば
表紙
やり方
バイオ
ないだろ
フライパン
▁指名停止措置について
レート
そういった
割と
わかりません
こちらに
じゃないですか
遠い
▁人気の記事
もらいたい
定める
だめ
歴代
亭
ハッピー
神奈川
してたら
取締役
お正月
RA
ついでに
▁今月の人気記事
の歩み
にまつわる
外人
わら
市役所
預け
店長
少なく
▁最近は
贅沢
身近な
出会った
返金
スーツ
お子さん
死に
納豆
関係の
図書
購入した
のり
金銭
の未来
RSS
休憩
つま
観点
二次
▁しぃアンテナ
親戚
兆円
一時的に
▁当社の
みてください
災害時
お送り
の強み
椅子
の仕方
まない
芝
たこと
RO
遺産
突破
あたし
出てきた
週払い
さく
お待ちしております
そこそこ
ょ
で購入
06
なしで
プレート
アラフォー
郵送
ワタシ
▁九州
サル
の子
確実
新卒
らせ
られてる
わず
俊
その時
アラサー
覆
自分達
戻る
ンゴ
FW
最強の
包
貯蓄
コミ
──
周辺の
そりゃ
もんね
完璧
直近
こんなこと
EU
慶
を増やす
ホームページ制作
が大きい
所で
▁西
帝国
mm
言っても
II
朝ごはん
然
頭に
▁南
▁by
▁個人情報の取り扱い
回線
からだ
テレビで
没
ゴー
NEWS
▁ペット
の準備
柴
確か
ジャニーズ
▁いつもありがとうございます
を応援
と同
なれば
汚い
興奮
ハラ
は必要
は無
のでご注意ください
`*)
電池
部長
上記の
ガソリン
人には
以前の
レット
どちらも
綴
女は
ミニマリスト
セッション
うつ
背中
のおかず
クレジット
見えた
座って
ガチで
ドメイン
▁台湾
スカート
するべき
を食べる
海軍
暖
旦那の
たわ
議長
いいのか
▁柴犬
▁エ
組み
の範囲
視聴者
育て
自民
あったか
起業
練
同時
栽培
紛失
るだけで
和食
搭載
のお弁当
に注目
所持
欲
奈良
滝
の大きさ
夜の
ご報告
もいる
年後
ホールディングス
生活保護
電通
におすすめ
を目指し
のうえ
信号
土日
ご本人
航空券
▁今週の
具体的に
ジャム
リンク先
スペイン
顔が
東京五輪
韓国人の
不良
と思ってた
見込み
ネトウヨ
(14)
いるか
がある場合
条第
のでご了承ください
医療費
プチ
を始めた
取り付け
会社概要
に向かって
になること
せば
インパクト
バナナ
▁このページのトップへ
st
大学の
今すぐ
名物
1%
先で
衣装
立った
が見
お家
アクティブ
消え
これも
安全性
やつは
▁ここから本文です
真ん中
混乱
照会
かかります
付き合って
順位
出せる
キリ
全国の
vs
▁13
デル
目的で
コスパ
みたいで
しすぎ
黙って
四半期
配信中
みます
▁昨日は
後輩
4%
最短
保障
賠償
開業
▁日々
TBS
初日
死ね
適正
優れた
ぶら
好評
メガネ
プリント
みな
ちょい
牛肉
専業主婦
出身の
石油
Facebook
書かれて
救助
▁健康
由来
まわ
クオリティ
件までです
国に
▁50
が決定
AM
クラスの
クト
の割合
第三条
しましたが
これ以上
中日
自動車保険
ガチャ
コンビ
まじ
ターゲティング
ジャケット
にぴったり
達が
あや
段階で
埼玉
インフルエンザ
金融商品取引法
その日
スリー
いいのに
レシピブログ
に期待
相手を
騒
決意
クリーニング
慣れ
▁ちゃんと
サム
の家
is
とん
面で
トルコ
誇り
大きさ
責任者
北陸
オフィシャルブログ
表彰
場で
底辺
ふるさと納税
▁あなたが
お手続き
出来た
崩
ありえない
桁
ベルト
タバコ
開放
どり
観戦
通行
裂
NGT
by
▁▶
地元の
外貨
中継
発狂
自体は
コストコ
足を
どんだけ
お名前
件です
四十
来ない
楽しそう
るぞ
何より
ひろ
乗って
を加えて
ビッグ
警報
を用いて
▁新聞
勤
かつて
を購入する
〔
スコア
▁このページの先頭へ
の前
推奨
十五
なくなり
飲み物
条の
ことです
詳細はこちら
磨
を設け
苦しい
今月
は今
歯科
▁このブログは
作れ
気を
誰もが
オス
お探しのページ
プロ野球
会う
森林
石川
同じような
充実
好きだ
▁求める人材
全面
ic
ディア
行ける
喜ぶ
同様
小物
▁お仕事
タル
らす
リゾート
痩せ
メディアステートメント
96
ローカル
鹿
したいと思います
比較的
▁ここに
申し訳ない
起きた
嬉しく
▁旦那
民主
夕
結婚して
東日本
造り
デュ
生活を
故
の質問
に行こう
宗
一本
薄い
なっている
等に
に注意
出資
シュー
ベーコン
時も
鈴
との関係
ウェア
なるべく
につながる
アメ
からこそ
多様な
▁たとえば
コスメ
池袋
ごめん
に同意
▁一度
ハーフ
エリアの
よくある質問
の賃貸物件
が完了
コミックエッセイ
代理
VS
ツー
財団
アプリで
思いを
意外な
違った
を乗り越え
使いやすい
の額
にしろ
鮭
貧困
の報告
海外で
若干
おかしく
▁ソフトバンク
手の
事も
色々と
もろ
の数
に登録する
回目の
以前に
SS
狩り
できるよう
3%
元々
電動
一枚
スポ
今週
キム
脇
42
大量に
珍しい
北朝鮮の
ンと
一発
▁それにしても
56
黒い
だと思って
前編
▁好きな
年前に
国は
間違いなく
和え
をまとめて
▁普通
だとか
IoT
▁めっちゃ
▁キーワード
後日
沖
現在は
そうだけど
従来の
自立
やたら
植え
[...]
他にも
▁株式
の技術
お探しください
研究者
▁下
▁自分は
ストック
とされる
記者会見
倶楽部
電話で
捉え
°
のかもしれない
はなかった
ーター
ボル
われ
お使い
綺麗な
守備
投稿者
火山
シングル
ダイソー
落ちる
ではないか
格好
チャット
庫
ッタ
おめでとう
たまご
の部屋
▁掲載
を行っている
学科
買え
やぞ
宇
意見を
祖父
目は
おしゃれな
警備
だろうね
が続く
気味
▁17
ライセンス
ながらも
記念日
フィールド
あんた
あぁ
は別
始めました
坊
推定
▁13.
大歓迎
(__)
本店
阿
戻り
離れて
しき
と言っても
職場の
欲しかった
をかけ
飛んで
逸
BA
行われる
捨てる
を考え
第三号
商品は
関連の
があった場合
主役
一応
お伝え
名を
アフリカ
任意
ミックス
ねん
求人を探す
載せ
法人の
年度の
▁T
結果について
▁ここまで
の各
したくない
危険な
▁森
動いて
ボケ
幅広く
寄附
折り
▁来年
海外の
総裁
の受付
ベン
▁ページの先頭へ
内定
の導入
瓶
を迎え
今後も
DJ
▁あー
の開催
お悩み
寄
▁現在の
製造業
自宅で
の現状
天使
の母
湿
をもっと
交通費
政府が
しそう
女性に
博多
額の
ご連絡ください
▁ネットで
するものではありません
リック
ほっこり
をもつ
当店
されると
感染症
見ても
格差
状況を
と考えています
と言える
上陸
▁県
の効果
▁全て
流石に
な感じ
抱っこ
くれました
と同時に
のデザイン
の検索
し続ける
を支援する
見出し
▁てか
菓子
ファイ
▁韓国は
兵器
と考え
渡辺
来週
イイ
広告を
録音
いじ
施行
トラベル
かかり
出席
ッカー
▁競馬
人がいる
当社は
戦う
ばん
かく
でしか
通常の
母の
下がる
未満
ドラクエ
破棄
▁2014
ポチっと
▁お探しのページは
泣く
を紹介します
▁実際に
数の
の良さ
▁僕
になってた
が行われ
であっても
気持ちを
ことだ
記事は
がこちら
整え
起きて
飲み会
足りない
高値
を発見
2%
鶴
育ち
スラ
ろうと
ちゃって
▁学校
を変えて
愚痴
▁みんなの反応
救急
っぷり
及
に行ってきました
融資
▁15.
続出
外の
を用意
連動
▁マ
テレ
夫は
するまで
対抗
本格的な
パッ
ドライ
スペック
っていく
あとは
を採用
▁だって
屋の
止
▁14.
昌
逃
ネット予約
▁しごと
カスタマイズ
タイミングで
就業
みたいなの
AC
進め
注意事項
旅館
わる
らせる
がどう
考えると
▁最後のページ
に住んで
記述
障がい者
運行
読め
が原因
過ぎた
食って
を更新しました
を提案
室内
るのも
▁俺も
▁春
いるけど
幼
左翼
`
手で
▁車
呪
次元
ヴァ
資
入金
どちらか
▁母
はほとんど
ヨーグルト
分以内
塔
近所
朝鮮半島
の言葉
記事一覧
やんけ
履歴書
人が多い
〇〇
遺族
非難
赤い
▁秋
ご参加
拝見
稼ぐ
招
取れ
水分
▁タイ
ああ
net
と結婚
二人の
木村
MS
腸
畳
返却
マネ
バブル
閉店
のレビュー
広場
保有する
って言ってる
惨
業務を
ナシ
扉
▁旅行
アセット
行か
お笑い
を上げる
長年
だけでは
自己紹介
理由で
することに
まとめた
生命保険
年以内
今更
は各
開け
いい加減
一回な名無し
▁(3)
▁はじめから読む
例え
悪く
▁タグ
の責任
さらなる
妖怪
融合
をクリックして
道を
▁お店
ツイッターで
▁2015
ホンダ
幼児
の価値
ストップ
使わない
金曜日
の再
に入れる
十六
ミング
を抑え
の際
がすごい
商売
it
の姿
侵略
親友
誇
に使う
続々
帝
おまけ
みんなが
ティック
まわり
の役割
大阪市
歌手
かける
こな
本日の
予
てください
浴び
駅前
致
ご確認
翔
ay
お届けします
気づいて
そら
特許
してくれて
をご用意
そっくり
直し
球団
お昼
教科書
今度は
知恵
けない
利用する
頭の
無かった
出口
日和
ポーズ
をお届け
本音
プラスチック
プライバシー
▁申し訳ございません
自身が
はいつ
1,000
アメリカ人
▁当時
頭を
ダメだ
クチコミ
ナンバー
とく
まーくん
包丁
スタンド
展望
を使用
代わり
唯一
進展
ハワイ
成分
乃
加害者
いつまでも
人間は
投入
耐え
ウォン
PO
うつ病
問題ない
運転手
叩く
いざ
▁すごい
企業情報
)[
困って
孤独
ところは
スプレッド
商品名
娘と
富士山
聞け
の発生
を超え
づけ
させない
沖縄県
整理収納アドバイザー
を推進
▁←
まれて
先は
などと
柏
六代目山口組
▁絶対
そこは
ギリギリ
癒され
あー
KB
君の
軽減
新商品
になっていた
ゆったり
▁ビジネス
何故か
あなたが
地方公共団体
▁どうぞ
鶏むね肉
土木
スタッフが
GA
日より
貢献
空き
待機
わかりやすい
ベビー
営業日
っちゃん
使っている
うっかり
額を
▁指定なし
▁・【
ってのが
したけど
宮城県
アクセサリー
させていただいております
稼働
▁令和
エロ
を把握
したところ
プラザ
いるのは
外出
無事に
格安
が続いて
勢い
ほうれん草
指名
はお
▁一緒に
時間に
とは違う
ものではありません
だいたい
岩手県
宏
リラックス
んだろうね
言及
払う
フジ
種別
伊勢
オラ
神奈川県
ブログランキングに参加しています
♥
▁【【
嫉妬
がお
▁トップページ
掘り
きゃ
できるだけ
▁日本が
を送る
離れた
物価
相手は
やき
ケー
十九
それほど
引く
ことができました
されてた
キス
読める
一方で
部分は
就
使えない
カメ
一生懸命
の健康
お礼
の重要性
▁五
69
率が
とかで
溶
貼って
引きこもり
寂しい
東証
▁ありがとう
抱
形態
大幅に
を元に
あるか
書籍化
癒
デスク
の価格
らが
場合に
から見た
の取組
が大
ですら
基本的な
モーニング
とろ
にあります
離島
の視点
トゥ
晴
できますか
熊
出てる
おまかせ
最適
伝えて
きん
等に係る
54
行使
お答え
57
育てて
▁美味しい
応援クリック
近代
九州地方整備局
増える
▁<【
制度について
2008
チャージ
共産党
楽天市場
の募集
生じた
▁嫁
じん
まんが
回って
オランダ
権力
の計算
淡
微妙
キャンパス
かわいそう
洋服
大活躍
は難しい
ミリ
噛み
実に
私と
ライバル
AL
▁音声読み上げ
をつける
親父
シンプルライフ
っぽく
ぼう
テープ
の発行
塗り
わー
増税
59
時間の
静岡県
頑張る
お付き合い
マシン
のでしょう
▁アプリ
長官
るため
ざる
ツッコミ
忘れた
首都圏
中央区
んでしょうね
だったな
メダル
ことにより
りんさん
好きで
を利用した
さっき
エンタメ
メイト
フロア
役に
晒
お詫び
かしら
不動産投資
体験談
データ分析
いきましょう
撮り
気がします
900
出さない
おすすめです
贈
を披露
写真は
日本から
ブレーキ
緒
標
▁商品の
そんな事
▁お客様の
カゴ
お前が
句
250
わんこーる速報
に聞く
の安全
署名
おん
過ごして
の秘密
▁日払い
▁最初のページ
技術者
と判断
銀行の
サーヤ
どうにか
を確保
交代
蕎麦
▁ところが
以降の
コア
ふと
いけない
なんだが
▁キッチン
ご用意
牧
を見つけ
文明
にはこ
(?)
混ぜる
受注
りして
それも
blog
戦で
アーカイブ
▁参加
落とす
会って
メガ
まくって
九条
(5
出来て
はてな
泥棒
茂
吉本
韓国人が
お客さん
証言
伸ばし
の記事一覧
が出来る
キレ
スリ
追記
53
奪われ
そうだな
▁ずっと
犬の
ステーション
積み
後編
ヒント
を取って
テック
野郎
堅
生産性
なるほど
緩
ペイ
▁うちは
殆ど
つつある
が出てくる
たぶん
ものと
ホラー
活躍中
みずき
に設定
の見直し
下さいね
驚いた
揺れ
で働く
だったが
の夜
:「
の実現
▁今後も
第九条
ホー
てほしい
燃え
数日
▁(※
の立場
尊
募集中
勇者
68
で買った
▁なので
賛成
お湯
十分に
訪れた
理由が
▁データ
ない場合は
清水
催
いよいよ
さつまいも
トレード
知人
技能
被災者
水を
お話し
翼
ポテト
に合わせた
つくる
登壇
オシャレ
セイ
エクス
ガンダム
を探
名義
パパさん
尽く
似ている
珍
亮
大陸
お送りします
の強化
ジャーナリスト
をつけ
施
たりする
▁お問い合せ
に相談
のコードをコピーしてサイトに
金持ち
ANA
列車
れん
焼く
個人的に
お問合わせ
なにか
ラインナップ
の入力
みそ
じゃないと
ものとする
見つけた
の動画
▁</
の広告
めの
次の記事
ETF
営業所
▁前回の
止めて
違って
爆笑
▁"
が入った
が増え
老舗
双方
際には
鎌倉
偶然
邦
脈
ポート
ことはありません
の負担
異世界
問合せ
の施行
の前で
お試しください
るために
気配
ほんま
得られる
岐阜
儲け
コンテンツを
鮮
訪れる
浮
とか言う
何の
予選
いるのに
JA
しょうがない
ゴキブリ
聞か
のプロ
▁食
らば
といっても
ヒロイン
束
みんかぶ
分配
ギャグ
フレーム
終了しました
でわかる
女子高生
タピオカ
今後は
馬鹿に
ものづくり
勤め
レオ
してもらう
の時間
フィリピン
餌
を図る
愛犬
須
おっ
こうして
議決権
かせ
を比較
シェフ
届け
頼む
上から
裁
性別
んだろうけど
分に
情報発信
付いた
を構築
直前
はずだ
孝
ほかの
ファンドの
▁てんきち母ちゃんの
画像を
正式
ないもの
年法律第
少なくとも
AD
に応じ
▁フォロー
危ない
釜石チョコっと情報
BS
の事故
盗難
サークル
ロケット
グラタン
嫌がらせ
シナリオ
日本では
訪
僕が
消滅
同期
ほっと
▁なるほど
増え
®
品種
の手続き
超え
墓
洗剤
起こる
せた
荒らし
湾
誤解
理解できない
API
リズム
レベルで
ちび
が提供する
求められる
なきゃいけない
占め
抱え
とか言って
メルカリ
ボトル
スワップ
子どもが
コメントは
徹底的に
スタイリング
次に
延期
的にも
リフォーム
を伝える
人材育成
針
💦
きれい
出現
工程
似た
キャン
まっ
方法は
ハンド
単なる
かもしれないけど
おいしく
になってしまった
▁新宿
極めて
日頃
敏
おる
容
するのに
綺麗に
女児
られました
れている
化して
途
県内
貰って
脂
流し
貼り付けてください
まつ
一般人
発覚
付けた
に関する事項
人生を
浦和
申し
消化
選手権
するだけで
本を
通りに
言わ
レギュラー
第四号
▁ご注文
うん
貴方
お前の
一杯
OP
ロードバイク
2』
髪型
〕
の場
生き方
除外
を強化
だなぁ
にあたって
▁海外の反応アンテナ
返して
代表取締役社長
どこで
本気
心臓
料率
車種
▁私たちの
買収
通って
】<
自分も
世界を
ふわふわ
周りに
部隊
らく
家賃
とさせていただきます
ちゅ
ハンドル
の人が
タブ
講
康
頃に
群馬県
アベ
推移
に関し
▁日常
左右
▁初めての
誠にありがとうございます
二度と
非公開
あき
明るく
スタン
気になった
を決める
移
もしかしたら
価格で
備
物品
こともあり
▁ツイッター
第一項の
シューズ
最先端の
いわ
武蔵
育った
兵庫県
は絶対
ディス
来ました
の状態
解放
電波
反響
▁たくさんの
ニュースリリース
ピーマン
前項の
∀
辻
皇
騙
雷
しなければ
▁長男
おさ
▁というか
湘南
紙面
が大好きな
愛知
エリアから探す
掲載中
ありますが
司法
はちょっと
アナと雪の女王
ヒル
落ちた
っちゃった
シェ
インターネット広告
▁さいたま市
のお申し込み
ブース
父の
▁医療
語った
を迎える
オタクニュース
取引所
個セット
参戦
替
の第
単純に
▁詳しい
と比べて
古代
全身
認知症
成人
いただくと
衝突
▁16.
円高
EN
を高め
アニメーション
金沢
▁すると
やけど
終了後
そのような
計測
VR
受けた
恩
ものに
一定の
属
に掲載されている
麦
上手に
側が
をサポート
よろしくお願い致します
転勤
▁なかなか
探
でさえ
ウォー
かって
所有者
営業時間
単価
次郎
過去記事
ばれ
の権利
が気になる
医学
あかん
ウリ
の全
仕事で
後も
メキシコ
ゾーン
十八
取扱い
秋葉原
作品を
ギア
に住む
の出来事
さば
ニコニコ
やすさ
どうしよう
を始める
ソーシャルメディア
うさぎ
出ない
レタス
幻
しょうが
儀
ビリ
並べ
一人暮らし
先頭
掛ける
イオン
応用
を与える
今年は
掴
▁埋め込む
ですけど
抱えて
レシピを
川崎
苦手な
ご希望の
返還
最低限
の動向
すけ
役立つ
▁地図
いかん
尋
人暮らし
金属
グラス
偉
▁その時
見解
額は
ない限り
服装
始まり
を希望
▁可愛い
件名
描写
優良
令和元年台風第
ることができる
にアクセス
ページが
一瞬
既存
受け付け
▁まちづくり
脅威
行われた
の元
専用の
革
上手
傘
ワクワク
傾
進み
マニア
実態
をご覧
ブロッコリー
ご感想
容疑
もっとも
感じで
トータル
免
を発揮
ハル
ものを除く
の平均
家族と
ちゃんねるまとめ
熊本県
の名称
も含めて
レッ
mo
振替
殺到
甘さ
えば
の取引
会社です
驚愕
東京ガス
されていません
化粧品
悔
を進めて
奮闘
一般社団法人
と考える
イラ
潜
ワンピース
視野
は約
積立
巨大な
結婚指輪
の収納
に加えて
NO
メッセージを
十三
婚約指輪
名刺
▁AI
こむ
オル
越え
体が
めぐり
Co
入国
▁基本
在宅
岐
▁個人のお客さま
早速
幸いです
きたら
お客さまの
オークション
まー
通過
おせち
見ない
お気軽にお問い合わせください
又はその
ローマ
ないわ
ものに限る
wwwwww
まーす
▁まさか
を与え
やす
リオ
でもっと便利に新規取得
をお持ち
▁最後の
気をつけて
総選挙
側は
am
詰
設
場所は
内容の
の日々
を見つける
現場で
スの
お掃除
▁コラム
ドゥ
定額
間違え
DNA
販売店
丹
同盟
人工
もありました
年ぶり
尊敬
えー
運営しています
おすすめ記事
ビット
女子の
▁アイ
プロの
数を
みずほ
もったいない
基本方針
けば
部下
を受け取る
綿
されません
プレミア
をとる
というのも
青春
エアコン
続けている
に応じた
羨ましい
41
対談
も可能
飲食
戸建
モリ
ナル
利用者の
該当する
合った
描いた
ブラウザの
著作物
外で
領土
発電
全力で
上手い
尿
▁いつ
渋滞
くらいで
の位置
除く
ウス
のなら
それだけ
先生が
カードを
と感じる
までの間
んでいる
サラリーマン
するから
気づき
体感
だそうです
に帰属します
スタジアム
可愛く
部屋に
暴走
ご提案
選択してください
繋
売る
いたい
et
-3
知的
ウォッチ
が始まる
立地
テク
見ている
転売
ゆとり
してみてください
はもっと
調査結果
リツイート
久々に
がわからない
不自由
ミッキー
位に
に移動
かもね
ることが
レザー
経って
▁たぶん
日産
ME
の一覧
くだ
としか
日前に
コンテンツの
ことになります
する必要があります
素直に
鉢
かっこ
足り
インドネシア
泰
ターン
ケーブル
▁ドイツ
日本一
楽しめ
ヘル
斬
▁私たちは
効果的
暑さ
▁主に
推し
コリ
▁しばらく
コイツ
おらず
済む
が高く
の作品
MF
カタログ
の小
に感謝
ものである
トレー
▁カ
これまでの
もしない
の知識
▁B
おばさん
に置いて
現れ
マッ
ホントに
ソーシャル
柔軟
大使
在住の
送って
座席
まともに
輸送
▁動画
を書いて
チョン
お得に
を変え
わけない
あなたへ
紐
嫁に
来店
ジョブ
いている
の基礎知識
次は
お客様は
支持率
メンタルヘルス
でお
決めて
保持
更新通知
どのくらい
MT
理系
揃って
頂けます
柿
倒れ
講習
好みの
のサイト
逃げる
ッパー
昇
仕事に
モーター
大賞
GW
を得て
目指す
さんから
デコ
はいつも
むら
争い
李
裸
▁文字サイズ
される方
婆
キリスト教
スパイ
丁
情報セキュリティ
する必要
駒
を達成
今季
嫌韓
決めた
お客様が
借
▁14
刑事
分かり
期の
負けた
パニック
に出て
マイクロ
情報など
富士そば
首都
日までに
胃
かさ
と違って
▁株主
半導体
購買
フィッシング
兵庫
合わ
365
あれこれ
遅延
彼らは
を有効にしてください
ソ連
そういうこと
ガイ
は大
返事
全文
業界の
ロッテ
ご相談ください
まんま
無線
DQN
究極の
フィット
シス
達の
歴史的
楽しみです
妊婦
▁そういえば
外科
上級
の支払い
感じます
教えてくれ
全員が
開店
んと
抹茶
喰
を集めて
▁人気ブログランキングへ
お伝えします
潰
泳
りゅう
受診
研究開発
レンズ
ママの
美味しかった
流出
なれ
麻雀
縮小
も可能です
芸能界
強み
の普及
▁ああ
日以内に
セーフ
市内
車に
クレーム
さんで
原油
▁このような
載
まれる
秘訣
▁関東
大分
喫煙
相撲
▁※「
問題を
なんですね
届きました
際の
▁警察
～～～
を聞いて
楽しさ
ファンタジー
ドコモ
が入る
渋
てます
第一項の規定による
岡山
人って
ふう
いただきありがとうございます
で選ぶ
北部
ゆき
主体
新着
界の
月曜日
▁すでに
は必ず
透明
夜間
フィギュア
テクニカル
あつ
ネットショップ
阿蘇
▁店舗
代替
▁パパ
子供の頃
有利
頻繁に
どこの
枚方
を変更する
ED
音が
ゆー
自家製
安全な
最終回
ニッ
苗
家づくり
▁どの
女が
あげた
当局
・・・(
背景に
改良
がいない
シング
をしっかり
南北
▁よろしくお願いします
美味しさ
73
au
れす
スポンジ
過剰
子を
▁もも
にいた
しゃべ
冗談
無限
住宅ローン
パンダ
懐かし
監
ディング
発生した
未来の
私には
乗り換え
分かれ
技術を
受けて
気づいた
測
保全
グレ
下がり
があったら
あす
パチンコ
残念ながら
簡単で
騒ぎ
明らか
プロデューサー
リクルート
▁17.
十七
mi
娘は
よりは
ってくる
だす
予報
そちら
久保
ご検討
最初は
太平洋
心から
▁え
▁住まい
第二百
▁さすがに
関連記事
出展
あっという間に
残った
消えて
の最新情報
幸せに
をクリックすると
がかかる
いたのですが
数学
▁すべて見る
妙
を下
の人は
を超えた
にオススメ
お手数ですが
夫に
本番
雇
▁男性
▁ご飯
就任
名誉
▁毎月
を参照
父が
▁関西
グロ
チラ
意味が
煙
旭日旗
止める
脱出
への道
MC
ジェン
周年記念
を記録
中部
ドラゴンクエスト
の画像
詩
お見積り
と一緒
てくれ
ツリー
電子版
駄目
天候
れてる
▁本サイト
チップ
確定申告
おまえ
車が
が難しい
▁千葉県
担保
形式で
▁横浜
▁はい
おそらく
お迎え
▁自然
のリスク
(・∀・)
聞きたい
クイズ
かま
あるの
今では
しなくても
乃木坂
読売
まつり
言っている
あったら
のいい
悩む
チャーハン
▁保険
押さえ
虎
した時
全額
▁オ
んだぞ
タマ
▁あーさん
沿い
鳥取県
マジック
に影響
海上
焼いて
▁こう
と違う
独占
分野で
韓国人は
お越し
(15)
SSL
写真が
▁2020
先月
クセ
ことができ
おもしろい
起動
ですし
を再
▁ログインして
ビス
政令
死んで詫びろ修正しろ死んで詫びろ
生活者
キャッチ
紅葉
勉強会
数年
駅から徒歩
無償
度目の
チャリ
するのも
非常
召喚
するように
▁たった
の改善
ぬいぐるみ
できるか
求め
人工知能
の地
実務
同じく
を機に
悪くない
▁FX
慣れて
価格は
数十
驚く
漢
://
温め
向けに
サイトに
都心
多め
お前は
ハッ
禁じ
シャンプー
焦
このブログ
▁クレジットカード
羊
▁ロ
昆布
に努め
思わない
叱
開発者
プチプラ
を売る
どっちも
を呼び
再建
最後は
▁16
税制
NA
閉鎖
酔
削除されたか
ブー
見積もり
があるのか
凄
串
感じて
関係なく
選出
コク
野村
▁サ
くそ
卒業後
だけじゃない
脅
ことになった
悲劇
▁夜
起こった
内閣
▁気になる追加
いな
たいと思います
膝
大国
云々
申し訳ございません
そいつ
▁携帯
利用可能
怪しい
写真集
ダイヤモンド
消える
妨害
神戸山口組
▁ヤフー
げん
政府は
知れ
厚揚げ
▁価格
作られた
定員
してみる
▁かなり
ふる
まれた
の指定
幾
落ち着いて
▁IT
長野県
電源
施工
▁普通の
▁とろたま
52
後で
いいか
偏
癒し
取引先
円の
完結
たっぷりの
もともと
撮って
ボーイ
殻
大分県
しごと
足元
悪口
登録する
ちょう
▁あんな
ナッツ
サイト内
お食事
▁全部
の壁
サプライズ
▁どう
をご提供
書いてる
量を
▁はてなブックマーク
発売日
言い方
ニン
吸収
情勢
64
われて
双
第一項の規定により
きら
眺め
受取
元本
魔法の
薬物
作りました
ラル
より徒歩
ニコ
寮
それから
の水
食う
たばこ
広告掲載
最終的に
バス停
があっても
一つの
の構築
いも
塁
更新の励みになります
ならん
存在する
の素
ぶる
秋冬
のご相談
請求書
ma
ぶっちゃけ
換え
で作った
ところです
▁というわけで
を入力してください
プロレス
創出
与え
申告書
到来
葛藤
▁チケット
を含め
動機
ペア
▁そこに
どこでも
のだから
役に立つ
ってしまった
に際して
感じました
現場の
この日
ベンチャー
▁黒
がないと
お兄ちゃん
▁何で
溶け
ドッグ
まくる
▁18.
誤り
ないと思う
登場する
解体
▁これも
ジュース
広がり
やりたいこと
同士の
でしかない
たいです
委
達は
ネス
こういった
が止まらない
優秀な
辞
舐め
ウル
なってる
科目
を使用する
ダメな
勇
脂肪
使われる
マッチング
関与
ウマ
報復
取組
始まる
股
外国為替
がついて
っていうのは
も充実
▁この場合において
▁他にも
政党
接近
釜石
目撃
加盟
しみ
危
でしたね
を集め
最近は
ふわ
♪♪
マヨ
ない場合
上野
セゾン投信
クリエイト
垣
·
桐
▁突然
の発言
高め
致しました
していきたい
おろし
状況について
▁▽
▁芸能
の方も
じり
ケガ
はいい
出汁
虐殺
難民
ご使用
さぁ
いつもの
やってます
キャッシュレス
の選び方
つらい
63
ゲイ
商業
第十三条
72
っきり
▁最新
はここ
メタ
新聞社
が表示され
レトロ
に出演
考えられ
DC
くなります
難しく
聞こえ
徒
やわらか
を切り
エリアを選択してください
自称
ぜひぜひ
オカン
朴
炊
▁子供の
枕
ばかりで
▁ショッピング
の経済
今までの
祖母
ウィン
抜いて
広告配信
ただし
梅雨
子供は
二十
自然と
▁下記
烈
が話題に
麗
子ちゃん
月分
年間の
ブラン
ランキングをもっと見る
避難場所
ティン
振込
がなかった
債権
なき
III
▁海外の
決まる
‐
コーラ
の形は
兼ね
を展開
を食べて
ご主人
植民地
の正体
ご覧いただけます
リセット
で紹介
トライ
小池
真剣に
▁法人のお客様
我が
LI
くださり
にくく
誹謗中傷
ソル
クション
出来ます
77
濃い
あなたは
にもかかわらず
ご迷惑をおかけ
協働
にしました
プライバシーマーク
みませんか
チー
言うこと
シンポジウム
当時は
▁まるで
の公式
していると
長野
ro
状態に
空母
ないだろう
あた
踏
のであれば
▁こんなに
が上がる
破産
民主主義
んよ
のかね
賞与
▁このまま
▁«
満足度
▁トヨタ
もみ
の追加
あっても
を加え
▁ファンド
▁最初は
をかける
くださって
突っ
載せて
昭
を紹介する
▁アン
なんだろ
の保険
を受けている
▁⇒
頃は
チームの
操
を探して
川の
ヒラ
染
吸い
▁\
おばあちゃん
サービスについて
シャー
運賃
すっ
低く
を解説
▁トップ
憎
続きを見る
に設置
って思って
こうした
食べ歩き
させること
おうまが名無し
作成した
似たような
に特化した
天井
相変わらず
まるごと
(10
仲裁
荒れ
みらい
結果を
ライド
自分自身
サイバー
搭乗
▁発達障害
▁PS
イジメ
違います
行動を
▁年末年始
▁近年
ピク
78
抜く
タコ
対決
のほう
メー
言動
対象外
法に基づく
女子会
天国
以外にも
てきました
カロリー
寿
結婚した
さに
に比べて
それなりに
スー
に合う
しないように
にんじん
▁サッカー
なんですか
さんま
盲
日曜
指針
▁俺の
を決定
気に入って
季
に出る
くらいに
個人情報を
パスポート
返り
▁かわいい
進学
本人が
人から
▁カテゴリー
ザン
ハナ
中山
揺
の判断
こんなん
宛
をやって
このページ
高まる
第九
都会
ドレッシング
▁読売新聞
可能性がございます
こうやって
していたら
演奏
建設業
りたい
頑張り
構想
▁高校
帰省
人参
どっか
カルチャー
お金の
正規
キチママ
それこそ
書いてある
勝てる
することがあります
クラフト
トラコミュ
アルコール
青森
サムスン
構
何処
最悪の
札幌市
ユニリーバ
んでしょう
iDeCo
▁絵日記
の息子
広告代理店
を共有
▁赤ちゃん
ESG
繋がり
長さ
声明
問題がある
入ってる
私たちは
お礼の品
せいで
仕入れ
修正しろ死んで詫びろ修正しろ
安全に
歳児
スタートアップ
本物の
最前線
ページトップへ戻る
生涯
カスタマー
▁20.
モニ
レンジで
ってことは
られています
ぐり
んだって
の物語
伝えたい
ポー
話し合い
は絶対に
▁19.
佐々木
飛ぶ
▁酒
国民健康保険
どうなる
に登場
バカな
マウス
会った
原子力
ウーマンエキサイト
お問い合せ
の経験
法案
たな
本書
定め
証拠金
で初めて
萌え
煽り
▁人間
モーニングスター
懐
負けて
の自由
歴史を
野生
▁左
うえ
山口真帆
▁会社
家が
時期に
激しく
褒め
▁ユーザー
だったか
ならず
潤
れます
がおかしい
イタリアン
皆様に
経済学
一覧はこちら
〜〜
本物
商品が
るんだから
に乗り
探して
届いた
省令
多かった
水族館
ってことで
▁お申込み
感じた
の予約
おっぱい
知能
託
視聴率
CI
この記事
類似
話感想
けい
少々
セリフ
においても
トランプ大統領
▁M
華やか
はてなブログ
をまとめています
稀
ばいい
まらない
一旦
ひめ
アスリート
定期購読
場合もあります
キレイ
あっさり
95
を見せ
絞り込み
(10)
電車で
フレンチ
集め
ってなる
食べるの
★2
解禁
くなってきた
明確に
発表会
貸出
ライダー
悟
メールフォーム
なんとも
万円の
問題で
ta
みさん
▁口コミ
日前
話を読む
クラシック
ドローン
慎
貝
の六
グラン
▁何が
女王
その場で
▁毎年
ケチ
▁ロシア
の下に
やったら
試し読み
しめ
虚
見せる
を買った
識別
行列
シル
起用
化粧
演じ
が苦手な
散々
より良い
対象となる
上下
を知らない
査
言葉が
蛇
描く
取り組んで
夫婦の
景
順番
動物園
推薦
たちに
もあるし
という方
ッキング
サイズの
沸
彼らの
▁最近見た
怒って
々しい
屋根
庁舎
筆者
第五条
つづ
▁社員
地下鉄
風の
持て
灰
の最新記事
レディース
筋トレ
表示する
様子を
義兄
扶養
できるのか
を調べる
代理人
育児絵日記
サポーター
の取り扱い
リピート
属性
ちくわ
安倍総理
愛する
カ国
の話を
妊活
暮らしの
てくれた
当たる
かせて
刊行
哲
▁WEB
のお支払い
思いました
明かす
なんだろうな
とは何か
富山
って言われて
新品
見れば
いちいち
▁反社会的勢力に対する基本方針
ものとして
寿命
冷たい
入園
面白く
ありませんでした
更新中
▁詳細をみる
イス
政府の
▁フランス
たとえ
GDP
アイディア
泊まり
元の
関連職
▁日本語
クッション
憲
▁姉
受ける
飼い
わざと
▁せっかく
▁にほんブログ村テーマ
▁英語
▁そら
の香り
デマ
コーディネート
クローゼット
ズの
持た
の力
宝くじ
訴
伺
がつく
中国に
駅を選択してください
変身
副菜
にご注意ください
置く
回る
多彩な
すんな
ライス
名前を
発生する
猫が
コマ漫画
およそ
視点で
我が国
って思った
ということを
▁著作権について
】『
あて
美しく
矛盾
はちみつ
袖
79
水位
のご予約
無くて
ポータルサイト
(4
なくていい
ウォーズ
目黒
高度
水着
エリート
両立
みち
を置いて
時間も
おばちゃん
どうせ
共演
実際は
に従事
果て
浸水
してみて
にピッタリ
広汎性発達障害
暴れ
革新
人格
そうと
髪の毛
大豆
ご請求
んですけどね
フォン
することにより
んこ
かんたん
残念な
頑張ります
が掲載されました
してしまいました
SH
沙
きれいな
実用
行為を
はよく
第七条
メロン
ちゃんも
ョン
のう
▁JAPAN
▁冬の
を買い
フラワー
▁愛
禁煙
お申込
物が
はすでに
世代の
▁ダイヤモンド
例外
ことにしました
帰ってきた
を送って
ずる
きている
バッテリー
ヴェ
大企業
肯定
まさ
イラン
貧
ことある
美味い
▁片付け
いい感じ
従来
農園
三条
署
不当
▁お得な
の決定
を開発
マクロ
ガード
十分な
越し
一層
優待
モモ
紛争
周囲
意欲
履
混雑
しちゃった
伝えた
はじまり
のルール
一流
述
▁バカ
んだけどね
暑
立ち上げ
なう
を駆使し
ンダー
の基準
ッカ
茨城県
▁電話
まさか
セールス
愛称
買わない
ダイニング
平等
やし
RPG
76
製品の
受付中
絶望
した事
おかげで
くださいませ
▁ランキングに参加しています
山の
の雰囲気
MI
会の
に直接
▁夢
ゲート
後から
いずれも
掌
いてる
を出した
を体験
海外旅行
団体の
子連れ
ないな
放棄
理屈
思ってる
かなー
オススメです
並ぶ
あさ
姿が
を追求
乙
机
諸国
こうなる
広がって
グランプリ
の形
換
いつまで
統
いらっしゃ
とします
▁スポーツ
していただく
のん
世界中
みれば
貸し
この時期
第六項
君は
当せん
消えた
メジャー
選べ
第十四条
小さじ
純粋
するよう
かどうかは
th
:【
合わせる
世話
部屋の
負ける
洗面所
らずに
やっても
予防接種
良くない
韓日
しすぎて
ガル
騎手
喝
くなりました
▁友達
噛
見せて
韓国を
なんだな
千円
写真を撮
正確に
可愛くて
沖縄の
ロマン
が運営する
ナビゲーション
お疲れ
株式市場
アップル
総務
サイトを
寄って
定着
▁第一条この法律は
領収書
▁お問合せ
考えたら
85
シェアする
の調査
守り
に合った
するだけ
▁大人の
お誕生日
学んで
惜し
掛けて
もよく
があること
届きます
震え
フェミ
番目
日雇い
SI
を選択する
迅速
▁原作
▁ご利用規約
とは思う
ピーク
ぼっち
歳から
いまだに
もんな
の施行の日
を募集
するとともに
分散
▁それと
ようになり
イキ
ki
無駄に
ゅ
告
フジテレビ
驚
してきて
PayPay
66
原因は
を描いた
検出
ディスク
溝
の試合
お値段
障
87
拉致
考察
待遇
レコード
生きてる
浸透
激怒
医薬品
押し付け
発射
を教えて
の中では
、2018
ダーク
ならびに
くれたら
すぎない
私たちの
やりとり
FE
場所を
に備え
食欲
こだわりの
捨てて
14】
の内容を
づく
そうめん
▁マイ
とった
しゃぶしゃぶ
踊
チェンジ
ばかりの
気持ちは
WA
貫太
ぽちっと
このブログの
ろぐ
拝
潰れ
▁子どもの
ゆず
どれくらい
第六条
ライズ
2007
代表取締役
きてる
却
▁お知らせ一覧
▁こうした
▁フォローする
ラッシュ
前年
▁これまでの
チリ
▁►
協賛
東洋
がちな
セクハラ
同級生
とは思えない
帰った
▁天
すん
出力
▁土日祝のみ
でかい
さすが
分ほど
酷
オチ
スコ
顧問
▁こっち
かと思った
鬱
想
▁恋愛
地位
昨今
の山
販
)|
部分が
くんの
がんばって
してくださいね
友好
長崎県
撤退
することも
の支援
ですかね
交付目論見書
ビーチ
▁お問い合わせはこちら
可能性が高い
させていただく
他人に
活躍する
ストレート
新潟県
か分からない
人気記事
絶景
が苦手
本件
好きです
拭
アボカド
星の
江戸時代
根本
▁日本で
洗脳
隙間
駅の選択
シナ
💕
ができた
たんだけど
愛車
あくまでも
直す
▁今月
レディ
漁業
声で
されたもの
テーション
あるので
二重
壮
のみで
をお願い
噴火
伝わって
まき
佐賀
使われて
膨
心霊
やめろ
運営する
いただけると
黄金
第八条
調べる
の提案
▁カテゴリから探す
複雑
蓄積
漁師
それ以上
の中の
を防ぐ
嫌だ
企業様
利用目的
死ねクタばれネツ造
嘘を
...』
シロ
日本でも
参入
が最も
▁最初の
原爆
外に
に関する基本方針
何度か
拓
南部
社員の
魅力的な
すご
の許可
メールを
▁結構
図鑑
量が
匿名
体育
に関する調査
多摩
韓国側
鳥取
期間は
ペロ
クエスト
不妊治療
みん
をプレゼント
仕上がり
甘み
西武
近年
米国株
レイン
りません
の適用
▁F
徴用工
文化財
美味しかったです
卓
必死に
のが一番
診
ed
デッキ
広告運用
リカ
セレクト
▁八
描き下ろし
お散歩
ュ
ゆみ
カッコ
旧法
危険物
どっちが
工房
中島
熱中症
祐
マヨネーズ
著書
▁うん
▁東北
EV
陳
怠
呆れ
ワンコ
180
一週間
まめこ
カードの
ご当地
ジェイ
たって
経理
たが
を見せて
垢
(*^^*)
困
LA
している場合
単独
字幕
(12
得る
▁IR
着て
日以内
程度で
を掲載しました
お届けする
日本軍
ってください
をつけた
やってみた
ることで
んど
▁不動産
の契約
▁なんと
たのか
先生に
お姉さん
▁指定された
bo
リンゴ
公式アカウント
トピック
目線
勝って
▁メールアドレス
▁---
資産形成
侵入
オススメの
のいずれか
▁神戸
において同じ
必要があります
大学院
とか言ってる
空いて
仲介
行われ
万能
はずです
の時は
一休
ラック
大島
小学
生きている
の届出
▁彼は
提言
ビットコイン
▁◇
本当にありがとうございます
法人税
カンパニー
アカ
定食
日発売
を立ち上げ
歳まで
RT
法的
わりと
綾
廃棄物
中国が
釣
▁もっと読む
を進め
広告主
開けて
表フォーマット
買いました
にお問い合わせください
いけば
セクシー
併合
ベー
ちぎ
はてブ
仙
ザイ
巨
何らかの
功
カートに入れる
勝った
キッ
固め
ハンバーガー
婦人
と認められる
東京の
異動
唱
どうやら
使わ
信じて
お気に入り登録
パクリ
貯
律
戻し
を感じて
しているのか
公正
▁ご利用上の注意
アクア
二人で
かというと
を大きく
ピング
にもなる
ヤクザ
入試
売り切れ
確立
メタル
百二十
ちょっぴり
71
予感
スイス
この子
さき
ブロガーさん
▁関連する
温かい
トリー
続きます
生理
王子
うなぎ
▁赤
っぱなし
るんだよ
んなら
世界観
持っている
は大変
ましたよ
を誇る
換金
保育士
先端
清算
情報通信
の回答
に参加する
いっ
▁いわし
可愛
に移
客室
被保険者
稼げる
ハイブリッド
UI
を合わせた
ラッキー
▁どうして
みろ
▁24
七十
仲良し
潜在
唐揚げ
個人情報の保護
折れ
ローラ
PV
する場合があります
は何も
交差点
アセットマネジメント
義兄嫁
機能が
もっと見る
お財布
貨物
実写
がっつり
友達と
▁パ
しないでください
という感じ
▁おもちゃ
▁ごみ
あう
▁トップページへ
時半
もあるので
沿線
なかったけど
主な公
——
っく
青年
ことになりました
▁▷
罰金
教える
出会う
ティッシュ
ムンジェイン
▁広島
▁本文
朗
秘書
カービュー
▁安倍
【#
なんだよな
木の
粘
▁事故
居住
貼り
登場人物
第十条
レーダー
見つめ
立たない
ドクター
おきたい
ましたね
蹴
綱
本当は
公衆
りそな
ファイナンス
一覧へ戻る
福岡県
好調
市販
キープ
▁防災
更なる
刷
寛
▁個人情報の取扱いについて
先ほど
に限り
が多くて
為の
店員さん
失点
有名人
不調
側面
家族で
猫たち
立てて
どうなって
んだよなぁ
飼
を満喫
第三十四条
同じこと
もたくさん
参り
CSR
のレストラン
無印の
沢山の
ねる
東京駅
ベテラン
ふれあい
運動会
区別
▁電気
卒業生
女性は
与党
アンド
同日
形状
86
許諾
1.5
ッキ
ユニット
肥
不安定
堀江貴文
売上高
改修
ついつい
まとめちゃんねる
』#0
豪雨
年には
桜を見る会
上海
通し
部分を
会社で
の転職
隅
耕
連盟
っくり
揃え
配偶者
お会い
フィルム
楽しみにしています
だけだろ
↓↓↓
居ない
恥ずかし
フェイス
岡田
文大統領
じゃないから
小川
開花
保護猫
万円以上
▁すぐに
に戻
ところを
披露
学年
主導
妊娠中
しますが
投資信託説明書
子に
保険金
ネック
おしぼり
各号
親切
の規定にかかわらず
ネーム
▁ということで
渡し
世界遺産
母は
川口
排出
新車
初代
▁この記事を
ラノベ
DeNA
太田
BI
の主な
可能性が
足が
▁そろそろ
価格が
とかも
届いて
いくつ
者向け
ギー
のやり方
する場合は
▁地元
ないのは
親族
na
ちょこっと
堪能
会員の方
金額は
機械学習
周知
おそれ
読みたい
牡蠣
TE
予約する
のご挨拶
軽量
go
権利者
駅周辺の求人
妻の
エム
ふら
変わります
何回
打撃
ボイス
責め
コールセンター
かご
消費税増税
ジーンズ
に乗る
性質
充分
娘さん
今のところ
的中
文在寅
をきっかけに
地球の
持たない
溢れる
西洋
メリ
の音
居た
申し込む
開いた
だけです
鍛え
乗った
ではなかった
渡り
の交付
は非常に
の食事
起源
▁当然
再婚
が教える
班
絞
シャル
サイトのご利用にあたって
飲酒
額が
を活用して
のみならず
薫
持参
VI
▁不
損保
買える
ことがない
リーチ
無題
私たちが
に触れ
る奴
駅より徒歩
登記
もありますが
ケータイ
沖縄タイムス
唐
ポッ
はすべて
HO
パズル
はやっぱり
いいと思う
式の
円以上
早めに
50%
見積
へ移動
数年前
が嫌い
読ませて
の法則
→「
大物
戻す
小規模
されていました
くろ
電子レンジ
関税
カラオケ
くなり
難い
対馬
犠牲
公示
していただけると
グラフィック
つくば
似合う
した上で
を狙う
訪日
をすると
DI
るやつ
福島県
の思い出
官僚
文字の大きさ
制服
▁あまり
軽自動車
▁パソコン
認めた
しかいない
について適用し
に関する九州地方整備局の取り組み
読めない
べきだ
味の
オーダーメイド
いかなる
開催される
ご希望
夜景
に就任
指導者
又は当該
に強い
の街
可能性は
翌
お店で
録画
騒いで
すこと
が増えた
財務省
っていうか
LP
を使用した
真面目に
楽しみにして
の機能
行こう
央
支部
愕然
ものすごく
ホルダー
▁国際
イチロー
出された
範囲内
号に掲げる
フォロワー
ヘルスケア
わい
年も
の公表
ハンター
日本株
BC
オイ
1/2
友人に
に学ぶ
逮捕された
さんのブログ
になるのか
において準用する
DM
につきまして
ゆり
人種
しなきゃ
立てる
中国は
料金は
耐
殴
幸福
公布の日から施行する
アメブロ
IOC
法人向け
言葉に
米ドル
固定資産税
課題を解決
▁元々
いくらでも
ミステリー
と話題に
おきます
のやつ
配分
ふんわり
を目指します
のみなさま
▁良かったら
充実した
を見ている
物は
つまらない
宮城
この政令
貰った
経済的
己
詳しく見る
抜けて
日本人に
家族が
アメリカで
▁今週
▁沖縄県
容量
行っています
童
デジ
教えてください
スピ
継承
かなりの
となると
君が
と指摘
▁昔は
イケ
こりゃ
手前
ときには
開催のお知らせ
あいのおうちごはん
問わず
つぶやき
ウチの
目線で
よっぽど
転送
であることを
込まれて
縫
▁登録制
貰え
ボク
▁以下の
数々の
もうちょっと
山崎
ズボラ
血糖値
快適な
ズレ
▁もともと
自国
▁小学生
の魅力を
踊り
向かい
事由
▁たまに
めない
ヴァン
義実家
wwwwwww
悪夢
!」→
仕事内容
ディレクター
を置く
観光スポット
観客
ジュニア
慎重
下り
の無い
大人気の
▁日本人は
ニッチ
高等学校
そうした
で貯める
課題解決
と判断した
便利に
▁口座開設
立派な
経験を
算定
に取り組む
ぐる
ショウ
を発信
者を
場合でも
ひろし
偏差値
▁あとで読む
販促
どうした
オーブン
楽しめます
義援金
おっしゃ
雑談
であると
タラ
されてしまう
乗車
▁地震
削除された可能性があります
ドキュメント
福岡市
申出
第十一条
複雑な
聞くと
ヌー
お越しください
打って
▁プロフィール
しっとり
▁なんだか
金魚
ラウンジ
チビ
etc
飲
佐賀県
そのうち
ランキングに参加しています
をつなぐ
再利用
▁最近の投稿
ダル
摂
▁個人的には
▁少なくとも
スティック
を含めた
捨てた
慰安婦問題
税理士
舎
勝て
熊本地震
のサポート
が発覚
▁多くの
完備
投資信託の
を目的とした
はなく
▁応援
焼きそば
が得意
呼吸
だんだん
EX
既婚
家屋
が変わった
▁うちも
つた
▁約
たもの
しゅ
渡す
▁常に
サーチ
位は
外部リンク
を務める
笑顔で
と嬉しいです
をはじめとする
って言ってた
を開設
オフィシャル
買わ
先発
ヤン
月時点
▁ここは
(22)
OB
センサー
広め
負傷
海外反応
lo
調べてみ
すべ
制定
を発行
便利です
日帰り
財務局
商店街
ウム
いますか
ur
(17)
チャンピオン
を起こす
を募集しています
でさがす
著作権について
丈
海鮮
推
こころの
いったい
器具
第十七条
っちゃって
ムービー
エリ
がなければ
コミュ障
態
有効期限
膨大な
日本国
選んだ
ベルギー
謀
だろうから
▁採用
を要求
朝鮮人は
が凄い
トップページへ
行きます
着物
思われ
一切の
地域で
警察に
エレ
美しさ
わぁ
情報収集
▁次は
つなげ
▁お料理
ばし
暮らしています
られていた
ご訪問
鉱
おりました
だぜ
建築物
関わって
食パン
くださった
既存の
子育て支援
特定個人情報
ヘイト
▁求人
に取り
今度
に戻って
が来た
ガラ
入れた
はならない
いただければ
がわ
からさがす
□
キラキラ
じゃねー
セブンイレブン
、2019
速やかに
んだし
を優先
インデックス
ライフハック
プロデュース
勿論
考えれば
ちょうどいい
SO
形の
要らない
イルミネーション
なってきました
も見ています
人々の
求められ
思っている
副業
外務省
に従って
ツイ
異性
スキ
はいない
言いながら
防犯
体操
井上
いたが
やり取り
セカンド
スピーカー
王国
察
放射能
国内の
ミラー
用紙
ヘン
(11)
入荷
のですね
よくわかる
イベント情報
なしに
デニム
してるけど
ポップ
分かりやすい
おば
51
照明
第十九条
に向け
野菜の
チームが
ギュ
中は
すと
▁こういうの
ラフ
送られ
あるよ
ないぞ
インフレ
第十六条
警察官
不在
サバ
下水道
時事
と主張
暴露
ませんが
ヽ
福利厚生
適切に
重要なお知らせ
名作
スズキ
紛争解決
目立つ
意向
89
濡れ
▁これだけ
送る
▁色々
は特に
ご来店
会社は
ババア
さっそく
無駄な
一般的に
こちらからどうぞ
誘
ピース
公売
していますが
料理が
職場で
友だち
第十五条
変える
入らない
厳しく
▶
覧
un
ていて
以前から
つめ
いん
ゲームを
宮崎県
答
を停止
▁ブログについて
中でも
そうなる
簡易
障がい
被告
あいさつ
支払う
威
所定の
の活躍
伝わる
国内外の
地点
シンク
▁本当は
審議会
たい方
なんですよ
かせる
毎日新聞
社員が
▁メディア
インターン
のつぶやき
の長さ
に限らず
グリル
▁金融
関数
終わらせ
各号に掲げる
有料会員限定
▁バイク
正面
されております
ポータル
にお願いいたします
ブラウン
ドロ
煮込み
航空機
半ば
講義
はじめる
台北
▁妊娠
星座
にしたい
好きなもの
イルカ
スライド
をクリア
なっています
ことによって
洪水
サイト内検索
▁その他の地域
手書き
であつて
娘に
期待して
強力な
本屋
の相談
観光地
あんこ
屋外
すすめ
見積り
っっ
▁お客様サポート
を代表する
似て
の絵
和田
起訴
永遠に
拭き
毎に
暴落
出来ません
カシ
パチ
んやで
◯
未満の
の実施について
するものとする
▁H
情報をお届けします
塗
頼り
お取り寄せ
からのメッセージ
オバマ
やめる
▁男
四条
厨
▁先週の人気記事
冒頭
サービスのご案内
たけ
学校に
いらっしゃる
まずい
スムーズに
▁一応
金額を
にゅーす特報
OR
が見える
考慮
がほとんど
74
ベラ
車内
ときどき
ざっくり
確信
どんなに
親に
▁神
行います
あーさん
独立行政法人
マリオ
ができて
つながる
円台
わしい
牧場
カニ
体質
っき
菊
フック
の物件一覧
大騒ぎ
悲
\
運営者
小さい頃
に何
▁マジで
が足りない
～(
必要ない
オリーブオイル
▁料理
あゆ
のある方
不法
出勤
ましい
易
知恵袋
のはなし
村上
掘
口から
の拡大
—
到達
持続可能な
人たちが
養成
血液
値上がり
の想い
ワクチン
カム
実証実験
ございません
ひら
遊びに来て
歪
あるし
殴り
ーっと
ルイ
▁そんなこと
▁娘の
をクリックしてください
▁もしも
なければいけない
▁このページの本文へ移動
ぶれ
掲載している
きれない
がかかって
しいたけ
美女
▁次に
チェックリスト
el
ポーチ
炒める
の選択
相談室
みたいなもん
検索する
中には
今期
▁福岡県
▁教育
拾
かろう
▁令和元年
が発生する
大抵
をお探し
競合
角度
twitter
▁女性のおしごと
を探し
ハードル
はずなのに
ねば
戦場
笑った
週休
が出てきた
の合計額
人員
重ね
試して
▁小さな
支
新鮮
に行きました
助言
アップロード
買おう
ATM
市区町村
一定
始まった
ささ
状況で
どんぐり
爆弾
有能
トップに戻る
すげー
ジョンソン
出会え
刊行物
▁誰か
壁に
いただくこと
展示会
はともかく
駐車
あいつら
ヒロ
ぱん
芳
ほんの
楽天カード
レシピ本
が良く
▁おそらく
夢中
落ち着いた
肉の
支援事業
お客様から
やすかった
読み込み
されたり
ウエ
20%
月以降
お野菜
とみなされ
メールが
マック
その理由
連勝
結果は
衛
東京オリンピック
教材
加えて
メーカーの
テラ
そう思う
韓国と
過ごし
果物
する行為
▁ページの
半額
を開催しました
臣
戦力
のご連絡
としています
台の
表示されている
維新
んですかね
バグ
お尻
薬局
木曜日
生放送
両国
みなさま
覗いて
なんだよね
▁JavaScript
(^_^;)
使われている
が分かる
着こなし
リソース
珍しく
おやこぐらし
執
貯まる
は以下の
映画館
バレンタイン
首を
絞り
前で
圭
いつの間にか
友達が
を維持
ことができない
引け
賞を受賞
乳がん
トースター
の目安
ぶち
輩
▁それも
宿泊プラン
を営む
入浴
シュート
▁(4)
本来の
地域に
面倒な
ぼん
HOME
貸付
嫁さん
ut
速い
引いた
部活
脳腐れゴミクズボケカスガいジ
及びその
ロウ
からスタート
スキレット
インバウンド
帰れ
小松菜
のメンバー
屈
蓮
経歴
クタ
総研
救
理想の
後継
今日から
の皮
描
上映
通う
審
したりする
67
生きていく
させたい
の朝
居場所
食料
を動かす
1500
返せ
目安
花火
▁au
クター
モンハン
ォ
の件
▁つべこ
グーグル
▁家事
生え
付属
内容について
取り入れ
クックパッド
リハビリ
になったり
俺も
拳
話はコチラ
国会議員
勧告
景観
を果た
?」「
ことなく
編集長
四季
▁マーケティング
頭おかしい
が完成
あんなに
あまりに
ムリ
聞
要領
山口組
信頼性
▁1:
シップ
で絞り込む
グラビア
いいの
▁ついに
などについて
▁離婚
この間
ペル
ご説明
排
余り
スプレー
▁中国の
との出会い
ゆえ
ないんだ
クネ
効力
厚生労働省
無人
経由
表明
取れない
場合を除き
キミ
▁香港
を掲載しています
たんだ
生成
吾
承諾
巧
天ぷら
遺体
▁21.
勘
余計な
HA
任せ
お願い申し上げます
理事
手配
を知り
貸切
したかった
宿題
した理由
又
で最も
下がって
サクサク
ちゃんさん
怒られ
繰り
入居
▁いつか
衛星
時代は
アト
日以降
方には
アルゴリズム
してしまい
受け止め
圧倒的に
遇
揃い
の影響で
をご参照ください
お皿
お知らせします
躍
飼って
やれば
マザー
っぷ
償
が今
品川
我々は
島の
職務
富裕層
暖かい
カナ
ゾンビ
アプリの
コンロ
良し
如何
輝く
ってくれる
キック
対価
を作成する
記事が
の中には
ADHD
できたら
スキップ
身につけ
如
▁ページの先頭です
だろうに
気付いた
願います
性的
▁そうそう
me
来日
ジョー
騙され
曜
そうだし
非常識
好きの
誘い
▁新潟市
に行きたい
▁ブックマークする
大切
への投資
はこちらです
▁料金
加減
カラパイア
問題に
ライオン
天下
確認できる
したのが
法定
▁S
棄
誰かが
メシ
遵守
ad
・・・?
否
♪「
社会保険
追加する
ネル
ブログの更新
My
利便性
ヨー
▁はてなブログ
糖質
▁当日
ボロ
ウィーク
匂い
▁仮に
(20)
みましょう
しようとした
ニュースレター
倒産
▁夫が
無断で
続編
遂に
の代わりに
クー
メールフォームから
▁あなたは
ポル
83
片手
系統
出生
最高に
やや
なったら
しているのは
皮膚
コンタクト
もうすぐ
返って
▁いくら
だしな
な日々
がありますが
▁日本に
映え
呼びかけ
さわ
現れた
示す
の実力
と思うわ
光景
ことば
ぐらいの
役所
を上げ
日本経済
前線
ゼル
だっけ
▁キャンペーン
の公表について
▁そんな中
んわ
葛
母親が
にあたる
に行くと
いいこと
は違う
が出来て
の請求
らしさ
世論
▁そしたら
大麻
誰にも
ために必要な
企業に
撤去
ゆかり
CEO
97
無理やり
いいじゃん
できそう
承継
不問
キチガイ
的なもの
取り消し
単純
られたら
THE
保存しました
ケット
どこから
第五号
で見た
学んだ
今夜
岡山県
入口
気に入った
の質
だより
万が一
味覚
んでる
豚こま
実戦
方向に
柔らか
▁アカウント
投資対象
98
▁個人情報の取扱い
▁投資信託の
こういうの
必ずしも
したから
親日
集まって
の実態
参画
入れ替え
休止
の発展
シリア
行っている
監督の
てきて
▁【2019
こもたろ
oo
傷害
先進
んでしょうか
珠
王者
斗
収支
暗い
を知った
利用者ご自身の判断でなさるよう
Android
ドットコム
から学ぶ
来月
デカ
効く
が進む
ふふふ
▁心
オカ
プライド
いたしません
ブン
働か
KO
なかったり
あたりの
ツレちゃん
に参加中
短時間
那
旨い
▁彼の
黄色
ストリート
みたいな感じ
▁果たして
▁イラスト
BOOK
]【
現行
大勢
かも知れない
正常に
7%
改造
への影響
小屋
が集まる
はダメ
の特例
1:
を実施します
を記載
いたこと
強め
ことや
(^-^)
傍
環境で
108
概況
を堪能
トンネル
にあたり
▁アンケート
で活躍
本線
お客様と
▁福島
吐き
みず
英雄
六条
リエ
▁タイトル
発信する
ひとつの
うえで
する際
じょう
が少なく
刑務所
韓国で
を描く
▁ご予約
かもな
に任せ
姿に
細かく
▁ほ
災
相応
えり
VIP
▁年齢
ページトップへ
を選んだ
だったんだ
ことが判明
大きめ
紹介しています
認めて
木下優樹菜
メソッド
漂
でなく
栃木県
140
その辺
最多
いずれかの
絶滅
山形
情熱
に当たる
長時間
拡充
のご利用について
▁消費者
しょうもない
閲覧注意
▁スーパー
を認め
わせて
申し出
プー
は既に
の内容は
日常生活
の上で
者数
される場合
▁早速
などから
いただいています
単位で
倫理
テー
▁かつて
3,
賢い
特約
お話を
えび
ニッポン
やるべき
店舗で
ひかり
出版物
鑑賞
志望
そうだった
を開く
おひとりさま
排水
可視化
お待ち
って言った
と思うが
フラン
に立ち
だろうと
あじ
流す
伝説の
お読み
▁お支払い
すこ
この先
(16)
クライ
児の母
崇
ホイール
д
選んで
で解決
と聞いて
us
市況
新型車
ベリー
のホテル
掲載情報
になってます
になってから
データは
場に
抜
必
人気店
の木
ではなくて
スル
ぎん
偉い
が正しい
夏に
複写
百万円
行われている
タリ
書きました
出せない
やること
様が
脆弱性
みたいだ
ッチャ
ペットボトル
▁野球
私立
味わう
非課税
総会
とら
つけられ
▁本当
)]
面談
公安委員会
を救う
li
時間で
本人の
更
工学
ツボ
同じように
報告者
考えている
▁令和元年度
罵
派の
効果的な
現代の
てき
会社を
答える
GSOMIA
してたの
ケツ
テント
つる
ロイヤル
規程
▁さくら
会い
ゆめ
カッ
楽器
通い
に関する経過措置
抜ける
ハッキリ
おこう
を使用し
局長
集まる
思ってた
幹
避難所
消す
繋がって
トラスト
明細
撮った
きれいに
できん
振り返り
第三者に
ができ
するな
私を
ゼミナール
ポール
かもしれませんね
がんばれ
テイ
マスゴミ
区間
結婚する
イト
一条
詳細情報
強調
撮れ
LGBT
トッピング
争
BL
高かった
http
絆
歌詞
夕飯
学校で
を継続
その他の勤務地
▁女子
るからな
▁応募画面へ進む
▁今度
始まりました
進路
売春婦
無断転載
日記です
デリ
オッサン
投資法人
俺に
パーセント
▁このページは
第十二条
が始まった
修復
アク
サービスの提供
わけでもない
本編
追及
は日本の
ガール
気持ちで
遭
しょうゆ
を楽しんで
は同じ
テージ
の保護
丁寧な
発足
と考えている
オヤジ
を提出
トーン
ロジ
スプーン
▁意外と
順に
緑の
クリスマスプレゼント
の中身
東区
その通り
据え
ことができません
トピ主さん
更正
その結果
シカ
言ったら
闘病
ほとんどの
送った
学術
の建設
のみなさまへ
してるだけ
いただけると嬉しいです
可能性もある
味を
•
ドラえもん
籍
▁その結果
騎士
商店
復元
MR
ってどんな
▁一方で
書いている
あったけど
奨学金
プロフェッショナル
伊豆
▁真
プレゼン
れんこん
結成
を参考に
凛
クリップ
もんだ
よっ
アメリカン
CG
号泣
▁俺が
上品
毎日更新
ラウンド
何かを
安全保障
の進化
三重
に対しては
が来て
▁ママ
しませんか
の中心
紋
ソーセージ
在籍
見たこと
選手は
座り
息子と
大地
に相当する
なくなりました
が全く
一見
さー
がかなり
公立
支援活動
ホルモン
市町村長
はみんな
救い
を使用しています
のかもしれません
▁特別
茨城
終了した
情報も
自動で
において準用する場合を含
導く
▁歴史
ご用意しております
ーーーー
▁今朝
連続で
の通り
に行ったら
間違いない
が開催
をご希望
ボート
学ぼう
最安
コップ
分けて
海洋
リンクフリーです
できるので
形に
入り口
をしたり
炊き
職員の
フタ
▁本文へスキップ
鷹
教養
言うけど
おでん
やります
送迎
好きだった
するとき
におすすめの
も一緒に
芸能ニュース
ずら
引いて
を楽しめる
▁読者
一口
シャワー
命を
健康診断
類の
乗る
峰
公益
期間が
2～3
を示した
治安
箱根
丸の内
自分たちの
現時点で
縛
ピアノ
昼間
部会
ひらつー
発表された
を繰り返す
油揚げ
見れる
アリス
作りおき
▁コメントありがとうございます
日本経済新聞
ワイド
感のある
見つからない
やってみ
▁お支払い方法
春の
旅行記
暗号化
来たら
と思うと
殿堂入り
▁コンビニ
スタンス
に携わる
持続
が必要となります
トラウマ
ベンチ
おれ
実施中
識
いいんじゃない
もう一つ
払わ
を見つけて
絵画
をテーマに
良さそう
住む
検察
もらおう
▁コメントを書く
出かけ
購入しました
イチゴ
のかしら
量は
病院で
フライパンで
留め
キット
アフター
カスタム
叩いて
▁資産運用
自らの
ここは
研究員
する前に
FAX
仰
分かります
家族に
水産
ああああああ
もまた
リブ
シェル
世界が
変わらず
摘
億円の
に突入
ハマ
▁EC
になるから
コウ
te
人でも
▁2011
問い合わせ先
が届く
▁ツイートする
トリック
トモ
ンス
をしない
活かす
タケ
に追い
お好みで
といわれ
帽子
をしたい
nd
オット
恨み
の解説
▁先月の人気記事
交通事故
甘辛
号機
してるし
ときも
をそのまま
あざ
バット
離れる
世界中で
キーボード
DF
▁みなさま
ふれ
一冊
速攻
わかってる
はるはる
歳以上
ことができた
▁東日本大震災
石巻
たよ
第一項第一号
包装
▁あらかじめご了承ください
国内で
内側
正論
会合
▁お母さん
(←
が異なる
聞いたこと
が本当に
問い
された方
空き家
に含まれる
いただいた方
に手を
カギ
事業者の
のなか
日数
カッコいい
起こし
サッと
一度も
の規定の適用
猶予
ok
車検
大ヒット
簿
暴言
行方不明
も紹介
へ行く
なんですけど
カブ
を知りたい
を得た
二条
更新のお知らせ
あそこ
炉
as
人以上
スカッと
勧め
ッパ
を追い
▁お友達
したときは
▁コメント欄
していただきました
六本木
溜
外に出
半角
増えた
▁前の記事
▁更に
済ませ
本格的に
加え
疲れて
組長
届出書
の誕生日
を公表
シマ
支払われ
手抜き
洗って
▁テーマ
吐
三つ
を連れて
うちは
(26)
同年
ぐら
食費
主要な
冷や
そー
にとっても
日報
官公庁
切れる
▁漫画
キモい
も含め
所在
した者
分間
疲れた
裏話
ありそう
化し
健全
篇
スクロール
ネタに
はあった
学生時代
コラ
辞める
隠れ
はなかなか
夜に
年賀状
...>
ティア
プロポーズ
然と
原理
修了
≪
地味
ケル
保険会社
St
した方が
110
暦
講習会
ページ目
株探
住んでいる
にも関わらず
落として
理事長
応急
じゃねーか
の書き方
らーめん
行けば
という点
着る
日午前
ずれ
パンチ
▁ところで
▁特定
高度な
やね
北京
の会
やねん
消火
のかよ
を定め
パチスロ
前は
詳細は
が怖い
▁寄付
せっかく
そうか
応募する
願って
の売買
▁質問
税抜
発症
クルー
承ります
減り
ご指定
だったし
ガールズ
みなとみらい
虚偽
入っている
認め
適当に
同情
お時間
蘇
見逃し
▁※1
連邦
作画
配信済み
価額
くず
エリアで
知っておきたい
MV
よろしければ
リンク集
お天気
ご近所
〜」
▁≪
魔王
あけ
厳選した
アナウンサー
が重要
ご応募
ワールドカップ
するわ
▁皆様
はこちらをご覧ください
▁とはいえ
イスラム
ユニバーサル
ケンカ
▁県内
フォーク
帰ってくる
読み放題
OFF
オファー
を突き
塊
▁任天堂
あわ
克服
をご利用いただき
してみよう
らしいです
干渉
思わせ
青森県
サービスを提供
可能性も
が可能な
乗り越え
自動化
過激
▁素敵な
テレビ局
ES
の組み合わせ
期間中に
いなくて
張って
アシスタント
フィルター
コル
が存在し
問題解決
▁ホント
ee
)/
タカ
▁注文
▁ガス
ni
なろう
使い捨て
▁僕は
が生まれる
がないから
言論
読み上げ
あるのか
街の
が良かった
問い合わせる
▁クーポン
▁絶対に
第二十三条
コンビニで
強さ
ゴールデン
チェックして
仕事は
義父
多すぎ
▁N
▁動物
しんどい
うるさい
東急
やれよ
無知
出てこない
伸びる
気にしない
近隣
みてくださいね
独り
嫁の
同項に規定する
∀`*)
療養
未成年
分離
させて頂きました
を選び
売ってる
病院に
仕方がない
に失敗しました
モヤモヤ
ちゃま
ガイジ
着用
免除
脅迫
済みの
何かしら
こんにゃく
順次
働きたい
還付
が見つかりません
レンチン
リと
GE
そうですが
になるので
不能
をいただきました
並べて
再会
ホッ
流れる
しますので
せいか
告げ
現場に
審議
▁3:
国土
不快
京都府
▁このように
▁友達と応募
ようなこと
にすると
のタイトル
ヤフー株式会社
都道府県知事
を拡大
横に
異なり
付きの
名無しの早慶
なんだかんだ
でやって
きち
一瞬で
あの人の
減って
アパレル
▁22.
に最適な
の製造
その後の
中国語
ブラシ
いるのが
この手の
すか
(6
猪
220
バーガー
▁もうすぐ
もありません
▁G
バックアップ
未来を
抽出
家から
に提出
蔑
サード
幻想
課長
三重県
存在感
になってきた
べく
エージェント
connpass
響
になろう
わせる
ワーキング
納入
いただいております
怒る
閲覧履歴
おトクな
正常
ぞく
坂本
脚本
を見ながら
前まで
▁サイトの
尽き
込まれた
新書
五輪マラソン
GMO
を押し
きつい
▁年金
但
していただけると嬉しいです
に到着
安保
増し
逝
適正な
▁ぶろ
を搭載
風潮
近づいて
▁»
戦犯
を担う
を実現する
やつが
コンピューター
何度
▁アメリカの
書の提出
母に
扱
肉食
豚バラ
lu
鋼
慰謝料
難易度
わせ
ヘリ
気圧
▁いやいや
これって
61
の悪い
美少女
コンサル
社会に
表示しています
軟
友人が
するよ
柔らかく
デイリーポータル
,500
人として
AP
アクセシビリティ
せせらぎ
すくパラ
土曜
愛媛県
を解除
注意喚起
テニス
魔女
フィードバック
恒例
起こす
西部
じる
オペ
へのリンク
思い出した
潜水艦
打ち上げ
TI
▁あなたも
次々と
充
パワハラ
2:
▁研究
▁やっと
本名
▁2013
ストーカー
ポロ
大丈夫です
の方針
されてない
の最終
▁個人投資家の皆様へ
エステ
自国の
ユーザーに
レーティング
▁世の中
コピペ
しあわせ
▁引用元
河野
し続け
ko
▁いろいろ
頃から
普段から
▁週末
知られて
働け
志向
メモリ
それらの
こいつら
大会で
たまらない
等による
と述べた
ロコ
まいりました
世の中に
ちなみに
意地
中韓
チューブ
高速バス
を生み出す
憧れの
真の
したという
撤回
お仕事のご依頼
てしまいました
ロイター
鯖
青い
▁記事を読む
ご確認いただけます
を調査
を活かした
><
行い
情報屋さん
定年
フライパンに
様向け
平野
の利益
所詮
ムード
救出
意外に
se
とくに
見えます
op
比べ
戻って
側から
代表者
生息
恨
身分
マンションの
充実の
が見つかりませんでした
で使える
ていること
を指定して
脳内
を進める
が楽しめる
使わず
メス
茎
法務
ごま油
ピンチ
摂取
▁SNS
ますように
利用者が
んぼ
情報に基づいて被ったいかなる損害
駅徒歩
▁にゅーや
ダレ
月まで
調査研究
スン
くれてありがとう
をお伝え
しゅう
マイナンバー
寒さ
信用取引
こっそり
回す
平気で
模
の例
察し
を守り
体系
迷い
賞金
求
つみたて
気候変動
終わ
と思える
不適切な
英語で
めし
循環
ささみ
事実を
庶民
に戻り
ウォーター
を簡単に
ショップへ行く
範囲で
が増加
▁何故
▁いきなり
身体に
飲んだ
春雨
敗戦
と比較して
っていない
自慢の
起きる
ピッ
JP
が付いて
付与条件をご確認ください
鈍
野田
▁インスタ
揚
ロース
自分だけ
化け
ものではない
変革
分まで
っていました
no
スノー
ジェット
物資
モノを
¥
▁ハイブリッドマーケティング
▁様々な
妻と
クルマの
セー
▁よかったら
最終日
は結構
鋭
宿泊施設
誓
総務省
バックナンバー
三人
高知
ナイフ
プライム
ハマって
っつ
ブラウザで
年間で
名が
毎朝
クッキング
るよう
美味しいです
広島県
どうなるか
シルバー
名は
玉子
言葉は
▁先週
番組で
その旨を
阿部
▁あい
賃料
子も
お好きな
継ぎ
の治療
▁続きを見る
新築戸建て
▁ニュース速報まとめ
浸
に至る
で買う
りします
インベストメント
共済
ラグ
ヤング
賭け
する必要がある
掲載しています
意味不明
噴
堂々と
同士で
んば
を提示
事業者向け
悠
んだと思う
▁21
猫だらけ
訪れ
ピュ
地方創生
AV
更新情報
子供も
阪
に連絡
広域
ジャック
その場
▁都道府県
を変えた
らくらく
入力してください
ムラ
全てを
預
住んで
もしかして
アーモンド
▁完全に
に関する事務
染み
認める
関わり
刺身
で人気の
松井証券
くださる
の閲覧
からなぁ
が多数
システム開発
方向性
東南アジア
の行方
企業や
キャラ弁
ビーフ
目の前に
食べ方
提唱
を表示しています
幹事
オフライン
膳
と言うと
最新作
でもなく
数百
ご自身の
販売業者
してもらえる
イチオシ
使い勝手
あれは
た結果
ーション
教育委員会
惑
作ってる
お近くの
料理レシピ
日本国民
カオス
▁あれは
午前中
国語
ニラ
をタップ
まいります
が中心
▁ご購入
突っ込んで
さし
育てる
蘭
▁せめて
▁カレンダー
▁そのまま
忘れる
どういうこと
▁猫の
新鮮な
したのに
店主
活発
生きた
ブロックチェーン
社長の
を受け付け
ご家庭
ETC
リウム
いたけど
探偵
騎乗
つもりで
危険性
横断
現れる
資金調達
超簡単
▁これら
累計
通る
直前に
分かりません
▁そんなに
生クリーム
っとる
2005
解決する
ョ
思える
ごぼう
の整理
▁桃
様子が
される場合は
叫び
協会について
守る
が充実
岐阜県
省エネ
しとけ
落語
夜は
ゴン
を打ち
年第
タダ
桑
の末
階建て
ex
▁お店の
した場合は
嬢
ひっ
重量
東アジア
派手
すれ
かねない
▁印刷
リート
選ばれ
手放し
を伝え
見守り
第三十五条
喚
オブジェクト
DX
を終え
欄に
があったので
即日
たろ
税務
がついに
投資判断の参考として
ゃ
▁持たない暮らし
有る
なかったから
なのでしょうか
▁だいたい
360
をご提案
抜群の
この世
の利用について
着け
市川
れず
マグロ
に入社
は見つかりませんでした
最新記事
国土交通省
トム
盛り付け
を行っております
変えて
られなかった
豊か
鹿児島県
にはログインが必要です
した時に
間近
どうしたら
アキ
将棋
拘束
補足
信頼できる
vi
自動車道
詰め合わせ
▁夫と
サイクリング
ご購入いただけません
ていません
本土
の本質
昔は
くらいなら
勝てない
は関係ない
れい
合成
潔
気づく
会社情報
騒ぐ
させられる
適当
トップへ戻る
募集中です
▁社長
ネガティブ
だけれど
が強く
▁ここの
欲し
履行
北の
が発生し
......」
ダウ
▁無印良品の
検索エンジン
全体的に
ナナ
れなかった
べきか
に集中
不審
CE
隙
場合もございます
カビ
ソフトカバー
の増加
外から
じゃないけど
その分
明確
を表明
モテる
待つ
控えめ
だと思うけど
ディズニーランド
YO
がないので
失敗した
腕時計
を見せる
に比べ
燃費
の企画
前田
に続き
ヘッジ
あいつ
KI
税率
年ぶりに
仕事も
お盆
貸金業
が行われた
聴いて
言い出した
限定の
を詳しく見る
掛
ビーバー
いるもの
アシスト
ったこと
携
人なら
通帳
するしかない
混ぜて
の二第一項
に立つ
を対象とした
給食
ウケ
私自身
コリアン
織
▁2012
まゆ
抑制
に挑む
の始まり
ジュエリー
天皇陛下
ないなら
▁今後の
家の中
してあげ
値を
試み
方法により
と話して
南野拓実
環
何だか
当日の
▁NPO
介入
ジューシー
▁トップページへ戻る
▁さあ
深刻な
ir
アマ
SF
が終わって
▁NTT
シリ
ホテルの
やってくれ
スタンダード
ミッチー
をゲット
アカン
ツーリング
悪いこと
全世界
意志
斜め
攻
与えられ
を拒否
未遂
よかったです
テレビ番組
演説
歳半
人にも
扱って
遊べる
いらん
大満足
今や
ドイツの
薄く
▁アホ
おいしそう
DE
を行ってください
▁名前
モチベーション
あきらめ
もないし
医療保険
明記
パレード
近畿
マリー
の資格
健康保険
ヨガ
駄
叶え
似てる
集める
東京証券取引所
に切り替え
パーソナル
臨床
um
励み
男性の
▁そのうち
彼と
を作成し
侍ジャパン
を重ね
徳島
良くて
ひふみ
ビジネスモデル
増田
黒人
震
ようなもの
読売新聞
屋敷
送金
独裁
を減らす
が開催され
されていて
感じられる
ほら
連合会
提供している
盛り上がり
紹介します
匠
いきました
を問わず
情報を見る
▁お買い物
マイ定番スタイル
答えて
ヤバすぎ
を綴っています
が変わって
咲き
も美味しい
こちらで
要注意
にわたって
面白さ
終了のお知らせ
ことない
深刻
下部
過ごした
示唆
三浦
▁アナグロあんてな
REIT
グラム
況
逢
中東
と同じように
死者
梱包
になるまで
コレクションを見る
土日祝
なっ
ボクシング
▁ようこそ
と言ったら
麻生
▁韓国人は
情報を発信
触り
あちこち
リバプール
甲斐
土日祝休み
客が
ドーム
終えた
▁自治体
撮影した
▁キム
尊重
発動
▁このお店
歌って
振り回され
解明
レイアウト
▁23.
が取れ
画面で
お買い物マラソン
にはならない
興味深い
だと思ってる
小麦粉
集会
たりして
^)/
のことです
年頃
健診
操縦
火力
優しさ
を基に
いただいている
してくれない
9%
編成
迷って
▁アクセス
警官
運送
書かれた
▁お客さまサポート
径
アンパンマン
見つかる
▁会場
見どころ
インタビューを読む
陸上
表示されます
▁日本では
溢れ
の発表
の主張
貯める
きれ
自己責任
曰く
があるなら
を忘れて
ナチス
男性は
情報の提供
タロット
ブログランキング
を特定
お互いに
ce
▁DJ
説明書
▁対象となる方
されてます
んじゃなくて
目玉
ya
頂きます
余地
仮に
売れない
日には
異なりますので
ヴォ
カーテン
アメリカに
挟
お手軽
見極め
▁選択した
新生
を発表した
本規約
GP
審判
こともできます
キレイに
ヘアスタイル
ですからね
が流れ
現物
特性
によれば
松山
名簿
に残る
事業部
くっ
名古屋市
第七十二条
起こり
▁ツイート
ひき
て草
FEH
ボウ
お片付け
殴られ
正確な
やってくる
ol
に向かう
傑作
買えない
架
ギャンブル
頑張った
意見を送る
84
得意な
▁自分も
しますか
はてなニュース
ピッタリ
開拓
ライブドア
お支払
ノンフィクション
マルといっしょ
記事を読む
オバ
それだけで
仕方
日韓関係
帰属
▁それだけ
住居
次第で
協同組合
フェスティバル
どうしようもない
じゃないよ
歌う
出品者
を受けた者
▁ただの
そん
組んで
かぁ
お好み焼き
サイエンス
鮮やか
リアルタイムで
橋本
まく
貰える
訳で
の設定を有効にして
寄稿
身内
八条
はコレ
が起きて
魅力的
キツ
▁当ブログは
絶え
フレッツ光
記事はこちら
あかり
地域づくり
▁夏休み
間違えて
グランド
△
少子化
と思うんだけど
産後
打つ
ty
という気持ち
2006
惚れ
├
続いた
説教
田さん
▁当サイトは
賛同
産の
をお考えの方
首位
▁これって
なかったのか
▁契約
磁
こうなった
ラグジュアリー
リボン
リレー
タイムス
してもいい
どこが
使用している
対象となります
監督が
直後に
三角
含み
さとう輝
ミュージアム
九十九森
保安
を迎えた
LED
出来上がり
決定版
鹿島
モス
友情
▁大好きな
なめ
寝室
悪意
辞めて
等々
ドン引き
持たせ
マキ
瓦
途端
頑
日本側
鍋に
頭の中
あっち
期間を
▁いろんな
▁25.
ビットキャッシュ
▁図書館
日立
果たして
になるか
するほど
たくさんある
結果的に
嬉しかった
めちゃめちゃ
ダンスィ
お知らせいたします
▁相談
シャン
顔で
すいません
のあり方
おそ
上方修正
出来ました
いろ
覚醒
痴漢
絡め
コンプライアンス
長谷川
バタバタ
お手入れ
国民が
してみませんか
めんどくさい
品目
する際に
早朝
決める
ry
の謎
▁ウホウホ
往復
武装
個人的な
俺たち
ことはもちろん
最安値
大橋
と思うので
82
忙
奇跡の
社名
散らか
円安
ぶつ
生コン
自然に
払え
すべての機能を利用するためには
▁目的から探す
自作
サンタ
ho
こころ
併せて
驚きの
▁東京の
日本製
着替え
と思ったけど
だけなのに
じゃらん
ロット
抱き
喉
大規模な
をしながら
土下座
一戸建て
に出席
迷った
できている
密着
松井
冊子
同棲
彼女に
聴き
中国と
荘
浜松
収容
分野の
自分から
不便
する可能性
梅干し
バリュー
を繰り返し
久しぶり
さっと
受験生
と思われます
説明する
▁当ブログについて
を最大化
の制作
肺
台所
を狙って
神田
破損
隣に
集結
CT
おいた
が起こる
働ける
トコ
宇宙人
ウッド
浮上
とどま
新興国
脳の
関連情報
を図るため
は存在しません
第二十四条
幽霊
主催者
積極的な
130
使えます
信用金庫
伯
実家の
戦車
山本太郎
バズ
ガリ
はちゃんと
わがまま
処置
水曜日
移植
トースト
滋賀県
気にする
凍
無責任
募
は全部
▁連載
HD
舞い
の変動
を無料で
学べる
をみて
TPP
発酵
を感じた
どうすればいい
残っている
令和元年度
登録情報
for
▁お気に入りの
アッ
アンダー
高層
戦略的
育つ
豆乳
プランナー
してるのに
機内
ことにした
露天風呂
理解できる
開通
ちゃいけない
動け
じゃねえ
ギリシャ
んだよなあ
を書いています
と説明
一人ひとり
を助ける
の見通し
気象庁
▁ウェブ
次条
災害対策
大掃除
年後の
を見つけた
社会保障
Go
α
▁このカテゴリ
しないこと
誰にでも
それ以外
ソファ
すぅ
頂戴
急な
が多いので
シンプルで
▁芸能人
ようですが
小学校の
ロケ
唐辛子
錬
眠れ
首脳会談
と申します
▁このページの情報は
してみたい
なにも
レーザー
異常な
習得
をかけた
GU
:30
デリバティブ取引
国防
強要
自然災害
孤立
青木
田町
月より
防御
候補者
注意報
(2018
▁子供が
決議
博報堂
取り出し
生後
まとめ記事
バイキング
締め切り
性の高い
がんばり
スナック
挑
▁24.
迫力
本能
おとな
してんの
ですねぇ
真っ赤
新年
よぉ
▁趣味は
を送り
成田
等に関する法律
[+]
ピア
▁資料請求
他の記事
場合においては
留学生
贈る
歌舞伎
▁と献立
を公開しました
出演者
メディ
四月一日
合宿
さて
銀行持株会社
杜
を決めた
出てきて
を失った
買ったもの
キタ
▁いよいよ
☺
あんま
遅れて
▁ただいま
無関係
が非常に
首脳
診療所
万部
▁コンテンツ
▁やさしい
一連の
196
信じられない
起こして
やかに
かのように
おくと
となっており
されず
をたくさん
ふた
議員が
靴下
事案
しらす
お魚
お客さまへ
くれている
社債
ぼり
株式投資
の写真を
軌
Nadia
公認
ニック
全力
誠実
食べない
少しだけ
中途半端
サプリ
大根の
絞り込む
そんな感じ
忙しくて
みたいなもの
毎度
気にして
損害賠償
おいしさ
セミ
▁アクサ
▁お問い合わせフォーム
】[
か否か
本場
ごう
ロケーション
耳に
詰まって
許される
▁企業からの
産地
ればいいのに
るほど
しゃぶ
高原
が分からない
リッチ
農地
と似た
マグ
切り捨て
チェン
CR
青少年
専門学校
が生じ
見事に
ッサ
分散投資
トランプ氏
レアル
お疲れ様です
が早い
アメリカが
疲労
を上回る
ハンガー
探せ
があつた
ご利用料金
聞いたら
6%
いくつかの
習い事
のノウハウ
膜
私服
マイク
が見えて
してもらって
昼食
▁以下同じ
^_^
ソング
を作ろう
下げて
勢いで
リム
凶
の七
がその
を埋め
ねーよ
できない場合
😆
キープリストに
いくこと
を作りました
ーっ
人間ドック
てしまい
してるんだ
不適切
宣
ないよね
の必要性
ドラゴン
惑星
駅を目的地にして
ka
シミ
選抜
許さない
見つけ
感心
当たった
ボブ
っちり
記事検索
焼いた
がありましたら
▁すごく
エラ
れば良い
が安い
活用術
▁おうちごはん
庄
Blog
▁著書
握手
かじ
スロー
パッと
は少ない
邪
息を
第十八条
まじで
車いす
電磁
を開始しました
ググ
▁こいつら
判断する
右側
に対応する
バッチリ
ランナー
土砂災害
潰し
問題点
ふざけ
ステイ
責任を負いません
年半
を書き
知識や
ウエスト
からです
管理画面
旦那に
IA
香りが
川水系
どちらが
▁よろしければ
負荷
が起きる
の試乗記
演じる
た場合
▁夫の
垂
採択
せめて
を活用する
自由な
マチ
情報誌
▁暇つぶし
こぼれ
司会
信長
を残す
)※
で見つけた
を振り
では無い
ちょっとだけ
の里
競馬予想
いのち
フリーランス
おじいちゃん
用語集
人前
出される
健全な
高知県
に行ってきた
ニンニク
不動産会社
起業家
の停止
受け取る
タップ
編み
フリース
田村
SC
億ドル
EL
見つかった
施行日
小野
減った
▁良い
▁六
してたけど
を目的として
お支払い方法
マズ
▁お客様が
おけば
に関するお問い合わせ先
の合計
めく
発掘
の充実
磯
ギャップ
山形県
がメイン
カタ
チーフ
許して
食べやすい
杏
情報はこちら
▁メニュー
ソシャゲ
じゅう
全国で
マインド
国外
甲子園
お気軽にご相談ください
クリーン
貰い
を説明
言葉で
きみ
金曜
その内容
お買い得
変態
県の
滅び
へ移動します
神話
ぐるなび
貯蔵
オシャレな
ズム
シンプルに
に関するお問い合わせは
コメントありがとうございます
モダン
がついた
重複
筒
グレード
おかしな
長期的な
わかめ
いたしますので
アンバサダー
共生
違
▁神奈川県
信じる
零
やつら
の色は
移動した
株価は
多様性
好感
隣接
一貫
体型
当該各号に定める
嘉
九州地方整備局事業評価監視委員会
で草
業績予想
ンド
代女性
先週
受け入れる
ええやん
いってる
を取り巻く
認められ
いち早く
スティ
間接
感性
悪質
ドーナツ
迷子
にわたり
持ち上げ
↓↓
強力
胃腸
豆苗
んかな
▁K
奏
稼いで
聞きました
発売決定
原稿
韓国軍
どう考えても
広告掲載について
ステータス
川崎市
のお申込み
声をかけ
ビッグデータ
悩
選ばれた
と同様
一目
おそれがある
は何ですか
エッセイ
製の
だした
JIS
お鍋
感じている
理由がある
コラボレーション
をはじめる
ついてる
マイペース
メールにて
▁我が家は
の大切さ
を活用し
(23)
市場で
一次
言わず
編集者
▁福島県
朝鮮人の
申立
ウルトラ
かと思ったら
国内外
プランニング
ランプ
兵士
分量
▁26.
▁ネットで購入
苑
ギャラリー
国営
を保存する
浅草
高品質
注目の
東京メトロ
よみうり
▁あわせて読みたい
必要はない
堺
約定
ot
ライブラリ
にいがた通信
エレベーター
羽生結弦
▁今度は
北九州
抜けた
釈
張る
を追加しました
▁もしかして
▁組織から探す
ポイントで
つゆ
日経平均
リフト
の特長
の方から
られず
を起こ
タスク
閉じ
有効な
ヤバ
雑魚
作用
様へ
la
科学的
豊富
受けられる
展開する
参加する
方も多い
管内
もございます
グー
使いたい
ていきます
怖くて
を考えると
を使っています
リアルな
していくこと
は下記
国際法
フレーズ
ポン酢
ふくしま
るところ
カワ
保証金
感じです
を指す
おまえら
砕
提訴
沿岸
だけなら
ウニ
あふれ
視察
が誕生
調節
利用できます
行ってきた
知らせ
日本橋
思っていた
▁今月の
中国メディア
範
一段
只
冷静に
移動もしくは削除された可能性が
会員限定
を付けて
実施機関
▁資料請求する
ミュージック
曜日
複合
いる人
役に立った
集まった
▁海外で
手に入れた
赤坂
ベランダ
窓から
▁相変わらず
してまいります
淳
者として
戯
FRB
コンクリート
マウント
周囲の
いるんだ
寄付金
のようなもの
全体に
を推奨
フレッシュ
ワンズ
握
楽天ブックス
を入れた
かあさん
に行け
先物取引
麻薬
▁アプリで開く
に達し
息子は
いったら
ツイン
論理
SD
変えた
タイムズ
リーズナブル
スケール
レール
一方的に
ニョ
妥当
通院
のなかで
主力
フー
会館
したものです
するときは
適応
▁お仕事依頼
▁うーん
れません
遂
読ま
に記載されている
適合
▁クリックして
ホットプレート
骨折
と書いて
高卒
CRM
たとき
使い道
安定した
楽曲
時間がかかる
ご存知
ありますよね
超高層ビル
私服スタイル
浮き
心身
5,000
液体
チック
が悪く
ことについて
なんですよね
ジオ
国際交流
できるのは
霧
約款
利用について
悲し
のは当然
行ってきました
を投稿する
珈琲
を決めて
見てると
な雰囲気
締切
生活費
修行
殺す
まみれ
ゼミ
握り
指定した
シック
が減って
歳以上の
お兄さん
使っていた
あげたい
を展開する
大葉
できていない
かもしれないが
姓
を有し
じょ
付きで
受給
お問い合わせフォーム
原料
一覧に戻る
だと思った
ターミナル
定時
を行う場合
戦術
の強さ
オト
診察
同性
を設立
認
を募集します
更新しています
入店
の案内
上司が
大喜び
次の日
苦笑
時間外
行ったら
気付いて
フィン
クイーン
でもっと便利に
▁めちゃコミック
(18)
キョ
安くて
▁ブログ村テーマ
を目指しています
気づか
計上
創設
思いっきり
クサ
KPI
克
が豊富
同等
起こって
新規事業
不備
はるかに
じま
▁急上昇ワードまとめ
擬
オフ会
好きな人
残留
イングランド
....
込める
がある場合は
掲載の記事
したい方
もしっかり
電気通信事業者
ストレッチ
出番
を続けて
の力で
百八十
くれます
に当たって
age
クロラ
に至るまで
んてぃな
疾病
本棚
学院
にせよ
をとって
部分に
特有の
▁その中で
際は
感覚で
年少
日本海
流行り
製薬
ブレイク
ことはできない
生産者
第五
洗濯物
ように見える
リュー
下着
ひまわり
最大限
韓流
実例
啓
ひき肉
微妙な
’
國
テリ
外国語
の続きです
葬
三大
スマ
閣
お約束
戦士
気を付け
が大変
の募集について
進歩
再開発
をフォロー
内閣総理大臣
呼べ
お台場
だと思ってた
彼に
!」「
津田
だったわ
哉
えらい
アルファ
大宮
CL
数多くの
ってのも
ダイソーの
ありますか
であります
経由で
落下
チア
ブランディング
ないのが
ご馳走
の練習
パラリンピック
ふつう
付き合う
を訪問
ちゃいます
を理解して
年ぶりの
全体を
ちら
中断
見てない
▁大きな
交流会
時間以上
ha
は全然
つまみ
衰退
おかけ
リュウ
になるの
市内の
フェル
バジル
しますね
んねん
逃げて
もらえない
蛮
とことん
ローソン
OPEN
新規登録
誰かに
正月
と思いますよ
バリアフリー
昇格
である場合
食べている
した方がいい
ジョーカー
を全て
を差し
洗濯機
掲示
療法
補給
心地よい
全然違う
お寿司
▁まさかの
アクティビティ
年くらい
はぁ
に襲われ
伝えられ
弥
を失う
嬉
各地で
サウンド
療育
眉
恐
山梨県
撮
どうぶつ
老害
取り組む
奉
法改正
濃厚な
彩り
を書いた
解決策
籠
償還
リク
吉野
ヘビ
鴨
へようこそ
先祖
手元に
CK
北区
伸ばす
というような
ワニ
圏内
をとり
と言われました
で働いて
アクサ
させてください
無断
が近い
アトラクション
とみられる
またまた
絡み
叫ぶ
分ける
ナム
▁おすすめ順
望んで
▁役に立った
訴える
できなくなる
きたので
焼酎
鯛
カワイイ
両面
4000
ひじき
贈り物
んだろうなぁ
に参加して
こういうこと
激変
ズル
したいです
自治
山中
役務
項に規定する
アホな
仮想
愚
ザル
気付か
導き
すべきだ
と感じた
お疲れ様でした
が大事
を上げて
まくった
今回も
味噌汁
やっ
べる
団子
変わらん
乙女
に耐え
永久
させてくれ
▁海外の反応ブログ
ブタ
ボロボロ
つづきを読む
ゲル
を利用し
繰り返
▁28.
は少し
これまでに
翌年
がなくなる
考
徳井
利権
ギャル
篠
常時
経過した
を除き
なくてもいい
スニーカー
楓
鎮
この辺
塞
総務大臣
こんばんは
装着
を手に
を図り
そく
圧倒的な
の指示
社外
ゆい
おうと
NS
🤣
全体で
途上国
真っ白
心がけ
感激
歓喜
視線
思わ
有料会員
落とした
買い替え
ストラ
スターバックス
アリーナ
ヒョ
金融庁
人々が
しかできない
公園で
飼育
キャンプ場
個人事業主
萩
NI
ペイント
何もない
文系
▁なぜなら
ハーブ
見られ
好意
守れ
受け取れ
努力を
同人
をめぐる
ネズミ
と言っている
に出場
仕分け
南米
こなす
を突破
公平
当初は
なってしまう
キャプテン
夜中
みどり
忘れない
哀
局面
金の額
くらいしか
どおり
ter
ご活用ください
楽しみながら
ってやつ
聞かれ
つなぐ
可愛すぎる
を学び
q
株式会社アイフィスジャパン
をもたらす
発言を
スムーズ
▁海外の反応まとめ
それでいい
引き下げ
出そう
DR
停
呼ぶ
子犬
注目を集め
異なる場合があります
2,000
Inc
福井
んだぜ
告発
と思ってます
枚数
開庁時間
茄子
育って
やがて
あれだけ
デジタルマーケティング領域
ルル
メンバーが
育休
住んでる
IQ
▁29.
▁ご利用案内
の頃から
▁今回も
うれし
確かめ
の承認
救われ
連鎖
銅
本質
短縮
夫婦で
渡航
コミックス
大丈夫か
おかあさん
警察が
木の駅ひだか
すげえ
と聞いた
も同様
魚介
放送された
含め
辰
瞳
不妊
テンプレート
辞任
国境
とは思って
気になります
他者
重さ
だらけの
氾濫
第三十一条
師匠
僕ら
自宅に
ダイヤル
を理解する
ホスト
盆
▁ヤフオク
わが街事典
郵便局
ギター
分くらい
工作員
観た
共産主義
年生の
フィスコ
つら
♬
マックス
の詳細は
ia
だったりする
遺伝
科学者
経済指標
日本初
階級
▁個人情報保護について
が新たに
の本音
間違った
しとる
庵
落花生
ポジティブ
中毒
▁トップページに戻る
ロリ
苦し
何回も
もかなり
組み立て
▁お店で購入
寸
ギリ
ブラウザー
死体
アサ
特殊な
ろん
凹
秋田県
積み重ね
通学
ヤンキー
除去
透
石井
MB
▁サバ缶
知見
第二項に規定する
捕まえて
信託財産
ご利用にあたって
酸味
刃
容姿
大使館
サポートします
大歓迎です
を巡る
取り上げられ
を添えて
推測
接待
下さる
払い戻し
をさらに
完売
滞納
に行か
お祈り
について準用する
常備菜
気候
残ってる
武蔵小杉
儲かる
国内最大級の
回戦
倍に
を投げ
サーチナ
無罪
小泉
なりそう
サマー
情報共有
願望
マンゴー
心理学
神戸市
何卒
おうちごはん
メイド
重宝
まとめサイトのまとめ
滑り
掲載されている
馬鹿な
▁おすすめサイト
なところ
視覚
の注意事項
▁したがって
LO
をどうぞ
明太子
と考えて
醸
マクドナルド
NT
折込
励
から始まる
容易に
使われ
過ごせる
Vol
がどんどん
子どもたちの
定番の
市町
ほとんどが
ねじ
悪くて
だけじゃなく
半分に
死去
即位
がありますので
の皆さま
本サイト
興味ない
ミュ
なっちゃう
後ろに
▁昔の
精神科
記号
に連れて
優位
名所
▁ねらー
寄せられた
社長が
我が家に
JK
合算
嫁は
してくれます
連発
の教科書
ゼン
賑やか
辞めた
することはできません
ご契約者
沸騰
なくなります
梅田
資格取得
損益
ユース
じゅ
扱う
んだっけ
忌
▁マツダ
ラーメン屋
OA
苦戦
電子メール
クリスマスレストラン
受領
おトク
責
に入れた
のではないかと
蚊
喪失
それくらい
強気
の近道
が必要だ
小さめ
サービスを利用
聴取
したくなる
皮肉
景品
わが家の
横浜市
新着情報
姪
わくわく
▁創業手帳
ならぬ
コーポレート
決まった
リーガ
▁それより
黒田
反落
ああいう
澄
斎藤
決着
適用される
程度に
ガッツリ
▁日本経済新聞社
されたこと
統治
を厳選
ボラ
どうしたらいい
愚かな
ことが出来ます
ドリーム
呪い
一個
されていること
ふき
ゴミ箱
所管
を使わない
右翼
▁27.
別れた
こんな感じで
このサイト
奈良県
換算
への参加
肉体
丁目新築戸建て
ゴミ拾い
月下旬
静かに
負債
を切る
たちと
DL
あの時
カレ
してくださる
込んでいる
人気ランキング
ミラ
はあるけど
叩
紅白
本作
内閣府
廣
入れない
どんちゃん
四月一日から施行
こんな風に
(25)
考えてる
生み出し
ナイス
のかも
トランス
買われ
見かける
頂いております
ニュージーランド
みやぎ
女性たち
報告する
母親に
見ていた
も必要
まいにち
繁
補強
全体が
ぴったり
豆知識
完全な
頂けると嬉しいです
フルタイム
TEC
根性
第三十条
洗浄
ラグビーワールドカップ
心理テスト
通知書
は確かに
地方税法
するものであり
おなじみ
パイロット
▁明日の
が生じる
(*^
物事
世界的に
ヘルメット
理不尽
▁お電話でのお問い合わせ
を始めて
それって
母と
基本的には
衣類
シュウ様
妹が
止めた
思い込み
の促進
役場
に浸
子どもに
▁作品情報
蒼
狩
いたのに
最終的には
立案
農薬
ばり
に感じる
になっております
グリーンボンド
行けない
はありませんでした
最大級
話を聞いて
のしくみ
スタバ
全日本
マルコ
っぺ
組んだ
柔らかい
岩手
DQ
だということ
人逮捕
を抱える
昨日は
反社会的勢力
ムック
機材
はじめました
はいかが
ウィンドウ
ゴマ
ホッと
お得情報
著作権法
開発した
の新作
疎
劇場版
基調
申込書
安値
ロシアの
来てくれ
狼
アクアリウム
こんで
▁指定しない
バラバラ
検診
実習
気持ちよく
IV
駆
と思っていました
災害支援
九州地方
随分
サビ
カエル
オクラ
路上
備考
こみ
櫻井
連覇
しつけ
飲ま
ゼリー
からしたら
全てが
sh
対象者
ものがある
ようですね
しゃーない
スクリーン
減る
嫌われる
わんこ
をモットーに
パヨク
コンクール
してはならない
保育所
救済
ツンデレ
発進
デカい
アニメ化
歳の誕生日
犯行
担任
ちば
最先端
積極
長期投資
ただし書
逃れ
を固く禁じます
調べた
数え
聞こえる
重点
量子
▁梅雨前線
ルン
利子
LAN
に巻き込まれ
模索
ぐるぐる
ご遠慮ください
患
の属する
ミーティング
LL
をご覧下さい
キャップ
Li
どい
狙
遠隔
年後に
分布
始まります
〜♪
衆
なくてはならない
向けサービス
始末
盛り上がって
料理教室
許す
美容師
第二十七条
フォームから
を示唆
冷静
弟が
にかける
露出
良好
生まれる
召
アラフィフ
マツコ
工芸
運び
ロジック
放火
古典
ループ
特長
値上げ
が定める
と同様に
AB
乞食
共産
しにくい
▁猫と
代表的な
が選んだ
嘘つき
プリキュア
楽しみにしてます
を取り上げ
思っています
ビック
ノーベル賞
up
封
撤廃
規模の
▁今後とも
面倒くさい
与える
でないと
が紹介され
洗う
ポンプ
NP
よくわからない
スパム
すき焼き
ハングル
サイトポリシー
真剣
マネックス証券
になるのは
群馬
が居る
モデ
(27)
もあるけど
強迫性障害
書いてます
アカデミー
(32)
登り
会議室
退院
みて下さい
蒸
ぶりに
作ってみた
日本経済新聞社に帰属し
伊達
眼鏡
は完全に
di
いったん
古川
大久保
登場した
と話した
特選
ファクトリーのコミックエッセイ
いいなぁ
ゾン
の規定の適用については
すりゃ
特製
混ぜ合わせ
来年の
DV
期日
見直
求めて
会いたい
勝手
まったり
窮
乱れ
手袋
お客様の声
はどのような
その前に
よくない
しめじ
ページです
目当て
凝
自分と
吊
閉め
リュック
日帰り温泉
そうだが
ナラ
フン
悔しい
つけ麺
情報はありません
悲しみ
甘く
都市ガス
完了後
不自然
人も多い
この国
▁夏の
何かと
超絶
履いて
あらかじめご了承ください
偏見
共通の
考案
解雇
ご利用いただける
情報公開
トウ
案外
拍手
パフェ
戻ってくる
小児
にならん
使用した
芯
合ってる
流入
iOS
掃除機
外観
一周
一挙
ネタバレ考察
第六
しまっている
倒す
九州地方整備局の取り組み
ことはできません
検知
自動運転
になっちゃう
ボタンをクリック
▁サイトのご利用について
抜かれ
科学技術
個人データ
打ち合わせ
が出てきて
土産
はじめまして
ミニマムな暮らし
下半身
共和国
出ている
こしょう
本心
(30)
インチ
といえる
進捗
壊滅
県警
末期
ないですか
近隣の
第七項
眠り
大変なこと
盛りだくさん
賛否両論
キツイ
県庁
趣旨
してるのは
警察署
大胆
直撃
されてきた
土佐の森
に従い
大変だ
描かれて
どうすれば
月には
を聞いた
悩み相談
食べられ
してもらった
友人と
が存在する
放つ
幸い
邸
夜勤
スウェーデン
異なる場合がございます
どこかで
という思い
五条
挑発
恐らく
池田
遂行
生存
花弁
の取扱い
そうやって
POP
と思われ
なければなりません
雨の日
\(^
出願
就労
機関投資家
スペ
満点
未知
新居
仏教
渡って
ピリ
進めて
が行う
に備えて
パッチ
立憲民主党
実施する
書かせて
▁ファンドの
は大きく
大衆
しちゃ
こちらからお願いします
ちゅう
ハリウッド
以降は
グループ会社
ネット証券
勝手な
飾って
申
者の方
があるときは
発揮
フット
遅れる
政治的
染め
ブロー
おーぷん
当資料
適性
深さ
寝てる
頑張ってる
ガジェット
ぐれ
に包まれ
が成立
お腹が
恒
▁収納
ou
厚さ
血管
誕生した
タイムリー
仕立て
再配信すること
見てた
ティス
トゥー
がございましたら
お求め
年以降
羽田
届ける
屑
2004
するつもり
ピカ
会員様
洋食
福田
いろいろと
目標株価
動かない
やらせ
ポンド
キル
増額
構図
管理費
ワゴン
電気料金
焼き鳥
おけ
理性
スイート
それとも
😅
BE
目覚め
▁詳しくはコチラ
を与えて
買いたい
しなくて
▁スマホで
高木
お使いの
ステマ
事になる
水槽
紹介した
は常に
しておりました
▁30.
暖房
地帯
お邪魔
プロゲーマー
放映
いかがですか
ニャン
世界経済
ニヤニヤ
阻止
堅調
にチャレンジ
技術的
血圧
ストーン
が掲載され
しようとして
グレイ
旦那は
目の前で
ll
元気な
を踏み
スキャン
日経平均株価
未だ
拘
大塚
限度
塗装
ジュン
を提供しています
ウー
ひなちゃん
男児
良好な
アダルト
図表
法第二条
CC
新機能
胡
待て
たつ
新規取得
自販機
オフィスビル
文化庁
頼み
無料相談
最近では
として活躍
写真撮影
と思えば
詳細な
分前
会社名
好奇心
することができない
の公式サイト
オムツ
艇
作れない
すまん
に役立つ情報
**
っぴ
出金
制作会社
公式ホームページ
銘
エキサイト
クラウドファンディング
鶏もも肉
を理解し
ドラッグ
このブログについて
火災保険
側で
あか
買ってきた
あり得ない
凛さん
を振り返る
PP
日向
困っている
一斉に
だいごろう
アナリティクス
前向きに
見てて
だったのですが
コネ
場面で
ドック
左側
機嫌
大戦
触れて
▁違反報告
していましたが
UN
とらえ
向き合う
トラン
変更のお知らせ
女の子が
BBQ
ワシントン
免疫
こり
搬送
反射
スーパーで
ただただ
よかったら
よろしい
るるぶ
泣いた
どろ
境界
メリア
分でわかる
点数
色合い
進める
ひっくり返
無理だ
軍隊
我が子
に対する海外の反応
ユル
アクセス解析
の裏側
やしろあずき
の特性
とうとう
ウォーク
と呼ばれて
か所
株式等
したほうがいい
最新号
北朝鮮に
ッソ
になるだろう
?」→
死別
おかか
によつて
新卒採用
筑
瑞
自爆
系列
社会貢献
しそうな
年分の
予告なく変更
七条
陣痛
無くなる
役立て
貰う
ぽち
流れて
乗り物
乗換
適当な
個人的には
往
娘も
vol
にあたっては
次のとおり
危機感
商法
カルト
テイスト
そんなもん
が足り
オープニング
直結
休業日
ような気がする
退場
くれてる
行ってください
が見つかる
有楽町
エク
に繋がる
圧倒的
ディーラー
直線
によるもの
が異なります
ピット
を飲んで
記載されている
置いた
が発生した
百貨店
課程
とみなす
急増
お問い合わせはこちら
論点
つれ
訳あり
を強く
～♡
カルテ
明示
びっくりした
教えます
国際社会
ゲストさん
国民に
浴
SM
林業
マーケティング活動
お祭り
絡んで
新着記事
を描いています
断る
ラッピング
らしいけど
ホットケーキ
じゃねぇ
大雪
熱狂
リスティング
内田
嫌われて
必要なもの
ストロー
に関するご意見
スロ
遠慮
事実上
飲める
単品
行政機関
が出ない
ゞ
仮称
ボタンを押
昼寝
全国に
も何も
サーヤです
美味しくて
行ったり
リアン
盾
バリエーション
屋内
BO
らなくて
学費
ランニング
穏やか
交わ
育てた
んだなぁ
猫ちゃん
おらん
になっていく
将軍
キャッシュ
避
のお手続き
支援金
自社の
知名度
30%
マク
委任
サーモン
穴場
お預かり
改訂
羽田空港
酔い
へジャンプ
秩序
グッド
何とも
具材
MAX
重大な
ボウルに
詞
鳩山
襲撃
いいんだよ
小倉
朱
等級
随
中立
友達に
られません
専門性
たろう
得られ
号に係る対応について
PT
いないので
狂気
万件
スキャンダル
お子様連れ
日午後
パール
メッセージを見る
んやけど
昆虫
広告を非表示にする
会え
ゾー
きっちり
を込めて
招き
恵比寿
釜
キューブ
言われてる
ゲーマー
母乳
ページの先頭に戻る
GI
ばあさん
ご参加ください
余計に
パプリカ
に変えて
いるようです
基幹
ログアウト
処方
あると思う
徴用
馴染
理由とは
支所
数多く
大野
なくちゃ
で話題の
の真相
いるのですが
世界各国
資本主義
マリン
ビニール
人手不足
停車
犠牲者
頼んで
齢
影響力
が集まって
凄まじい
IKEA
見方
スリム
パッド
国益
つながって
が描く
火曜日
を加える
比べて
終わったら
連日
を加えた
契約書
▁その際
細い
日々の暮らし
で行われた
を飲む
高くて
楽園
談話
呟
より多くの
ゴールデンウィーク
していなかった
現実的
あなたと
悪くなる
注射
タヒ
小沢
婦
捜索
わたしたち
OG
旦那と
を実施する
戸籍
威力
キズ
されている方
実施した
されるのは
納品
シルエット
やり直し
▁このため
網羅
を検索する
を多数
玄
こんなもん
進まない
なりたい
トランジションボンド
ーーーーーーーー
食べました
遣
車椅子
UFJ
墨
片栗粉
にも対応
と言ってる
カウント
ゆるい
つ星
轢
参拝
観る
▁32.
ヨシ
移動する
ずーっと
を踏まえ
公的
いただくか
傷つけ
が起きた
を繰り返して
表示された
転勤なし
宮迫
後退
考えない
続伸
サポ
通称
伝承
スクウェア
減災
ーーーーー
しておりますので
おかわり
るんや
いるのだ
冷やし
正当な
撒
中の人
陥
身近に
(24)
インナー
自閉症
オーガニック
es
独特の
他の人
行きました
を指定する
残して
EP
怖かった
言うなら
を越えて
豊洲
年版
始まって
込まれる
出世
辛さ
▁31.
息子に
歓
が好きです
盛り上がる
の選定
運用会社
増益
教会
が当たる
運勢
くるみ
有力
宇都宮
エキス
祖
トレーナー
変形
国旗
ページの先頭へ
効率的に
やっていた
ドロップ
耐震
だけだから
をめざし
を保証するものではありません
提供開始
影響を受け
遥
レジェンド
繊細
包み
不定期
わかりました
などにより
に掲載されている情報は
フェスタ
そこには
ent
12/1
一括査定
に移動します
不利
第二十二条
年々
商業施設
づき
あったり
実物
開封
着せ
エラーが発生しました
三井住友
進呈
ご了承
ブリッジ
年連続
必要となる
コンテンツマーケティング
めば
いれ
コメディ
▁明日は
賄
菊池桃子
わいせつ
とは言え
望む
アクセル
こだわって
登録した
▁お役立ち情報
固有
手に入れ
単純な
吉本興業
<<
前期
出来なかった
][
に属する
を目的とする
みたいなこと
大好評
廃棄
トレイ
▁お探しの記事は
罠
回ゆうちょ資産研セミナー
スクエア
苦痛
石綿
いませんか
本人は
ランディングページ
する気
福袋
ビタミン
遊園地
贈与
シロップ
手のひら
マイケル
を減らし
で構成され
くりっく
▁ここでは
▁33.
サクラ
持ち込み
に位置する
見た目も
総務省令で定める
らせた
連敗
プリンター
▁★【
機密
ものとし
以
楽しいです
ボウル
フォルダ
集めて
合流
をお願い致します
出費
わけがない
水素
落とされ
に対応した
許せない
カラダ
ネオ
別表第
わかんない
クリームチーズ
取り扱って
叩かれる
JCB
制覇
ポイントについて
ver
不気味
を待つ
とっておき
ひとりで
UR
にもおすすめ
ゴジラ
ついている
会える
へのご意見
ユウ
韓国では
上田
一同
提起
ツヤ
2001
限度額
百合
ゥ
が出ている
に準ずる
帆
▁こだわり条件
賞受賞
没収
を選択し
してみると
我々の
じゃないのか
押す
私的
ap
看
簡
ワンストップ
大好物
はどのように
手に入る
ご利用可能
してもらえ
大容量
すず
ご寄付
凸
この本
を実感
生態
ヤマハ
近辺
者に対し
征
キャスター
献血
ファーム
上り
帰ってきて
▁医療機関の
読み解く
対処法
大炎上
静かな
GK
ご記入
紹介する
巾
憤
曖昧
卑怯
を守って
ではないけど
人たちは
いいかな
個人情報の取り扱い
エディ
契約を締結
したことを
とは異なる
ガーデニング
普段の
▁芸能人の噂
管理職
デイリー
の活発な活動による豪雨対応状況
抱きしめ
に関する研究
宅配便
を避ける
第二十五条
宰
のススメ
曽
ブレイ
モリモリ
辞退
西野
が出来た
を実施しています
立体
ざわ
資材
夜中に
することができ
っちゃいました
までお問い合わせください
書け
直送
弓
エクセル
テール
(41)
リバー
承
を受けること
してる人
上の子
多々
クン
SU
県政
武豊
発売中です
を合わせて
各地の
なくなったら
出してる
イマイチ
FM
進んだ
売春
を活かし
メンバーズ
書かれている
パウダー
考えられる
をベースに
王道
の疑いで
かわり
機体
もないのに
旅行者
♀
弄
興味のある方
に似てる
ポット
お考え
夫妻
目覚めた
に欠かせない
ブチ切れ
上質な
いただくため
呼
神宮
ハイライト
合え
実証
を重視し
ご了承下さい
髄
セラピー
必ずお読みください
た方がいい
これまた
個性的な
やれる
緊
件の口コミ
あがる
享
合法
のみなさん
磨き
ようになります
しているため
こんな事
を応援する
利用停止
が入っている
ドタバタ
パンク
摩
お聞かせください
▁経済
って言われた
▁パスワードを忘れた
で買える
を作りたい
相手方
について調べる
月刊
昇給
解説します
ニュ
少数
新米
放出
織り
クジラ
と言います
壊れ
手伝い
を重ねて
可愛かった
さんたち
うろ
渡る
トップス
明確な
に移行
隔
🎵
裾
できるようになりました
値動き
業務提携
もらいます
所沢
騒然
プレミアム会員
わけではありません
お楽しみください
たけのこ
親子で
縫い
ガンガン
広告出稿
の匂い
百分の
モンゴル
開かれ
階層
しちゃって
大きくなった
ゲーム機
飲め
必要性
支払い方法
高まり
確定拠出年金
万全
出したら
活かせる経験
幸運
国税
使命
こら
騙し
予備
併
しないといけない
残す
部位
救援
皆無
捕鯨
実在
以下この条において
入賞
合せ
居心地
指定なし
悩んでいる
改正前の
指揮
咳
貯め
にこだわる
きたり
最新の情報
怒鳴
を読んだ
あま
エニックス
虹
日用品
溜め
お問い合わせ窓口
フェイク
ps
が有る
業務委託
ナマ
フォーマット
すっごく
プライ
売上アップ
と異なる
補正
順調に
四コマ
ことでしょう
デジタル化
業務用
ちょりママ
ジャッキー
使いやすく
▁34.
卸
居住者
くせ
何年も
出ました
主流
第二十条
侮辱
下さった
があるため
カサ
▁それなら
悩ま
屋台
ニカ
しまくって
Biz
それなりの
事業内容
今朝
失効
フルカラー
回以上
諦めて
いただけるよう
利き
月中旬
ランクイン
断った
スキン
法律第百
思惑
でご確認ください
武田
おいしかった
年に一度
認めない
枚目
欲しく
▽`)
前髪
女神
していただき
0,000
の皆さまへ
だなんて
様々
市立
上場企業
とろみ
インク
贅沢な
拡大する
来てる
避難するときは
待ってる
いませんでした
▁その場合
産経
支援センター
行政処分
ろうとする
安倍晋三
愉
∥
あたたか
バレー
伸びて
大山
していたので
精神的に
オモチャ
修繕
言われたら
希少
食べてみた
ビザ
バナーをクリック
めんつゆ
アルミ
予め
全国各地
売り場
敷き
あぽりさん
弱者
が原因で
関節
掛かる
仲間たち
ネットの反応
取り上げ
一面
LE
褒めて
ハイテク
商用
無意識
変わら
比例
欧
ガバナンス
離乳食
桂
色合い変更
と言っていた
バルサ
分解
いいですか
お持ち帰り
時系列
エージェンシー
関わる
実際には
欠陥
会等の開催
オリックス
法施行規則
提供しています
▁お客さまの声
を強調
序
ごっこ
知らんけど
アライアンス
ベジタリアン
ムシ
講談社
があったり
適切
しなさい
解け
ホワイト国
というところ
の達人
頃には
矯正
肖像権等は各権利所有者に帰属
一ヶ月
行うこと
応援よろしくお願いします
はどうなる
れたら
▁キーワードから探す
愛国
たがる
ネイティブ
サマ
スマホアプリ
用意して
水中
購入者
射撃
ご自宅
岡崎
水菜
▁すべてのカテゴリ
柚子
を大事に
豊かに
くさ
しておいて
吹き替え
伝達
発明
を管理する
なかで
激安
肖像
すぎだろ
嫌われ
法人等
第二十一条
漏えい
言ってない
イヤホン
(0)
共働き
ミナ
ここ数年
なかったこと
のかなぁ
カボチャ
決められ
▁お店でレンタル
ご入力
ウインナー
台詞
込まれ
駅から探す
つまん
農林
次々
んちゃう
岡本
事象
終値
傘下
めき
ありがと
夏季
働きやすい
が決まった
今年度
ご両親
合理的
マルシェ
継続して
卑
ブチギレ
ネット上で
ワタ
になってしまいました
▁広告掲載の
健康づくり
両者
馬場
組み込み
日系
だなあ
同行
過ごせ
警視庁
週間以内
結果として
わかるけど
通貨ペア
処刑
貴族
母子
してくれました
衝撃的
を理由に
明らかにした
こちらです
文字列
裏技
切替
定款
渡した
いれて
留守
発音
の取り組みについて
アワード
純資産
も楽しめる
わさび
‖
セント
転落
見ていて
妥協
衆院
お読みいただき
ものではなく
後半戦
に分けて
▁ていうか
定住
ご来場
撮る
来い
お昼ご飯
坪
▁ブログをはじめる
あっせん
とうもろこし
酸素
継続的に
すればよい
7000
殴る
id
場合にあつては
8000
講談社の
錠
説得
を組み
電気通信
琴
しまえば
誘致
打て
丁度
大きくなって
どうなの
宜しく
駐車場あり
アザミユウコ
▁売り上げランキング
鎌倉投信
肥満
ゴメス
豚ひき肉
ml
ことがございます
転生
いちばん
終盤
›
〆
▁新築一戸建て
厄介
でなければ
▁この記事へのコメント
デフレ
むき
♂
五年
ミニベロ
第五十二条
しやすく
承知
銀河
感謝です
理事会
ブログ速報
悪かった
京都市
買取店
ドラフト
は一切の責任を負いません
困惑
取られて
葬儀
に出てくる
が上がって
人体
へのメッセージ
万一
ジョージ
に違いない
コマース
公布の日から起算して
世界最大の
同様に
する場合がございます
本来は
活用法
▁もっと詳しく
となりますので
自業自得
プラチナ
開ける
はまだまだ
校長
と思うのですが
▁こちらもおすすめ
と話す
医院
下記のとおり
助成金
秀吉
問題を解決
宝石
▁いつも応援ありがとうございます
けーくん
築地
学級
QR
和歌山
森田
思いやり
帰りに
ライナー
三年
符
落ち着き
カキ
欠かせない
情報を探す
水質
初心者向け
試食
トピ主
ii
発見された
ことなど
吠え
超過
距離感
郷土
農村
情報を配信中
息子さん
聴く
改め
待っている
のおかげ
if
を表示します
施行日前に
だけの話
嬉しそう
悪質な
復興支援
農林水産
追い詰め
ココア
ねえよ
日本における
用地
ご利用いただけません
に負けない
オリーブ
支社
けばいい
駅周辺
贈呈
で学ぶ
掲
震度
と信じて
熱く
月曜
HTML
挽
キメ
象徴
と呼ぶ
そうだから
情報の真偽
炒飯
させられ
貼り付け
特急
専門職
スライス
プレミアムサービス
滋賀
してるのか
モニタリング
さらなる進歩
性欲
無意味
と比べ
敷地
公開された
になっちゃった
凍結
トレーダー
投下
都市伝説
中小
迷惑かけ
を含めて
協力して
東西
個別に
二度
▁結婚してから
結い
本田圭佑
なんぞ
狙って
に満ち
喋
合コン
Instagram
を配信する
おかげさまで
分科会
ダンボール
オーラ
チュートリアル
皮膚科
寄り付き
プログラマ
ヴァー
体調不良
には万全を期しておりますが
運営会社
橋下
立花
導入事例
カーブ
こたつ
経済産業省
読み込んでいます
信頼性等について
恩恵
非正規
居て
ダイヤ
敏感
納期
チェリー
味わえる
消毒
巻いて
アソビュー
ずいぶん
メール配信
小学館
を行うため
折りたたみ
くだらない
秋山
40%
を挙げ
和解
遊んだ
に関する正確性
煮物
の雀荘
トークイベント
野良猫
を結ぶ
ac
議決権行使
航空会社
助かる
選ばれる
埋
顕
強かった
休んで
ちこ
枝豆
舟
一般外来は受付けておりません
紗
短く
挙げられ
軌道
値下げ
中々
リスク管理
フォーカス
を使えば
転倒
この機会に
安田
ージュ
シックス
ヘイ
いまいち
船舶
営業に利用する
検索できます
カリカリ
どうなった
個々の
年までに
を舞台に
CH
大字
働いている
食べれる
モル
受け付けております
第三者へ提供する目的で情報を
フィンランド
新しいウィンドウで開きます
にしか見えない
小銭
垂れ
への貢献
蒲
いかがでしょうか
と同じく
運輸
商社
中身は
退会
介護保険
への支援
アポ
東芝
懸
らしいぞ
勲
給付金
(1/2)
概
台風第
追いかけ
倭
田代まさし
つのポイント
おしり
が長い
嘆
風俗
慣
を再現
電子マネー
人気ブログランキング
使ってみた
中の方
開示請求
道府県民税
お菓子作り
カクヨム
・・・・・・・
国際線
年スケジュール
ヒョン
イヤイヤ
見たことない
バク
フォード
ざるを得ない
やったこと
発売された
若い頃
更年期
洲
だと思うよ
切れた
婚活漫画
危機管理
経つ
安倍さん
貸金業者
ですねー
ジョーク
世界初
▁すべての機能を利用するには
急募
完璧な
抜いた
魔術
帰化
管理システム
揉み
強烈な
休め
スクリプト
ぢ
事がある
mail
富山県
この件
野菜たっぷり
を満たす
併用
通じない
派遣社員
みたいだけど
末っ子
直ちに
誉
願う
シアター
南京
説得力
やすくなる
ディープ
丸ごと
最善
穏
に遭遇
最小限
が多すぎる
建てた
地域活性化
苺
お見合い
毛布
カール
だもんな
商材
ことが出来る
頭痛
ておく
集約
まもなく
個人番号
文部科学省
葬式
寛容
寄与
プレーヤー
著しく
社会福祉
フォース
開かれた
うら
厨房
透け
喫茶店
こえ
にゅーす
入りました
法第五十二条の
戦前
容認
発電所
いられる
壇
逃げた
もちもち
アロマ
外見
ゴリ
前日比
出動
生活まとめ
(19)
ナース
利息
殺して
済ま
素早く
丈夫
防寒
ご宴会
行ってみた
喪
shi
川島
IB
パナソニック
発熱
AWS
に関しまして
値下がり
るようなもん
酸化
この作品
隠れ家
─
遭難
宝島社
から選択
懲役
近づく
に係る部分に限る
を務め
カ所
お届け先
お渡し
冷めた
ヘタ
食べログ
言います
公表します
が期待できる
報道機関
描け
orz
マンガ家
楽しみたい
じゃないかな
山東
間男
届かない
配合
東部
橋本環奈
年春
ゆるゆる
参考になった
奥様
武力
最速
ブラック企業
FT
彡
人の子ども
置き換え
Pro
細かな
だったこと
水戸
を有効に
0°
簡単に作れる
ちゃいました
ご挨拶
中高生
▁37.
付加価値
ine
アスクル
縄
隠れて
期間内に
敷金
壊れて
国民年金
ライトノベル
その内容の正確性
恐れ入りますが
を届け
報じられ
お顔
▁この度は
と言われている
とっくに
葉っぱ
ガシ
ロク
それ以外の
スマホ版
淡路島
同窓会
お持ちでない方
軽作業
平均株価の著作権は
MP
瀬戸
取り扱う
本人確認
報告会
常連
精神的
お手数
量産
大谷
ノミネート
敦
今頃
が無かった
ドット
北欧インテリア
を通じた
選ば
ものすごい
同伴
コント
ワシ
投資の勧誘を目的と
黒字
お世話になって
任務
シチュー
源泉徴収
サウナ
良質な
は異なります
日以上
ゲス
大卒
が予想され
に関するご質問
考えられない
ショコラ
登録されている
相談会
試乗
作ろう
下さって
花粉症
追求
地上波
ことのない
それはそれで
やっています
モロ
NJSS
えのき
象
上手な
仮名
大正
を与えた
誘われ
セロリ
車線
キノコ
次の各号に掲げる
自然薯
兄貴
歩け
が悪かった
依
こまめ
▁最後まで読んで頂き
淡々と
生ハム
インカム
叶
決算発表
▁カーコン
お一人様
カバン
有機
搾取
</
る事態に
借入
を探る
強盗
町長
中傷
産休
リベラル
そっと
改憲
安藤
もんじゃない
塩昆布
経ち
精密
ない理由
3,000
をご確認の上
伝授
マリネ
を挙げて
高くなる
ワーカー
劇的に
閉じ込め
中堅
もおかしくない
寸前
をお知らせします
気づけ
第六号
ゆずぽん
を信じて
ッテ
疲れる
積立投資
都民
分裂
が届いた
固く
ガレージ
キャッシング
コンテナ
裏切り
日々のこと
別人
何してるの
という事実
あわせ
(31)
ご記入ください
第三十七条
花束
を呼ぶ
タニ
サミット
隻
茶色
かなあ
させていただいて
非表示
私にとって
腹筋
減額
だけどね
放射性物質
▁ヘイリー
名古屋証券取引所
するものとします
配備
許容
加入者
に迫る
高山
に最適
やりがい
ドラム
規
呼んだ
したい場合は
待ち合わせ
家庭用
やってない
正確
はあるのか
美容室
促
を取り扱う
見本
待望の
を伴う
お聞き
パクチー
故郷
▁36.
くさい
ではないので
減速
跳ね
ご覧になって
お客さまに
裏面
かからない
は無料です
片隅に
気の毒
努め
DO
佐野
上値
旭
麹
SDGs
九州北部豪雨
コンソメ
長文
1～2
いただけたら
とっとり
不登校
住民票
前のページ
ホームセンター
んやな
ゲージ
やみつき
史上初の
握る
品質管理
機動
聞かない
ポーランド
コマンド
意外
チョウ
泣け
ウェット
目指せ
ie
IL
成功する
ありがちな
情報サービス
茜
ウエア
配信開始
和牛
(38)
新感覚
なぁ太
大嫌い
は主に
何もかも
ご意見ボックス
電機
地味に
エンジェル
輝き
塗って
乗っ取
都知事
リトル
低迷
煽
藤井
適量
百九十
されなかった
錦
すなわち
エンターテインメント
スゴイ
叫んで
よさそう
キャンディ
▁そう思わない
金融政策
法令等
道府県
苦しみ
全米
アウター
伏せ
地球温暖化
情けない
活動報告
参考になる
賞味期限
雑記
ネットでレンタル
コさん
一転
ごめんね
カウンセリング
集英社
特産品
伊達市
合理的な
一貫して
失業
トキ
インディ
入力した
売れて
入札情報
今シーズン
寂
織田
侍
クイック
薬剤師
教訓
歩道
検討会
殺した
してみたら
SB
ロープ
ご入会
隊員
良いこと
是
ってしまいました
特権
で購入した
アンケート調査
千歳
なかったのに
ロビー
倍率
ないからな
炊飯器
麺類
フランスの
働いた
理子
を削除して
リプ
告示
▁バフェット太郎
ステンレス
謹
▁購入金額の
三つ葉
とは思わない
者たち
自撮り
金融緩和
武士
ab
コラーゲン
駿
みりん
遺跡
ne
地面
急いで
など様々な
をご覧いただけます
しておけば
経った
ick
たまには
に聞いた
受付時間
(2017
韓国マスコミ
失われた
おめ
ピッチ
お使いのブラウザ
回想
キリン
のいずれかに該当する
年会費
栓
おしゃべり
惹かれ
宜しくお願いします
効いて
詰まった
離婚した
ご利用案内
ニュースをもっと見る
流行って
吊り
前半戦
子持ち
過去最高
ふじ
賊
医療機器
小豆
守って
旋
稿
▁本ホームページ
の数々
敗北
▁エマ
山梨
日比谷
役に立たなかった
大変だった
証券取引等監視委員会
前作
防水
Exp
そうそう
を思い出す
代用
待た
入力された
を残し
テレビ朝日
▁35.
とは言えない
希望者
保険契約
注文住宅
月末まで
ストーブ
驚異の
お買い上げ
いいよね
上空
文献
▁サイトについて
納め
通訳
を参照してください
たまこ
外国銀行
日本最大級の
金正恩
妨げ
授
第二十六条
去る
ダイビング
近郊
は基本的に
事後
湧
真面目
爺
憂
包括
どっ
山口県
CF
ものであること
のは当たり前
暮
面会
万円以下の
使おう
正式に
人それぞれ
結婚相談所
運ぶ
請
演習
個人情報の取扱い
カラス
好きだけど
できごと
号に規定する
呆
伺い
と言われています
集落
動員
拾って
と言うか
なんでこんな
旅客
主義者
おそロシ庵
飛ばして
ナカ
練り
(34)
なってしまった
反撃
燃や
学べ
那覇
蓄
市町村民税
において公開されている情報
雨も滴る良い
運搬
知りません
貨
クソゲー
は無かった
ウォール
むしゃなび
▁この日は
藤原
愛される
ダイバー
知ってた
した場合には
回答いろいろ
二十三
製品名
を見れば
歳未満の
が終わる
煎
筈
声かけ
を含みます
ないため
求められています
ぐん
ore
なんなの
満喫
食べれ
持った
展覧会
笑ってはいけない
坊主
熟成
ソテー
次のページ
待った
胆
近藤
がつかない
リリー
凡
前項の規定による
道の駅等を拠点とした自動運転
西区
連想
ロイド
気を付けて
ワークマン
最新版
取れた
泣ける
170
情緒
対面
韓国語
物理
したうえで
道徳
自分でも
パイプ
投資家の皆様へ
受け取った
を思い出した
こわ
ひっそり
バード
後援
はじめた
詰めて
すれば良い
笠
領域の一次診療
▁中山間地域における
を追う
眠る
を広げて
まっている
ステキな
を占める
撃ち
人柄
受益者
無制限
あっという間
ごちそうさま
常勤
左派
超える
効率よく
みんかぶ不動産
見つかって
多くて
続けてきた
を望む
申し上げ
胎
奇妙な
見守る
ふみ
炭酸
オロ
日本全国
座る
壊れた
中川
比べる
そぼろ
どうなん
欲求
SK
つなぎ
立図書館
よなぁ
変更について
ペンギン
濱
すでに削除されてい
ブログ更新
小室
欲しいもの
一部地域
家畜
出来れば
得られた
んじゃう
有難うございます
現況
してはいけない
メーター
▁つーか
お問合せ先
戦艦
聞かせて
爽やかな
してくださった
成熟
の規定による改正後の
培った
殺される
▁まめこの
ヶ月前
アム
こないだ
後期
ッポ
下記より
のご利用方法
仕切り
サンドイッチ
りょう
ドール
ギョ
▁ニュース星
リーズ
思うこと
出てた
ページはこちら
だけじゃ
拒絶
として活動
破り
はてなブックマーク
節分
真夏
裁量
斜
和歌山県
此
安楽死
に支障
ベア
つぼ
輸出規制
見守って
の設定方法
マッシュルーム
募集要項
災害ボランティアセンター
精算
ファイター
うんこ
商品ページ
花粉
技術力
秒後に
興味ある
ダラダラ
バーベキュー
一律
占領
朝鮮戦争
暮らしている
合える
アゴ
嫌なら
んじ
きょうだい
値引き
▁ではでは
に変える
太陽光発電
ご褒美
疹
架空
を下げる
体験記
状況により
過失
つくった
つもりだった
に参加しています
会話泥棒
ベージュ
哀れ
ブログ村
(2016
ボランティア活動
をまとめました
なのね
仮面
に関するすべての決定は
キャッシュバック
あんしん
気持ちいい
良くなる
デキ
時現在
見てください
クリスマスケーキ
双子を授かっちゃいましたヨ
▁再読み込み
HR
著名人
本当にありがとうございました
ix
変わりました
栄養士
捕まえ
が発生した場合
を希望する
ことが重要
味わえ
ほのぼの
渇
両手
決定した
ウォーズエピソード
をメインに
消費増税
再発行
ボーダー
が行われる
のある暮らし
ぜん
藤田
とのことです
(>_<)
エンターテイメント
転載を禁じます
基地外
もあれば
電子錠
町田
横山
止まって
医療法人
第二十八条
娯楽
メカニズム
叫
選任
いきたいと思います
いわて
▁ご指定の
の一環として
痛いニュース
曲げ
共同研究
簡単だけど
美肌
何十
WW
昭和三十
ほしかった
について教えてください
さくらんぼ
それは私が
少人数
アクセント
配属
びき
をいいます
していただきます
医学部
単身
切れない
を着て
外資系
カジノ
訴求
▁リクルートグループ
▁割引クーポン
光る
スイ
ハブ
天気予報
小山
頂点
通算
千万
語学
ようにしています
にゃんこ
が始まって
曹
癌
返答
館内
イジング
コーティング
割安
bi
ちゃダメ
と思っております
合格者
ネクスト
閣僚
スコールちゃんねる
日刊
なんば
サク
公社
通じ
豚汁
営業利益
届け出
ニコニコ動画
友達登録をお願いします
関連法規
手口
果実
日経平均は
^*)
セラ
切り干し大根
通った
ダサい
▁無料試し読み
高齢化
をご希望の方は
ソレ
動画広告
背後
油断
許せ
第百六十
下町
みなと
贈り
炊き込みご飯
及び情報提供者は一切の責任を負い
躊
印鑑
建設工事
石垣
食べたら
タム
って意味
童貞
備蓄
してやる
消去
招集
みなみ
対象商品
気にせず
大いに
っしょ
萎
ぜんぜん
転居
HDD
三陸
二人暮らし
暮らせる
制作実績
▁電通の
In
販売開始
止まら
いたずら
好きじゃない
▁くらしの情報
のテーマは
ドキュメンタリー
ベーシック
言っていた
京アニ
拾った
その間
食べてる
何よりも
チャーシュー
団地
安心安全
キャンドル
個体
▁よく読まれている記事
雑学
ボタンをクリックしてください
石原
の象徴
打ち切り
喫茶
を見せた
呑
有害
通す
ペッパー
コスト削減
と思うんです
される場合があります
怪談
扱われ
きています
を集めた
甘えん坊
イージス
俺ら
浮かぶ
赤十字
反動
グロー
以下のような
フィード
話しかけ
内訳
エクスプレス
隣国
気もする
原田
子孫
無双
ご利用下さい
福井県
コメントなどは
繰
疫
に掲載された
りやすい
設けられ
機能性
ことがあった
ヒー
した際に
を表す
を禁じます
捨てられ
ミドル
絶滅危惧種
クリスタル
▁ログインする
使い分け
道路交通
艦これ
祈り
さっ
たくあん
していれば
本文へ移動します
原作者
誰だ
みたいですね
年俸
税務署
逃亡
かせた
名言
お申し込みください
頂ければ
いっそ
言わん
新婦
オーストリア
ハディッド
トリートメント
ないでください
もうひとつ
並びに附則
いただきまして
暑く
鳴き声
詰める
本家
やらせて
われている
暗号
行える
そうなので
ような気がします
分かってる
イム
▁こんな人
ジブリ
探検
アット
やむを得ない
投資一般に関する情報提供を目的と
▁38.
菓
ような感じ
里芋
ご案内します
cc
売れた
pe
データ入力
おかん
ユナイテッド
佑
ムカつく
貯めた
遠方
お引越し
テレ東
くれよ
磐
ブーツ
数回
を扱う
総合的な
屈指の
提供を受けています
ウォーキング
旦那様
ヒゲ
ラクラク
ミステリ
甘味
風船
慌てて
幼稚
売れてる
に向けた取組
商品やサービス
達成方法
スッ
▁著書に
強制連行
ゴロゴロ
思えば
分別
大門
意味がある
Mo
できてない
片方
慈
抜粋
はコチラから
感謝祭
役者
ベンチャー企業
後藤
安価
に決まってる
反抗期
多様化
翌月
大きかった
幼馴染
稼
軍人
2002
進んでいる
俗
書き込んで
をめぐって
ならともかく
付いている
ana
院長
数千
頂きたい
軽井沢
経路
機会がありましたら
拠出
信仰
シカゴ
に着手
早稲田
培
圧勝
需
実情
貞
😃
僕も
この恋
を生かし
ジェル
避けて
出来ること
いたからだった
知らない人
よそ
浄
させられた
コーデでお出かけ
も多数
ほうが良い
望み
おしらせ
ステート
春日
させよう
お仕事のご依頼は
ご自身で
立派
▁読み込み中
低価格
通路
マイナー
▁提携サービス
驚いて
可愛さ
頼んだ
玲
ノルウェー
カンファレンス
ぽかぽかびより
授乳
帳簿
を守るために
ログインが必要です
ひょう
慣れた
陰キャ
経済成長
著作
獄
お返し
失格
お店を探す
会話を奪って
ではありますが
都度
存続
yo
ヤマト
寝た
を無視して
かったら
責任を負
呉
コンシェルジュ
顔面
の用に供する
▁メニューを飛ばして本文へ
内閣府令で定める
東京都内
駅まで
唱え
工具
特設
弾圧
試してみた
im
の手引き
ふっ
纏
主菜
▁この記事が気に入ったら
を軸に
位置情報
トーマス
和えるだけ
リピーター
が減る
ポイントが貯まる
きった
定休日
必要事項
丸出し
救急車
互
照り焼き
減らせ
テレビ東京
考えず
情報をお届けする
アトリエ
ワイドショー
すっきり暮らす
ってなに
丸山
一族
耐熱
あると思います
こと間違いなし
リフレッシュ
文芸
世界中に
小豆島
東電
喋り
隠蔽
上回る
有識者
スカウト
...」→
にほんブログ村
甘くて
▁しかしながら
みずほ銀行
管轄
及び住所又は居所
をお任せします
極め
ポケ
と思いつつ
八百
本ウェブサイト
向かった
出せば
ピカチュウ
は無口な人
使用料
お読みください
見つけて
タトゥー
TM
パートナーズ
ub
前進
捻
ひきこもり
見える化
なんだなと思っていた
輔
重版
タックル
配管
意思決定
更新しました
をつくって
▁受診される場合は
お店です
助っ人
同条第二項
サービスの利用
モト
遭遇
本業
(`
作っている
互いに
僕たち
による被害
お薬
尽くす
別紙様式
イエロー
ダイバーシティ
意味ない
に関わらず
GS
ひょ
はてなブログをはじめる
を提供します
訪れて
産んだ
担い手
より高い
ご招待
ソファー
格付け
逃走
置き場
緊急時
見えてくる
面白そう
することなく
逸品
ドバイ
▁39.
相次ぐ
新入社員
プレッシャー
副作用
デレ
シード
着陸
園児
純利益
を満た
の著作権は
ご存知ですか
を通じ
ことを目的として
大人になって
中高年
運転免許
を紹介しています
参りました
良いのか
チェア
ショナル
を保つ
ウーマン
すばらしい
慣れない
重要事項
通商
輸
有効活用
ページを表示
恐喝
蟹
黒毛和牛
競馬まとめ
託児
掛かり
近づけ
開けた
投資家の皆さま
社説
自分らしく
患者さん
鑑
ふさ
甥
飴
赴
moro
ないのですが
専門的な
(37)
付かない
この世界の
ニシ
火星
死亡した
合わせた
なでしこ
演劇
人種差別
ソックス
伝わり
集めた
数年後
第百四十
アンタ
尺
してる奴
寄生虫
買ってよかった
前項の規定により
接点
スピーチ
▁これにより
保証するものではありません
影響を与え
しかありません
のことなら
標準化
凶悪
▁もっとみる
無礼
利活用
必然
産品
無くなった
マーケ
トライアル
ではないでしょうか
僅か
大槌
状況等
女性向け
▁ご利用条件
商品取引所
任期
▁このゲームで遊ぶ
カクテル
感じない
立憲
ダック
メンツ
見てきた
クライアント様
祖国
開運
寝ている
手芸
刈り
果たす
統括
▁フッター
ゴキ
を開始します
タルト
賃貸物件
水面
▁自分だけの
魅
クレカ
聖地
驚くほど
もどる
姉さん
の特色
不透明
リットル
迄
ケチャップ
ジェネ
同意を得
地方税
ちゃい
妙な
始動
向き合い
家康
そろ
投げて
が含まれている
数が多い
ございましたら
たべ
UX
南区
10,000
させていただいた
出かける
周囲に
と考えられる
業種から探す
日に開催
きょ
リーマン
.2%
をお楽しみください
所長
放送局
意味がない
を殺す
▁いただいたご意見は
下方修正
一月一日
を促す
真面目な
ご本人様
参観
に資する
愛され
ヒアリング
オーバーウォッチ
フラット
苦しむ
を定める
とかそういう
アーサー
うちの猫
第二種
等の著作権
お受け
嬉しかったです
座談会
大韓民国
支那
インターンシップ
止まり
悩んだ
ネックレス
アスベスト
都市計画
提供される
終わりました
倍増
ワッ
厚み
庭園
TL
勇気凛りん
原子力発電所
万引き
感想まとめ
上がらない
見事な
盛岡
教えてくれた
に限って
所得の金額
倍上げ
長袖
マーケティング施策
お客様の個人情報
決定する
オオ
無料占い
アスペ
シリコン
起きている
ログインしてください
少額
出来高
含めて
(50)
.5%
ワザ
お見積もり
新技術
空白
ame
防火対象物
蜜
たように見せかける
履き
ふりがな
頭皮
統計データ
のオススメ記事
年連続で
ぞう
増す
(21)
独島
コケ
マリア
繋がる
どう見ても
アオ
日前まで
難病
タク
貌
体験版
ることなく
猟
承っております
▁この品種は
ニンテンドー
ウイグル
需給
公取委は
スタメン
運営している
読めます
中途
デッド
▁40.
▁学区から
不要な
メンテ
イッチ
∇
ヾ
が大量投入され
甥っ子
お車
セゾン
いいと思います
マイナビ
リポート
ランダム
お待ちください
定価を
気にならない
NGO
教習
土砂
追われ
個人情報の開示
働
腰痛
当面
天使な小悪魔たち
▁後で見る
外側
2003
コメ欄
殺された
でブラックフライデー
入れたら
栖
歩行者
序盤
China
歯ブラシ
になるために
BGM
んじゃないのか
たまる
典型的な
ベストセラー
て値引きし
課税期間
当該銀行
残酷
ものなの
お墓
官公庁オークション
養子
攻防
陸軍
復刻
運航
走った
ミラン
話せる
多くの方
っぱら
よねぇ
礼金
陛下
そのあと
繊維
ご不明な点
第七号
しつこい
フェン
に沿って
を維持する
▁現在の位置
悲しく
ストラップ
ぶどう
チャラ
アクセス数
いえば
お供え
♡♡
この限りでない
ひよ
室蘭
来ます
日現在
請求権
者の氏名
支援サービス
スマイル
を盛り上げ
海藻
未経験歓迎
尽
ウェル
見つかり
ダービー
中期
じゃねえか
お探しのページは一時的にアクセス
氷河期
⇔
まぐろ
→"
ハマる
松浦
を知っている
いられない
彰
マグネット
放射
ジジイ
応じ
インスタント
グラウンド
日テレ
我慢して
モチーフ
させるために
書評
に過ぎない
ジャイアン
民進党
Apple
スティーブ
しているのが
免許証
アベノミクス
国際的な
ものについては
▁お世話になっているサイト
食生活
年末年始を除く
を生む
挿入
すべく
断交
慰
愛用品
第三十三条
撫
義理
恐れがあります
個人的
叩かれて
Ch
に戻った
利下げ
利上げ
王様
も含む
長編
おはよう
の末路
まくってる
ai
辞書
日本マイクロソフト
産んで
良いですね
匹の猫
目が覚め
装飾
コツコツ
カーセンサー
事前に医療機関に
暫定
トイトレ
急騰
バージョンアップ
アラート
追放
北九州市
都合により
年次
潰す
アッシュ
きめ
見つけやすかったです
無印良品週間
さいたま
be
を実施しました
と認める
▁ご訪問ありがとうございます
フェイスブック
を意味する
替わり
PM
ホロ
真っ先に
固定資産
寄附金
持てる
中盤
支える
急速に
睡
の全部又は一部
映画化
♩
Pay
分から午後
仮説
制約
読まれ
怖すぎる
県外
うらやましい
コーポレーション
愛してる
スキンケア
補充
後ろから
司書
もどき
レバー
地図を見る
サッポロ
未解決事件
液晶
ごたえ
遥かに
飼い猫
締
楽になる
しかなかった
目指して
DY
かも知れません
打者
サキ
お世話になっている
ご入力ください
下さいませ
たいてい
内装
預かり
わけだし
知的財産権
雇用形態
消費税率
統制
国交
ことになり
円ショップ
は役に立ちましたか
お言葉
ということだ
を描いた漫画
密度
大津
ていない場合は
▁ブランドで絞り込む
金融商品の販売
省略
新橋
探し方
八幡
消費者庁
効率的な
下記の通り
応援しています
改正後の
法違反
つぎ
世論調査
▁ログインすると
管理人さん
遍
精子
亡くなって
水害
操作方法
自分のこと
改変
微笑
満たされ
名無しの修羅場
遠征
ものばかり
この問題
nk
球場
wwwwwwww
をグラフ化してみる
探索
グリー
皇室
テロリスト
気に入らない
驚きました
作ってみました
増やす
なくとも
清潔
見放題
槻
怯
円滑な
切断
憲法改正
ボルト
暗殺
引かれ
菜の花
欠かせません
奢
何人か
マロン
漁船
キュン
関係機関
インド人
決めました
に対して課する
▁わが街
薄切り
と答えた
インドア
▁・↑
構わない
酷かった
半数
▁そんな時
サイト構築
はちま起稿
廷
猫好きな名無しさん
持ってきて
ウンコ
リボ
[1]
縛り
未使用
言いたいこと
英会話
コミュ
二十四
お早めに
専修大学
アジ
徹底解説
を推進する
番屋
触って
プロダクション
共用
藩
ユーチューバー
▁下のボタンをクリック
話題になった
あるべき
ログミー
慰安婦像
湧いて
エサ
試す
単体
もっともっと
エコノミスト
下手くそ
エリアから検索
測量
ポーク
さあ
フラッシュ
行っておりません
誘拐
GYAO
通りすがり
過酷な
ドロー
追跡
参院選
殺人事件
速さ
カーダシアン
全く違う
浴室
▁本文へ移動
帰って来
▁はじめましての方は
をご利用いただく
言い出す
そういう意味
美味しいお店
ボスニア
みせ
6000
インサイト
高田
長寿
沿線から検索
食いしん坊
ムチ打ちの刑
標識
反面
阪急
レイヤー
来客
を示して
に記載された
▁42.
街道
社会問題
だとしたら
歌い
立川
人口減少
バスケット
競争力
であるため
▁はてなブログとは
鳴ら
はもちろんのこと
乗れ
お待ちしています
費用対効果
金融庁長官
遅刻
当てて
長距離
契約者
欠席
▁このページに関するお問い合わせ
壁紙
ポケマル
病床
火事
第一項第二号
公約
お客
なんだよなぁ
原発事故
do
切れて
マメ
施行日以後に
ファスナー
エジプト
を使っている
控
モルガン
お届けいたします
バスケ
の多くは
鉄板
蓮舫
強姦
杯目
麻酔
嫌がる
なんだろうけど
トリプル
加わり
ツキ
賃
これらの規定
アール
少なかった
してしまいます
地盤
ペルソナ
▁さてさて
お笑い芸人
巡る
適格
高騰
前年比
馬券
▁つー
and
お陰で
モノをいう
創業者
間違ってる
食べること
叩かれ
カリスマ
手荷物
んだもん
ムダ
との会話
いいかも
励まし
苦い
リアクション
この記事を読む
本拠地
試行錯誤
サイクリスト
フレームワーク
都市部
しか無い
献金
相棒
了承
激減
することが可能
持ってない
忍者
急落
指原
分譲
小売り
パワーアップ
見つけやすかった
ive
質の高い
冴
ブルーベリー
ガス機器
を示し
発祥
祝福
980
ジャンルから探す
を越えた
勤務先
IE
業務内容
GB
フィル
絵師
売られて
言ってくれ
手帖
との交流
長生き
実演
の言い分
旨み
効果がある
簡単レシピ
厚生労働大臣
奨
預貯金
だとしても
モネ
合わなかった
をサポートする
貶め
忙しく
子供部屋
十勝
なんていう
税別
スマートログイン
重大
1980
入所
挙句
くださってありがとうございます
童話
を踏まえて
ペリ
らなきゃ
申し立て
仕込み
確かな
貸して
芦
出てきます
ズラ
でーす
認められた
由紀
京阪
水泳
街中
今現在
開閉
更新中です
米研究
▁43.
ゴロ
▁ご利用方法
新婚
米大統領
▁通勤から
は一切保証されて
パトロール
ひろゆき
敷地内
ガイドブック
場合によっては
空室
遠藤
▁掲載に問題がある
▁てんきち母ちゃん
😍
経常利益
ございました
へ行った
SKE
枠組み
好きになる
たまねぎ
鉄板焼
―――
尻尾
を追求する
違反行為
だったのだ
ヶ所
込ま
ステキ
信頼性等を保証するものでは
ソリ
研修会
まっちゃん
▁他のプラン
咲いて
打たれ
にも使える
落書き
刻み
日本時間
格闘
あの頃
ページをご覧ください
突撃
人間性
芝居
一般競争入札
勘定
うかが
年間休日
を終えて
富津市
核兵器
主食
柴犬どんぐり
コメントは削除
▁44.
カルディ
眺めて
たかシェフ
マイホーム
卓上
昨夜
一時停止
ようとした
いわき
ズボン
セーブ
堪
あぼーん
ほしくない
ノルマ
濃度
挟んで
タイアップ
脳科学
タイガー
ピアス
しまうので
ルーツ
決まっている
条項
便り
甚
厚労省
を掲げ
ピーナッツ
ご宿泊
赤すぐ
利用方法
執着
無敵
ごまか
80%
いままで
内閣府令
燃
▲
▁嫌いは好き
晃
▁41.
キレイな
問題視
要約
神経質
本ページ
含
お困りの方
くろまめ
次期
フィナンシャル
取り締ま
させようと
ユニフォーム
正確性
コメントを見る
分担
何にも
宇野
と考えております
PeX
探訪
お姉ちゃん
タイル
運用状況
BOX
チャネル
煽って
万ドル
とんかつ
どっちか
に恵まれ
下ろし
ヅ
エクササイズ
譜
マレーシア
帰還
戦国
同号
ってことか
団結
こわい
スバル
威嚇
くれれば
絶好調
球磨川
もらえて
医療情報
楽しくて
を最大限に
売国奴
トマコ
(62)
出所
プーチン
絡
何となく
見てくれ
聞かれた
研究機関
2.5
どなたでも
篤
メッシ
セリアで
セキュリティ対策
飛躍
菊池
属国
賠償金
泣きながら
番手
狂った
視界
毅
記事やツイート
嗜好
太り
見ました
ニコちゃん
面白くない
絞って
眼科
見送り
再編
言わせ
飲み放題付
の削除依頼などありましたら
ダイナミック
お見舞い
横須賀
プロバイダ
でありながら
▁▶【
別物
に貢献する
協調
最優秀
があつた場合
右上
物理的
ソール
これほど
ブランク
キャンセル料
によるものであり
ダッシュ
唇
フリーター
気づいたら
ことばかり
石田
ページがみつかりません
アクセスしようとしたページ
と比べると
ホームレス
みたいだし
寧
スタイリッシュ
笹
家計簿
もみじ
介助
いいところ
大きくなる
させて頂く
ざまあ
Do
取り消
任命
ゲーム内
インフォ
寄生
感じたこと
降りて
災害復旧
追悼
(51)
在宅ワーク
モブ
取り上げて
売った
新製品
子宮
試用期間
過度な
称賛
河原
Ad
かき氷
無くなって
をぶつけ
産まれた
引っ張り
移り
コミュニケーションズ
アクセ
北米
枚セット
ig
孔
デフォルト
レーン
間違えた
リーフ
を起こした
将来的に
こちらをご覧ください
しなくていい
っちゃいます
他の国
入ってくる
オワコン
スコープ
◉
お過ごし
流動性
▁お気に入りお気に入りに
那須
を行わない
キレる
絡む
解決しない
助けてくれ
粘着
保存食
しちゃいます
商工
主たる
ユニークな
やらかして
Excel
に囲まれて
までの道のり
碑
続けられる
目的地
リボ払い
ことを確認
ご連絡下さい
をもたらし
こちらのページ
激辛
も豊富
寝かしつけ
を思い出して
ピリ辛
ネーション
ポトフ
まとめブログです
痩せる
うーん
▁コンテンツへスキップ
をお選びください
いい人
することを禁じます
楽しく拝見
遺言
候
直感
SIM
共同開発
石鹸
遡
無理矢理
画像及び動画
1991
ましょ
ブログランキングへ
車査定
地域社会
煩
指原莉乃
淘汰
当たらない
久々の
為替概況
かんじ
サントリー
東京タワー
展開している
がんばる
民度
暖かく
喜ば
強度
特定非営利活動法人
症候群
スタミナ
国会議長
ママン
▁当ブログで掲載
見てみたい
連投
を引き出す
共通点
しょっちゅう
ちゃんテナ
だと思っている
お問合せフォーム
したことない
同梱
上映会
弱点
げない
ショッピングモール
を認める
はじめてガイド
法施行令
政策金利
保温
ココロ
各地
止められ
サンタさん
いらっしゃいます
酒井
大手企業
羽生
まぶし
キャラメル
電気通信役務
だけじゃなくて
ONE
島根県
お品書き
エンタテインメント
再構築
そうだね
ましく
揉め
DLC
に収め
原監督
集中力
考えよう
らなくても
を受けました
補完
を考えている
メンバーシップ
クラウドサービス
の一員
面白くて
トーナメント
渓
落ち着く
カッコイイ
那覇市
全開
里親
後場
を増やし
更生
絶縁
投資判断
内容の確認
何なのか
スクープ
思い通りの
冷めて
乗客
通じる
▁そうなんです
ポジ
急上昇
予言
幻冬舎
▁ライブドアブログ忘年会
立ち寄り
見られない
余った
つまらん
から始める
ホラー映画
武藤
頑張ってください
持っていく
上がれ
口当たり
▁あんてなだぞい
コンプレックス
ぱん田ぱん太
附属
糾弾
小ネタ
切ない
セックス
わっぱ弁当
JAL
偽物
へ行こう
安打
サイコパス
の発注見通し
下痢
次に掲げる事項
▁家庭ちゃんねる
ますようお願いいたします
に触れる
おなか
相関
常備
ミルカ
吐く
ウサギ
ロッカー
子ども達
できるようになります
設け
を増やして
川越
ご利用中の
(28)
下がった
キラ
西口
ファミレス
あーさんの療育
人件費
母の日
琉球
あがり
封印
受け取って
終わってる
援
なんでしょうか
記載事項
増やして
んかい
下味
多発
あいのりブログ
Windows
不器用
ヘリコプター
妖精
整形外科
コンセント
気軽にメッセージください
自演
ボコ
少し前
ガム
止まる
その正確性
粛
上げてほしい記事などありましたら
暗証番号
ページが見つかりませんでした
らしくて
世界的な
吸って
させてもらって
でっかい
はいけません
ピタ
お二人
混合
同意する
不正行為
ホワイトチョコ
日本版スチュワードシップ
未経験者
間隔
お席
ポイ
電気通信事業
トンデモ
ああああ
総数
を記載した書面
イスラム教
コロコロ
▁カテゴリーから探す
企画提案
備品
浅い
PK
未成年者
までの期間
冷凍庫
[2]
紛れ
リーディング
半端
ec
ウラ
良いと思う
鯨
この府令
😭
爺さん
見つけにくかった
繰り広げられ
お泊り
そうじゃない
▁各種お手続き
ぶる速
敬意
されてしまった
フォームをご利用ください
埋ま
当たって
アース
特定商取引法に基づく表示
実態調査
iPad
スクエニ
リモコン
迷惑メール
乾杯
(^^;)
ゆうこ
行政情報
思ったこと
が止ま
訓
に関する事業計画通知
拙
▁著作権を侵害する
であって主務省令で定めるもの
の便利帳
活用事例
マーケター
広大な
開催地
晴らし
主席
食育
を活かして
おかし
chi
最高峰
久留米
評論家
福岡売上向上委員会
反省して
住友不動産
悲惨な
ボランティア募集
上乗せ
とは別に
へリンク
と思いながら
CV
意図は全くございません
責任を負いかねます
嗅
あああ
兄嫁
そう思って
蹴り
咲く
覚えた
安全管理
って言ったら
専有面積
のは事実
インフル
タワーマンション
責任ある
情報を掲載しています
お題
ショップを見る
デパート
農産物
親御さん
恩給
兵衛
クラシル
ないとダメ
圧迫
広告主様
先制
Me
どの程度
▁おすすめブログ
▁お客様インタビュー
あちら
父ちゃん
委託先
ログインはこちら
法則
だけではない
待
深田恭子
▁サイトの使い方
老け
家族になる
幕張
大募集
バレる
読んだよ
オーク
恐ろし
コロッケ
奨励
を楽しんでいます
ack
生産性向上
酒造
ございま
実用化
▁45.
大切なこと
個人情報の取扱いについて
荒川
シャープ
原発導入のシナリオ
抜か
同日前に
破産者マップ
頑固
に違反した
届き
町内
周年を迎え
お問合せください
不快な
論破
誤魔化
期末
相違
大学受験
わけではなく
オフィス訪問
第八号
椎
勤労
セクター
かねます
便秘
揃えて
ラテ
自衛
少量
ヒロシ
とは思わなかった
▁ポチッと応援
速く
カテゴリなしの
本町
断言
になっていました
接種
水切り
井上かなえオフィシャルブログ
東京大学
ey
銀行振込
を集めました
実施している
給油
大崎
取らない
応援お願いします
出来ず
一体何
霞
子出産編
討論
可愛すぎ
を備えた
第三十二条
って言われる
信託銀行
アナタ
諸島
連呼
に相当する額
にぴったりな
二人とも
かえって
ヂ
о
ベビメタ
⌒
港湾
を下回る
▁お気に入りリストに追加
滞
減益
になっていて
茶碗
いつもありがとうございます
萌
KDDI
西川
を目指した
倉敷
腐敗
踏んで
高岡
別冊
きゅう
1/4
日の丸
▁そういや
海底
妃
梁
カメラマン
ないまま
覚醒剤
偉大な
入籍
すごかった
卸売
ハマり
ate
行われていた
意見交換
明らかになった
こんにちわ
欄に掲げる
そそ
したらいい
溢れて
出稿
ミュー
持ち帰り
減らして
びっくりする
漂う
養育費
漫画を描
ぐるみ
ベンツ
チェックイン
弾道ミサイル
虜
転機
響き
東京都港区
断然
との相性
捧げ
史上最高
徳川
を落と
お探しのページが見つかりません
スタイリスト
できない状況にあるか
牙
大介
ええええええ
を見た人は
お召し上がりください
ue
歯医者
消防庁
損害保険
良さ
導入した
RPA
気になっていた
仮装
保湿
涼しい
ly
HI
生かす
マドリー
南シナ海
愛媛
(67)
に潜む
顕著
郵便番号
豊田
スライム
夫婦の日常
がん保険
バーチャル
投稿者の個人的見解
生えて
小島
人の心
駄目な
PTA
金融市場
もらえたら
活かせる
喜怒哀楽
▁このホームページについて
手伝って
月上旬
を否定する
2.0
緑色
▁お気に入りユーザー
取られる
辛く
工法
松尾
第百五十
晩御飯
すっごい
ブサイク
ミュージカル
気仙沼
を有効にする必要があります
火にかけ
表現の自由
支援者
なりすまし
配当利回り
One
ヘイトスピーチ
終了いたしました
名入れ
アイスクリーム
韓国企業
ロシア人
ホンマ
務め
暇つぶし
容易
パートナー企業
NZ
テーマパーク
にかかわらず
リッシュ
新興
場合もある
搬
にてご確認ください
リュ
▁今日のニュース
むね肉
されるべき
そうでない
春菊
バリバリ
食える
喋る
気付き
儲
コミット
→★
状況によって
自力で
和菓子
二十五
新郎
今さら
べつ
万全を期しておりますが
アブ
できなくて
眞
別記様式第
あさり
譲歩
の名店
テレ朝
本当にあった
振り返る
何時
ソラ
痕
▁記事の検索はこちら
契約締結前交付書面
会員向け
予備校
ふん
テンポ
ミック
定めた
男たち
▁コンバンミ
一例
柔道
突入
と思ってたら
冷戦
モア
セグメント
挿し
お隣
区画
医療従事者
使っています
サービス業
覗
切り口
婚約者
契
リノベーション
コカ
いいんだけど
アヒル
ストアー
ポイント還元
ビーム
南アフリカ
ヴェル
意見募集
推奨環境
インストラクター
▁大変お手数ですが
さよなら
News
産む
っていうのが
検索キーワード
お伺い
食べよう
人を殺
受入れ
考えてみる
教職員
GG
論理的
踏切
を抱いて
バニラ
給与等
度の高い
東京都渋谷区
ヴァイ
ポルトガル
定められた
食べていた
欲望
不十分
よく見る
に基づいた
気合
作っています
ねとらぼ
たこ焼き
明かした
重ねて
さわやか
知っていた
返品について
上場会社
になれない
価値がある
訳じゃない
そんなん
ペコ
していただいて
UFO
▁つくったよ
黄色い
ださり
▁よって
複
括
拾い
餓
▁当ブログを訪問してく
習近平
残された
アイヌ
どう思う
んだったら
アーム
とも言える
これくらい
▁最後まで読んでいただき
筑後川水系
畜
偽造
地理
ぽぽ
期待される
廊下
赤子
を有する者
当てはまる
企業のレシピ開発
コーディング
ことも多い
を生み
利用上の注意
したいのですが
させている
ジョジョ
やってきました
ホームラン
から始まった
塩分
拡
適用しない
ぽかぽか
列車で行こう
勝どき
流行語大賞
養殖
フィギュアスケート
応募者
を整える
年以上前
ヒール
改装
シャネル
留意
▁47.
被災した
思い出す
コモンズ
コーディネーター
あおり運転
塵
ガーリック
ご縁
御礼
サービスをご利用
役に立ちましたか
空中
大丈夫ですか
法等の一部を改正する法律
組員
オオカミ
併設
フィクション
どうですか
への挑戦
お味噌汁
ユキ
クリックする
焦点
相対
即決
参加申し込み
説明します
all
▁因みに
摩擦
青葉
止まらない
楽うま
ワイヤー
くださった方
を要する
選手たち
寝具
原価
県立
相続人
TSUTAYA
渦
辿
安心感
産まれて
納期限
繰り返す
作目
あんかけ
詳細ページ
結婚相手
選挙区
お花見
作動
▁買い物かご
問題のある
プレイス
有罪
無関心
じゅん
というのに
釜山
あがって
を目的としたものではありません
▁お茶の間映画館
ビフォーアフター
第八項
不利益
まじめ
BBA
とのコラボ
のが嫌
できるようになる
通っている
チート
予想通り
▁あなたにおすすめ
外す
煽る
弟子
ピック
国際映画祭
1/3
漏洩
紳士
供与
ものとみなす
SHI
を残して
中途採用
メリー
耐性
槽
やらかした
できるようになった
第二十九条
情報に誤り
ブライダル
毀
みたり
としか思えない
出て来
発生時
pt
嫌がって
終日
最優先
エッグ
鮮度
原宿
必至
ヒナ
フライト
際立つ
頻
焦げ
今こそ
魅せ
半端ない
慮
釘
Information
預かって
PG
▁在学生の
おいおい
各自
第七百
役務の提供
解任
感謝の気持ち
好転
営業マン
ムカ
思えない
せいぜい
すべてのコンテンツの無断
仰天
通告
やすくて
産経新聞
及ぼす
ハマサンス
Microsoft
われわれ
脱税
圧縮
踊る
こともない
みたいだな
支度
日本語版
上から目線
シワ
松本人志
峠
茅ヶ崎
軽減税率
学力
最新刊
盗み
▁46.
井戸
ばあちゃん
指輪
ちがい
通信講座
人質
かぼちゃん
▁すべて表示
深層
可決
未定
人見知り
暫く
労務
流石
建国
超えて
預金保険
英文
娘が言う
月以内に
背景色を変更する機能
綴っています
動物病院
二郎
退職所得
外野
祈
雇用統計
牛丼
その中で
』、『
ッシャー
〃
オンデマンド
に憧れて
其
鈴木大地
詰まり
想像以上に
敵対
メラ
地形
β
沙汰
莉
😂
悲鳴
街を作りたい
株主総会
の極意
いなければ
瞬
岩田
侵
ゴル
お持ちの
していたこと
再生可能エネルギー
で叶います
.+』
来ている
おむつ
をリニューアルしました
使わせて
払った
須田
防げ
一つ一つ
ジャニ
文春
そっか
ミュージシャン
生年月日
絶好の
皇帝
救え
購入できる
目的別
献
きゅ
立たせ
訪日外国人
ブーメラン
表参道
断食
挑む
即戦力
お困り
財源
する予定です
の悪さ
模様替え
そうだん
オーディション
掻
濁
プリンスホテル
〝
風花雪月
全滅
未婚
稼げ
の規定に基づく
元彼
ここ最近
どうこう
についてのお問合せ
差別化
院内
共催
パブリック
を控除した
見えてきた
お受け取り
に対する罰則の適用について
センチュリー
自粛
USB
積んで
お洒落な
秘話
難関
栃木
▁誕生日は
気力
といわれる
アイデム
仮面ライダー
作らない
ハンドクリーム
まとめ買い
園芸
空いた
連帯
右手
上級国民
ヒカル
を目標に
収まる
暮れ
ドヤ顔
記憶力がいい理由
資本市場
発着
突如
教えてあげ
貸与
施術
が発表され
退職金
考えていた
故意
払込
米韓
環境保全
遅滞なく
東洋経済新報社
▁以下この条において同じ
小さな平屋
助かります
サイバーセキュリティ
響く
のみ診療
電柱
ページが見つかりません
煮るだけ
シリアル
倍以上
登山ちゃんねる
異なります
繁殖
に転向した
僧
▁平素より
あらためて
請負
太鼓
経営戦略
婚約
兄妹
破る
作曲
増えました
画質
エロい
ヶ月後
区域内
呂
オペレーター
関わった
シンボル
読み物
ギャラ
朝日新聞デジタル
マツダ
戻ってきて
市街地
用事
あろう
措置を講じ
しつこく
イスラエル
梶
Investment
Services
幼い
わが国
壊れる
和室
悲惨
ことが大切
低減
交通安全
大輔
▁はてなブログをはじめよう
応援団
となっていた
強くて
書きます
貧乏人
を基準に
とは思うけど
デリシャス
掘りごたつ
次項
炭素
ベンダー
冬休み
記事へのコメント
介護施設
ワンルーム
チャイナ
真理
に達した
烏
をご確認のうえ
ならまだしも
に沿った
に専念
ブレンド
を迎えて
切手
激突
散策
過疎
まとめてみました
本部長
みようかな
戸田
お金持ち
1990
削る
レクサス
新曲
学習塾
十字
イラク
第二項の規定により
マニアック
すこし
穏やかな
舵
減税
被った
安全対策
起きたら
を発見した
オカメインコ
三国志
にわたる
伝説の鬼女
小児科
食中毒
マイクロソフト
信頼関係
二階
ぜひこちらも
の在り方
ホモ
徳島県
宝塚
行くべき
SUV
の提供を開始
スイカ
検討中
順調
いいですよね
時間半
IPO
の規定に基づき
黒豆
から身を守る
書き込む
ハンパない
工事及び業務の発注見通し公表
ホタテ
自由が丘
厚生年金
みてはいかがでしょうか
https
ありがた
▁小豆島って
イイネ
を確保するため
拒
シャンパーニュ
頬
特色
時間後
控えて
事業税
共存
▁てんきち母ちゃんちの
ast
は下記メールフォームか
スポンサードサーチ
▁ページが移動または削除された
冨
不祥事
気付く
▁JAPANID
若く
全く同じ
申し訳
原告
落札者
考えること
依存症
▁要は
甲信越
軍艦
診療科目
ハチ
週刊誌
使います
在留
やがった
魔法使い
お取扱い
辛かった
覚えてる
スタディ
sa
働き方モノ改革
憑
レッドカーペット
義姉
わが家
ホビー
個人事業主のお客さま
一丁目
トロン
出血
信州
▁具体的には
かまぼこ
わからなかった
してみましょう
譲渡会
真相
フォント
堤
エスカレーター
槍
躾
屈辱
キャッシュカード
ディスカウント
SRE
su
運営会社について
豪快
にもなって
味わって
捨てられない
会津
以下この項において
損傷
ぽい
エプロン
▁年末年始の営業の
粉もの
0.0
就職活動
LCC
テレワーク
そろえ
美容院
しまいそう
の取扱いについて
フェリー
ワンピ
敵国
付けられる
はんぺん
キュレーション
捕獲
処罰
手段として
なかつた
寄った
愚か
擦り
▁返信リツイートいいね
冤罪
皇后
ボイコット
に至った
の三第一項
初めて見た
死なない
IF
をダウンロードする
が設置され
のリンクから
囚
折り返し
情報を掲載
▁きっかけは
淀
に与える影響
個人情報の取り扱いについて
に会いに
年月日
もらうこと
駅伝
なんとかなる
年末調整
言うほど
漏
認められる
行ったこと
しておいた
蒸気
蝶
陵
曇り
来季
キャリー
中銀
滴
ういち
壱
😁
▁アナキン
爽快
メロディ
削除された可能性がございます
になりますように
出会って
役目
生じる
ピーター
にゅーもふ
主権
タワマン
▁参加申し込み受付中公有財産
アンティーク
旭川
心境
たたき
活き
元妻
ご応募ください
知りました
第四十一条
することが可能です
アスパラ
礼儀
留意事項
になってくる
許されない
の施行前にした行為
金儲け
一時期
徴
回路
をはじめとした
趣
治療費
と思っていたら
焦って
マスコット
若年層
をこよなく愛する
が終了したため
判別
期決算を発表
聞こえて
分野における
させていただく場合がございます
歯磨き
ドラゴンボール
▁詳細については
かと思いきや
想い出
錯
ジャガイモ
バナー広告
郵政
東京都千代田区
改札
行動規範
怒られる
陣営
オンリー
進められ
保健所
yu
下の子
に行った時
wwwwwwwww
合戦
正体
▁最新のスポーツ
聖地巡礼
ギル
強制的に
郡山
エヴァ
ヒトラー
民主党政権
農林水産省
中学受験
終え
祥
タチ
松坂
▁週刊はてなブログ
▁50.
くまもと
ニュースサイト
よくわからん
▁過去の記事
中国政府
平均値
腐った
達成感
EGroup
必要があると認めるときは
引越
アテ
香川県
ほんのり
引き受け
見たけど
遷移
だと思っています
の人気レシピ
偽り
専用ページ
幼少期
改ざん
進ちょく率
元嫁
海賊
せばいい
一部の機能が
演算
首里城火災
効果測定
迷う
金融商品取引業
お取り扱い
いただきたいと思います
チョロ
貴重
中国経済
降ろ
ハク
宜
目論見書
ヤフーショッピング
▁セレーナ
に満たない
パーフェクト
戻ってきた
と思ってたけど
圧倒
ベッキー
▁おまけに
断念
を創る
達成基準
歳の娘
ちがう
屁
数少ない
松岡
フィットネス
に飛びます
漏らし
を使用できません
しちゃいました
per
挙げた
デュー
電撃
読み替え
コスモ
セットアップ
西側
研究室
東口
退社
着実に
宴
ラクに楽しくなる
墜落
たとえば
アドベンチャー
滅亡
sc
70%
間違いなし
ムーン
慶應義塾
モビリティ
侵攻
▁サイトスコープ
もつ鍋
択
迷走
農林水産業
限られた
簡単にできる
市場見通し
印象に残
との関わり
白石
震源
地雷
文句言う
通期
進撃の巨人
宜しくお願い致します
標的
海外ドラマ
によって異なります
鎖
蜂
インターナショナル
コットン
足を運んで
キュウリ
無難
起こした
ns
昇給ありの求人
有料老人ホーム
寄贈
解凍
▁49.
▁メインメニュー
缶詰
服を着
木造
齋藤
お悩みの方
いつでもどこでも
人的補償
活動の紹介
均等
を組み合わせた
軽油
港区
水気を
書いてあった
法学部
吉祥寺
🙏
最下位
分かるけど
ライブドア忘年会
バレて
トークン
健康食品
武将
おおおお
してみます
地方自治体
入居者
発信しています
官邸
あったので
もらえた
晩ご飯
目立ち
賛助会員
のお問い合わせに関しましては
電気通信設備
▁今日の人気記事
休む
ヤシ
仙台市
アクセスランキング
受信料
ご案内いたします
爽やか
戦線
貢
なんちゃっ亭
バドミントン
😋
が無効のため
エコノミー
久保建英
を通じた社会貢献活動
株式会社ビープラウド
ほぼ毎日
寄る
狭く
アイロン
プライス
大切です
法の一部を改正する法律
協業
持ち物
労力
ケーション
デカイ
欠点
弾劾
頑張ろう
スクランブル
専業
近づき
取り揃え
言っちゃ
スワップポイント
アタック
ゆるメシ
くつろぎ
とみられ
学歴不問
的かつ
(45)
聞かれる
に反する
鯉
がもたらす
歩み値
いっくん
ドイツ人
を過ご
カッター
可愛らしい
サザエ
外相
いきいき
ワクワクする
契約の締結
試作
とおもう
を目的に
を取り戻し
勝ち組
明細書
路面
今の日本
新着順
❣
無添加
気遣い
プロパガンダ
すくパラ倶楽部
補正予算
信託報酬
スマートフォンアプリ
漬物
代後半
他人事
遅れた
エリンギ
備忘録
更新通知を受け取れます
LPGA
込まない
KBS
乗ってる
みじん切り
ウクライナ
パブリシティ
遊ぼう
絶妙な
買ってきて
出ています
特定商取引法
中華風
お手数をおかけしますが
MUJI
在日韓国人
ぜんぶ
会社案内
八王子
立候補
本命
内容を確認
最長
竹内
調和
駄目だ
ウォ
本体価格
うず
社畜
却下
▁料理が苦手な方に
イギリス人
据え置き
ラオス
絞込み
お出掛け
々しく
近寄
天神
になっており
商品券
ほけん
新潮文庫
ルンバ
芸能ネタ
▁やる夫
述べた
枯れ
思ったけど
出来てる
べきではない
えぇ
お仕事募集
お洒落
獲得できます
わかってない
成し遂げ
お絵かき
JTB
迷惑をかけ
所有権
食べられない
築年数
週間前
会員規約
していきたいと思います
地球上
▁以下この項において同じ
吟
苛
惣菜
貴社
滅ぼ
海峡
建設企業
浄化
慌て
に提出しなければならない
ゆるキャラ
ハンズ
騎
レバレッジ
即位礼正殿の儀
教諭
平凡
を聞いてみた
決め手
原材料
大概
分かりました
お宝
還
格闘技
叶う
増強
施工管理
2,3
極上
伐
ご利用いただけない
わたくし
直轄
何気ない
を再逮捕
木材
固い
サクッと
さまざま
様子見
石川県
が出ます
溺
仔
痔
媒介
直面する
別れる
お手本
虐
ご入金
冬季
狙う
ものなのか
優先順位
かんたん決済
終戦
救世主
辣
TOEIC
情報をお届けしています
覇権
効能
断捨離シンプル
元に戻
受理
ゴルフ場
好き嫌い
有給
お過ごしください
魯肉飯
容赦
クローバー
従軍慰安婦
まきりえこ
祝いの花
おやすみ
ber
と思い込んで
働いてる
いいんじゃね
中央銀行
島根
同じ事
斎
に情報提供する
線路
ビュッフェ
握手会
がん検診
厚く
脳みそ
代男性
用具
柳田史太
乗用車
木村拓哉
の中にある
土壌
福山
99.
強風
個人情報保護法
ba
株式の評価
しておきたい
シンプルな暮らし
マスメディア
から脱却
暁
耶
きゃりーぱみゅぱみゅ
.1%
醜
無言
創り
▁ご利用の流れ
飛ばす
サラダ油
別表第一
が行われました
ite
陰謀
タブー
すぐトク利用
媚び
売れている
駆除
流木
捉える
フラグ
高性能
SEM
苦しんで
畜産
gt
∟
レコメンド
しばしば
自然環境
ステッカー
強行
らしき
への想い
逃す
マーケティング戦略
四角
了
直ぐに
商品の詳細を見る
瀧
援護
馴れ初め
の情報はあくまでも
をすべて見る
糖質制限
是正
調べたら
中国共産党
それ以降
うまみ
わからず
手足
衝
Dr
は不要です
んじゃん
取ろう
タマネギ
に相当する金額
できない場合があります
タイムライン
日の前日
戒
▁ご指定のページは
アルゴノーツ
振る舞い
キャンドゥ
思ったより
前々
共同利用
祈って
が確認され
為替ヘッジあり
少なくて
授与
増進
増やせ
先週末
失敗しない
モノレール
モラル
五島
▁その上で
対象外となります
クリックお願いします
開示等
気象予報士
衆議院
〟
窃盗
アザラシ
専攻
相続税
審査員
ぱぱ
ものをいう
初登場
を記念して
経験値
歩いている
ちび子
山手線
のは間違いない
を利用している
座敷
圧巻
を防ぐため
教えて下さい
付帯
経産省
シドニー
ウェブサイトにするために
ふしぎ
まとも
(42)
ポンコツ
潜入
朗読
為替レート
▁48.
までご連絡ください
んかった
;;
▁無料で読む
が抱える
作業員
困らない
ゲーセン
公文書
お支払方法
施行規則
を踏まえた
レーズン
アウトブレイン
恐竜
肥料
90%
サービスとの比較
防災訓練
多いけど
口当たり実績分配金
雛
サイバーマンデー
の野望
を用いる
カラフルな
▁確認後
思わん
スリッパ
第一項及び第二項
合いびき肉
見られて
異常者
▁51.
リモート
三昧
叔母
逆ギレ
影響を与える
儀式
分程度
シャンパン
歩行
見られた
強敵
賃貸マンション
▁今週の人気
シチュエーション
罵倒
品揃え
をお勧めします
見られます
豊かにする
すげぇ
五郎
される方へ
鳴り
言っちゃう
頒布
二酸化炭素
腺
最寄り駅
スーツケース
土台
最小
にかかわる
おはようございます
ジャージ
1999
への委任
女子大生
ストラテジ
▁そうすると
社会貢献活動
契約締結
図面
払戻し
起きない
題材
突っ込み
ちょっと違う
工藤
ご提出
彫り
▁イケア
慢性
んぱ
ることがありますが
かしこ
に寄与する
ご安心ください
月豪雨
即座に
口頭
に類する
主観
ヨミ
貰
入社後
良かったのに
ACL
情弱
火が通
気づかない
ミシン
書こう
開催状況
セレ
利益相反管理方針の概要
同条第一項
熊谷
電線
盗んだ
丁寧
の規定の適用を受ける
聡
プラグイン
ルーター
フェンス
アラフォー主婦
向く
賞品
モノづくり
愛想
祈る
社協
いただけません
兄ちゃん
かぼす
軍団
宇佐美
ローストビーフ
ロバート
猛暑
ユニーク
短編
いただけて
ニオイ
おもい
▁公金支払い
サヨナラ
苦悩
優れている
とみなして
補佐
触る
今の時代
続けています
をテーマにした
が適用されます
賢く
塗る
が間違っている可能性があります
魅了
元カノ
▁使い方ガイド
ローラー
スペシャリスト
ティファニー
訃報
急激に
抑止
カタカナ
こっちゃ
査定会社
誘って
音響
模型
レズビアン
三姉妹
じゃ無い
客観的に
ウェルカム
YOME
を身につける
活力
柚
ファントム
臓器
(35)
書房
アカデミー賞
伊東
目的のページをお探しください
高配当
カモ
を奪う
口座振替
守護
なさすぎ
からのアクセス
▁ご意見ありがとうございました
民間企業
敢
決戦
回すまいるフォトギャラリー
メンヘラ
淵
ユーモア
成田空港
怖くない
ポツ
前回の記事
臓
に関する注意事項
俺達
年越し
食べられます
すすむ
ペンシル
時頃
のみとなります
詐欺師
時間を過ご
性犯罪
バスタオル
転校
どこの国
何事も
に定めるもののほか
ヘッダー
チーズケーキ
役職
掛かって
鳩
速報値
松田
オンラインゲーム
体内
ご負担いただく費用
メルセデス
在庫切れのため
真逆
がっかり
と思われて
訪ねて
家事貯金
節電
終わらない
ウナギ
教科
とても良い
マフィー
深め
ちいさな
ぽっちゃり
貸し出し
ひつじ
祈願
洗面台
アニマル
おやじ
詰め替え
そうとする
青空
を行なって
回帰
膨らませ
霞が関
サイバーエージェント
を実現するための
Part
ガジェット通信
前菜
のは確か
わせた
動的
涼しく
Ciel
傲慢
ボーン
レンジャー
柴崎
かわいく
をもっとみる
勧誘方針
身体障害者
優勢
劇団
ジーニー
すくすく
ちょこちょこ
エンジニアをつなぐ
レーター
フロム
逮捕される
違え
先行き
ナムル
ありがたく
見やすい
オピニオン
ビジネスパーソン
▁指定されたページは存在しません
の議事概要について
月曜日から金曜日
寝かせ
気質
クリーナー
に匹敵
小麦
ポップアップ
強豪
フェイクニュース
ゴーヤ
金運
惨め
取り入れて
審査会
瞑想
凌
唖然
を手がける
ハザードマップ
公的年金
仕方なく
ji
白黒
日の翌日
蛍
▁あやせ
前払い
二十二
信念
▁52.
口の中
著しい
洞窟
今日この頃
ソムリエ
The
セレクション
▁おうちご飯
ff
駅直結
そういえば
立ち位置
データ活用
卓球
無料でお店を開こう
ツーリズム
つかう
概ね
ペースト
クリスマスツリー
権威
見つける
更新の励みに
謳
廻
辺野古
千代
御社
こちらの記事
引渡し
に限ります
▁いー
あげよう
さやか
プリンセス
二輪車
に達する
▁いま話題の
銭湯
増設
忘れ物
多機能
少女漫画
振動
取り組んでいる
スパゲッティ
椿
主題歌
お薦め
ヵ
湿度
を分析し
活躍できる
冷蔵
カタチ
言おう
とは限らない
飢
労災
人物名販売
義弟
注意してください
意見交換会
問われ
忘れられない
リーグ戦
リストに追加
翻
占拠
尖閣
スローガン
▁法人向けサービス
初戦
いつも通り
やってきて
が変更された
狙われ
ゼルダ
合っている
っつー
▁54.
大半が
と同じくらい
拳銃
いわき市
墓地
返礼品
為替ヘッジなし
お電話ください
偽装
高級感
増えていく
ベロ
上がっている
よかったのに
想像力
雀
今日のランダム画像
コンサルティングファーム
ファーウェイ
木製
ランドセル
大人数
体育館
ひどく
別居
▁店舗を探す
早稲田大学
茸
▁スポーツナビの
若頭
を招く
やさしく
探査
精一杯
売れ筋
ワンプレート
花火大会
割り当て
スマートフォン向け
押入れ
気になる方は
エイト
披露宴
艦隊
専任
を守るため
お庭
一覧ページへ
▁くま母
から解放され
落札後
(≧∇≦)
紅白歌合戦
見栄え
功績
お花畑
クーラー
ゴリラ
ご連絡いたします
ゴッド
企
お馴染み
水筒
見れない
ふりかけ
ミャンマー
▁雨雲の動き
写真はイメージです
を襲う
極端に
ダンジョン
知られている
トークショー
貸付け
サービスを提供する
メディカル
粋
BPO
キャピタル
訊
BtoB
正当化
念願の
沿革
ズーム
コック
ファクター
させて頂いております
ねこメモ
ホース
残業代
自営業
訴えて
救援隊
バーナー
最期
上京
様子を見
第二新卒歓迎
サウジアラビア
▁中古一戸建て
▁るるぶトラベルプラン
残業少なめ
ワンちゃん
分野から探す
▁その為
考えるべき
書ける
極右
ワラ
艶
火病
答弁
別荘
失望
支持者
不正利用
お小遣い
イレブン
傷病
検索条件を保存し
リアリティ
ことが可能です
スタッフ募集
間に合う
位置づけ
コラム執筆
地域住民
駅前店
駆けつけ
信頼度
┗
胴
佐世保
懇親会
回地域実験協議会を開催します
◯◯
未開
伝送
***
論争
バトン
買っちゃ
代々木
パズー
代打
est
下段
甘酢
安否
試算
防衛省
▁最新の情報は
高温
暗黒
不使用
ザック
ウィリアム
▁小太郎ぶろぐ
葱
且つ
桜えび
▁57.
発砲
不況
配列
曲げわっぱ
オーブン料理
汚部屋
受賞者
高度化
ちょん
▁53.
ひろば
金髪
ベータ
差額
行ってみたい
に要する費用
エンディング
空席
注目されている
クッソ
食の安全
必要な事項
ページは存在しないか
自己負担
出掛け
で知られる
ファスト
サバイバル
悦
たどり着いた
ネトゲ
呼ばわり
代謝
相次いで
わかっている
▁58.
テクノ
怒鳴り
ルックス
オウム
同盟国
人脈
醜い
提
さわむらむらこの
を拠点とした自動運転サービス第
オーディエンス
船橋
を除いて
さえあれば
まんがたり
捨てられた
を叶える
各店舗
笑いながら
規範
インフルエンサー
うんざり
モザイク
朋
祇園
プッシュ
下さり
プッシュ通知
母子家庭
落とし穴
嫌味
が入ります
は将来的
お申し込み方法
公益財団法人
コタツ
コロンビア
にふさわしい
金柑
態勢
豆板醤
を失って
見つけられ
向かって
補修
MIX
▁55.
を発表しました
ホリエモン
SurveyMonkey
極端な
アイツ
つづき
ほろ
Wii
造形
衝動
近未来
ゼラチン
に乗せて
の規定を適用する
グダグダ
お買いもの
メニューを開く
波紋
牽引
サンダル
サングラス
確認画面
PER
絡ま
群れ
去って
高校時代
▁九州ブロックにおける
エンゲージメント
多種多様な
発言小町
ファイナル
ディーゼル
望ましい
ヒーローズ
に関する協定
駆け込み
重なる
WTO
長期金利
おてんば娘編
第二次世界大戦
重症
洗顔
女性専用
まつげ
リア充
防火
ハンドメイドマルシェ
に適合する
▁事業者の方へ
ニッセイ
を担って
気楽に
及び情報提供者に帰属し
三十一
自営
遊べ
断乳
キラー
日替わり
文化祭
小笠原
▁社会保険加入に積極的に取り組む
婚姻
しみじみ
買い足
時以降
運行情報
スピーディ
利点
天然ガス
褒められ
採取
んですけれども
一匹
メールの送信
成約
刃物
更新通知が届きます
じわじわ
の使用感レビュー
ROOM
眩
遼
▁社会保険あり
を意識して
メッシュ
指先
サクセス
なさまのご意見をお聞かせください
から徒歩約
インタラクティブ
少しづつ
ながさき
古い順
信じられ
綴ります
七夕
このままだと
フランク
扇
葵
サヨク
フレッツ
特撮
観覧
イラッと
前項に規定する
を重ねる
そういう事
有効期間
たまらん
との比較
お昼寝
衰え
第三項に規定する
オーディオ
握って
豹
准教授
実質的に
闘争
決まら
を必要とする
循環器
になってしまいます
省庁
ーーーっ
ペタ
桜井
十八号
ぷら
縄文
にて開催
社会実験
汐
👍
錆
ART
腹立つ
もやもや
満足感
降板
泣かせ
実録
ワイヤレス
レコーダー
みなとオアシス
報じた
ランキングに参加してます
筆頭
細菌
ヒューマン
口臭
配当金
種族
1,2
New
英語力
取り寄せ
窯
スゴい
結婚記念日
を保護する
なくなってしまう
凄かった
左手
てくれます
熱帯
んじゃないですか
下関
空軍
鐘
胡椒
ロバーツ
社会保険加入促進宣言企業
以下のとおり
向き合って
沈黙
お楽しみいただけます
療養費
汎用
出玉
ストレージ
ダスト
を防止するため
金融資産
温暖化
ダイハツ
ight
次の各号のいずれかに該当する
封筒
自分にとって
食べたくなる
こう言う
食べ比べ
名古屋駅
ますようお願い申し上げます
現職
▁マイページへ
コミケ
叩いてる
飼う
やってみたい
のトリセツ
公共交通機関
有難うございました
有馬記念
峯
準拠
エスニック
1.0
終始
頑張っている
要綱
質感
▁本情報は
の多さ
を示している
必要なのは
千切り
低コスト
しようとしている
全盛期
お急ぎ
等に違反
乳幼児
ギレ
▁前のページへ戻る
▁質問者
グアム
ラーニング
拍
の向こう側
フェイ
酒場
鼓
▁その理由は
隠れた
怪物
兎
樋口
冷却
玄米
引っ張って
社会福祉法人
来場者
いただきありがとうございました
レシート
混んで
'20
ふじみ野
PDCA
DMP
オペレーション
通用する
っぽさ
^-^
ひろしま
の方が多い
混み
MAP
パノラマ
背負って
ビューティー
ミント
困った時
ステルス
馴染み
フランス語
JRA
トレーダーズ
上半期
シグナル
幼稚園児
罪悪感
ジュリエット
表示されません
了解
マイナンバー制度
ヶ月間
苦しく
東京商品取引所
条件で絞り込む
んだと思います
防止のため
に適した
思いついた
豪ドル
の一部を改正する
くまのがっこう
夢をかなえる
♫
ジャーナル
パートナーシップ
を総合的に
不振
紛
保有個人情報
海域
近くにある
次官
到着後
▁久しぶりの
▁達人の予想
御一報
春休み
メールでのご連絡
高校生の活躍
▁ホームへ戻る
問われる
を務めた
勝ち点
投資顧問
田んぼ
止まった
にくかった
腫
▁ハム速
のチカラ
がありましたらお手数ですがメール
宮古島
ファイナルファンタジー
お母様
指定席
▁本情報の正確性
そろって
▁世界の天気
やめよう
を表現する
と言えます
(40)
緊張感
金融商品取引業者
と思ってしまう
チョッパリ
情報の提供のみを目的として
灘
ミネラル
鶏ひき肉
義両親
稼いだ
入っています
こともできる
靖国
ip
どんなもの
洞
ゆうちょ銀行
瑠
お進みください
凸凹
いちごビュッフェ
スパイラル
じっと
乗れる
はちま
ついてくる
▁双日
売買代金
NMB
異例の
ストリーム
良ければ
焦り
潰して
学問
闘い
舘
▁松岡やよい
おねだり
カンボジア
第三十八条
一人一人
プリウス
▁これらの情報に
続きをみる
表示することができません
円盤
支障
品質保証
何度でも
羨まし
第三十六条
虎ノ門
依然として
鉛筆
カウントダウン
ギミック
▁環境への取り組み
ようになっています
大人しく
祖父母
2〜3
警備員
サムライ
言ってたけど
漆
停滞
蒸し焼き
bitFlyer
幕府
日から起算して
ポリ袋
ルーズ
公共事業
が増えてきた
続報
が生じた場合
嫌悪
トルコリラ
゙
運用型広告
お宅
初心者の方
マーボー
に比べると
ひとつひとつ
品切れ
晶
アナウンス
基づき使用されています
▁職種から探す
OGA
準決勝
鍛
続きはこちら
粉末
成功させ
理科
都営
喋って
環境省
盛り上げ
競馬にゅーす速報
動いた
それらの記述
発信していきます
▁条件から探す
乗っか
10/1
を証明する
実務経験
かわいくて
勉
1997
▁主婦の友社
AbemaTV
cakes
顎
予想が含まれてい
本舗
等から情報の
HangS
NASDAQOMX
exes
ngInd
大阪堂島
あくまで予想であ
な業績や
鋭い
蒲田
を生み出して
勘違いしてる
分遅れ
発育遅れ
的確な
を心がけて
目前
絶妙
答が必要な方は
介護職
リノベ
ベット
究
血液型
十月一日
酷く
穀
ファミリーマート
樽
名無しの太郎
順序
貧しい
偉そうに
ご自身
に向けた取り組み
試してみる
ハムスター
により異なります
させていただいてます
羽織
お召し上がり
拠
ロナウド
▁電話をかける
すっぴん
空席確認
ように思います
実効
ファンクラブ
差し押さえ
ホル
GET
卵焼き
すみれ
出雲
宙
互換
同委員会
潤い
もれなく
グローブ
を経由して
鮮明
都市計画税
コメント返信
大学進学
くなってきて
半減
▁更新情報を
校舎
お年寄り
泌
国際空港
について詳しくはこちら
精神病
岡村
宮迫博之
こちらのアドレスまで
斑
先送り
身の回り
薪ストーブ
ありがとうファンド
頭悪い
生き残る
批判殺到
の関連サイト
ドリル
初対面
悟空
脱退
暮らしを楽しむ
現状維持
一択
の詳細については
を取り入れた
を収め
に転じ
コメンテーター
病理診断科
挫折
データエービック
▁キープしました
できちゃう
(36)
ゴシップ
小学生男子
冷凍保存
アイランド
有価証券等
ベストアンサー
PGlobal
受渡
ごちそう
(73)
貯めて
直径
カラフル
手数料無料
たまりません
爆撃
肝心の
こととなつた
バンバン
ICEDataServices
ちくわの穴から星
NN
国母和宏
PDowJonesIndices
必勝
私たち家族の
じゃなかったっけ
マジかよ
姫路
時間をかけて
を想定して
段ボール
ヒュー
▁話題の記事
便利グッズ
作られて
年ほど前
国土交通大臣
間違いの可能性があります
(;^_^
強くなる
▁作り方は
言わせて
商談
委託会社
十六号
絵文字
App
牽
度分の固定資産税
食後
‘
別画面で表示
Javascript
バッシング
偏向
シェルター
議案
いっしょに
私の好きな
誠意
ともだち
外部サイトへリンク
第九項
とは思いますが
ワイワイ
粒子
早慶
来訪
ターボ
所属事務所
坂道
Japan
圧倒的な情報量
薔薇
懇
๑
年初来高値
前二項
幼い頃
最低賃金
討ち
難しさ
ライトアップ
▁モカ
酷すぎ
ポイント非承認と判定される場合が
オプション取引
に関する規則
カリフォルニア
者の承諾を得ず
浜辺美波
長谷部
山健組
何年か
(76)
ひらがな
体温
高校野球
自炊
債権者
甘いもの
著作者
枯
ボタンを押す
を繰り広げ
ヤマト運輸
がラクになる
絶望的
▁動画を見る
リゾートホテル
反乱
.6%
引き継ぎ
開館
12/2
くださっている
買えば
阻害
湾岸
わけないだろ
の区分に応じ
異議
大学教授
賃貸住宅
又は勧誘
っぱり
改善策
コンポーネント
沢尻エリカ
罰則に関する経過措置
罰則
入試改革
となつた
退任
パワースポット
の成長記録
発端
話を聞く
キモオタ
算数
問題なの
が好きな方
を確認してください
YDN
渕
ヒヨくん
弘道会
同条第三項
夜泣き
▁さがみ
だめだ
みゆき
白髪
づらく
強硬
附
等の一切を固く禁じて
Office
アルゼンチン
ふっくら
レッテル
要介護
に注力
使われた
箇
負い
満開
▁配送料
髙
全域
ロミオメール
お気に入りリスト
テイラー
単発
ほんとうに
食事補助
感じがする
皆様からの
誤差
大引け
グッと
硬い
儘
戦国時代
万円以上の求人
しんきん
完食
反則
電子書籍版
独立行政法人等
サンデー
食べてくれ
フリーライター
書きたい
.11.
毒親
掃
俵
神戸山口組を研究する会
お子さま
なめらか
満了
その都度
別で見る
調停
定価
楽待
引き寄せ
執行役員
金利上昇
東武
訪問いただきありがとうございます
ミューズ
思い切って
暴行事件
世界で最も
話題になっている
GPS
米国株投資
作られている
ロミオ
による改正後の
シャキシャキ
><;」
シングルマザー
購読者限定
変貌
救急医療
マーケット展望
メイキング
をまとめる
ファイン
失われ
キャット
潮流
基点から近い順
頓
に囲まれた
渾身の
━
セントラル
乱入
非日常
言ってんの
聴覚
使えば
ストラテジスト広木隆氏
▁62.
▁入会のご案内
DSP
経済制裁
同胞
マッチョ
続行
直樹
▁まとめたった
第二項の規定による
易い
を見直す
不細工
解剖
が生じる可能性があります
調査票
外国人観光客
Net
所蔵
目指しています
メール送付
楽しませて
また見に来てください
▁お過ごし下さいね
ダルビッシュ
覚えてない
育てられ
しまむら
ページの本文へ
▁スタートページ
を借りて
tion
プロモーション施策
の主要ニュース
さいたま市
溶かし
第一号に掲げる
ファイト
ランサーズ
岸田夕子
浮かび
▁読者登録よろしくお願いします
コナミ
少なめ
イオンモール
hi
今週末
ロックオン
ユダヤ人
ハイパー
ゴメン
おくべき
狐
奪還
激震
取られた
ふたつ
アフロ
ただいま
懐石
推理
十七号
排気
計画を立て
ひとまず
ばっちり
漫
批
無駄遣い
Python
▁夏季休業のお知らせ
倒れて
唾
致命的
プチトマト
寂しく
思わぬ
令和元年度第
絵を描く
済んだ
限られて
呼吸器
心底
▁過去の天気
▁56.
ノーマル
第二号に掲げる
年前の剣が
石原さとみ
場所と科目から医療機関を探す
2101」
ワンダー
懸命
死にたい
都合のいい
石破
溜まって
底の岩に刺さった状態で発見される
▁テレビにだまされないぞぉ
解像度
終焉
行われて
謎不調
真摯に
ナビゲーションへ移動
条件を満た
ハガキ
今さら聞けない
年債利回り
急速
在日朝鮮人
内蔵
カーボン
又はこれら
堕
第一項第三号
ジャパンネット銀行
コモディティ
ボーカル
破滅
再燃
同封
創立
大学大学院
∞
が選ばれる理由
おはなし
(85)
付随
小売業
豪雨災害
競走
働く女性
翌営業日
雑食
元カレ
ャ
検索方法は
▁詳しい設定方法は
フェラーリ
マネージャーズは
として活動中
繋いで
ハイブリッドマーケティング
相場を調べる
お仕事紹介
スキルアップ
組合員
怖すぎ
パーマ
ワイルド
運んで
▁メニューを飛ば
行政庁
あるのかな
スタッフが確認
に携わって
奮
大御所
ご存じ
▁連絡先はこちらです
パロディ
まことくん
手作業で
ガラケー
ご友人
人民元
宅地
▁まめきちまめこ
▁使用した器
クラッシュ
ワット
融
特亜
連れて行って
かぎり
パラメータ
戦隊
代前半
Rin
普
星空
お気に入りから削除
愚民
NBA
第三十四条の二
仮定
式典
世界各地
貫通済み
千代田区
週刊東洋経済
彷
ぎゅっと
鞍
維持管理
住み込み
失業率
立ち上がり
応答
によるご寄付
を明らかにし
ハラスメント
ウィキペディア
本情報の著作権は
藍
に返信できないこと
FOMC
壇蜜
武井壮
恐縮
モーション
通用しない
積み上げ
何気に
じゃなきゃ
を乗じて得た額
決めつけ
▁ダコタ
レクチャー
宜しければ
駆逐
SMS
ムビチケ
めぐみ
巨乳
と題し
1995
相続財産
魅力を感じ
着工
ロースト
経過措置
変われ
を生かした
雨量
生ずる
参議院
livedoor
凝縮
個々のご意見
ことが分かった
に従う
▁最近見た物件
イード
学校図書館
つ目の
一晩
いただけた
党首
連載完了
ことを目的に
ことができて
クリエイティブと効果検証
ページ上部に戻る
パジャマ
モスクワ
古民家
サブスクリプション
▁はいいいえ
欲しくない
でダウンロードできます
青葉台
アバター
パーキング
ホットプレート料理
証券取引等監視委員会への
有限会社
しているとご判断される場合には
ええんや
オマエ
心地よく
へ情報の提供を行
胡麻
義妹
余計
価格帯
カツオ
鮮魚
だんなさま
リクナビ派遣
ミニチュア
叔父
学資保険
化粧水
目に見える
浜松町
▁暇つぶしニュース
▁以前の記事
頼れる
周期
役立ち
意図的に
アスパラガス
のしっぽ動物病院わんにゃん事件簿
少ない服で着回す
懇談会
内臓
案の定
目を向け
ご参照くださいませ
▁表示件数
知っておくべき
予告編
空調
調査を実施
必要に応じて
急成長
ISO
かぼすちゃんとおさんぽ
LOVE
インプレッション
▁アイコンの説明
あり得る
花柄
点滴
配信停止
呼び出し
▁最新情報を
お寄せください
貸借対照表
すみっコぐらし
▁この条件で検索
知り合った
近況
カルビ
生活習慣
ドラッグストア
宅地等
寒天
リバウンド
崖
勃発
浴衣
マグカップ
試練
コメント返し
構内
ムーミン
コーポレートサイト
世紀末
打った
ふぐ
iPS
ラズベリー
髭
必需品
適度な
住民税
置いと
(59)
企業や組織の
精神科医
憎悪
訳ではない
富士通
主任
側近
バゲット
って思ってた
へ向かう
硫
アルプス
海兵隊
が書籍になりました
▁最近見た求人
右サイド
選手権大会
▁アダム
家庭教師
有志
まっすぐ
おいしい楽しい
政令で定めるところにより
スピリッツ
リスペクト
懲戒
ファミマ
小遣い
年くらい前
戻れ
源泉
モリ券
消耗品
北斗
拍子
個人年金
あったのに
海外セレブ
▁掲載期間終了まであと
ダニエルウェリントン
▁投資にあたっての最終決定は
仇
情報に基づいて行われる
上半身
ナタリー
影響を及ぼす
乏しい
焼くだけ
脱毛
大麻取締法違反
SMAP
ABC
の実施状況
荻
ダイジェスト
やりすぎ
無断での転載
きっか
BMW
病棟
オンラインショップ
基礎知識
死ぬほど
の始め方
特設サイト
特異
東京ドーム
ドイツ語
ない範囲内において政令で定める日
ごはんとおやつ
界隈
隔離
団塊
淹れ
情報の収集
資料ダウンロード
劣等感
投資者保護基金
映画前売券
の他の求人を
無茶
▁お客様相談室
で受け取れます
うんち
が必要な場合があります
∀`
注ぎ
にお応え
面倒くさ
漬
ニャンコ
侮
扇風機
ガッカリ
▁CFP
画期的
透明性
落選
有償
一定数
豚ロース
漬けるだけ
蔵書
DPS
云
アンチョビ
志村
TOPIX
痒
海原こうめ
を取り戻す
微生物
利率
を飾る
ぎゃ
▁プロモーション広告
ポチレポ
に分かれて
偏った
図解
封じ
お刺身
アンジェ
▁お絵描きが
嘘松
▁個室がある
アンカー
▁コメントの多い
ide
県議会
放課後
相乗効果
柴犬どんぐりコロコロまんが日記
些細な
ハサミ
バースデー
さらにいくつもの
ともいえる
サービス提供者
マネジメントシステム
させていただく場合があります
合致
観測所
CAD
とのコミュニケーション
裏側
銃撃
農場
と思え
御意見
三郎
書けない
ほぼ日手帳
(;∀;)
黒歴史
やすくなります
▁60.
災害に備え
に違反する
殺処分
俣
ウィルス
ピラミッド
標高
解答
を作ら
押してください
移管
学区から探す
ワタクシ
中心部
謝れ
閉じて
反対派
くっそ
小型株
コールオブデューティ
窒
のびのび
users
サステナビリティ
釣られ
若い女性
消防団
をなくす
ご利用いただくため
どういった
データを活用し
断層
修学旅行
マイレージ
紡
アウディ
還暦
ガリガリ
ポルシェ
薪林業
聞いてくれ
エレン
あげられ
▁61.
看護学生
どうなるのか
非常勤
ハリコのとら
にもぴったり
住宅街
西山京子
断り方が
♦
砂漠
歌謡
イベントに参加
濃縮
薬膳料理
こんがり
明言
Jr
(46)
南蛮
総称
3～4
開き直
を対象として
ステークホルダー
計量
心と身体にやさしい料理
ユーザビリティ
などありましたら
過半数
マイナビ転職
▁63.
片側
騙されて
個人情報の利用目的
品質向上
専属
国際協力
日本列島
お役に立て
政権批判
に規定する内閣府令で定める
掛金
可能性もあります
混同
遅くなって
証券取引所
月に一度の
誠に勝手ながら
のペニーワイズの
角の立たない
フッ化水素
郊外
▁保存済み
どれほど
減らす
させろ
常温
〒
コスプレをした犬があまりにも出来
発令
▁59.
成功事例
メッセージをありがとうございます
焼失
移送
跡地
とっても嬉しいです
すぎていたのでコラ職人頑張る
悶
を勧められた時
▁ライフハックちゃんねる弐式
暇は無味無臭の劇薬
▁お客様からの声
ぁぁぁ
なくなってしまった
ウェーブ
エディション
クレーン
ジャングル
運転免許証
海賊版
話し合う
▁本情報の
嘘をつく
多大な
覗き
おもしろかった
騒音
多言語
CCC
これ秀逸
LDK
▁違法な薬物
ールオブデューティブラックオプス
口の軽さは保身
東京モーターショー
アイデンティティ
とろける
特別徴収
ホテル巡り
初診
サブカル
コスパ最高
ナレーション
美脚
興行
整理整頓
バッサリ
鞘
おみやげ
せっせと
構いません
PI
並行
フレンド
ノーブラ
レンコン
作ってくれた
見込み顧客
を有するもの
裏付け
キーパー
をまとめたブログ
みょうが
ビビり
ぐんま
分からなかった
爪切り
が必要になります
ace
連動しない
第三十九条
法面崩落
仕切
つくれぽ
ワニブックス
ムスメたち
フェーズ
いい加減にしろ
東京海上
に準じ
こちらへどうぞ
文言
この法律の施行前に
戸田市
柔
いわば
記事もどうぞ
▁むり
謙
©
Switch
新所得税法
無償化
エコファーパーカー
電力自由化
気になる芸能まとめ
公民館
陶器
減らした
●●
ことを考えると
揃
直営
以下の通り
隔週
何言ってんだ
タイマー
Word
交通費支給の求人
無題のドキュメント
さかのぼ
シベリア
結晶
エキスパート
慶応
手洗い
外為
ヲ
うざい
北方領土
インフォメーション
薩摩
▁子ども生活福祉部
ウッズ
ウザい
怪獣
仏像
使いやすさ
どうぞよろしくお願いします
ハズレ
道府県知事
さいたま市大宮区
不愉快
朴槿恵
争う
顕在
神秘
別府
少数派
one
に対応するため
Mac
好き勝手
のぞいて
不快感
特番
恭
スゴ本
チワワ
メルペイ
ある日突然
矢印
ご確認下さい
いただく必要があります
CNN
官報
デスクトップ
懲
を経過する日
リスク選好
炙
ベネズエラ
作り方のアドバイス
プレゼンテーション
傍聴
冷めた瞬間
に該当する場合
電鉄
一斉
くっついて
地裁
の使用を有効にし
ご愛顧
おうまがタイムズ
にともなう
役割を果た
産まれ
免税
厚生労働省令で定める
ソーラー
ふふ
陶
憶
ひたちなか
枚方つーしん
▁ビュッフェがある
錯覚
漫才
彼女たち
君の名は
の理由により本
旦那の愚痴
にならなかった
なろう小説
友だち追加
行きたくない
不買運動
ダイブ
ご迷惑をお掛けしますが
に聞いてみた
必要不可欠
ノワール
ズッキーニ
たびたび
定められ
涙が出
を紹介していきます
ハッキング
受給者
ウトメ
セダン
ことを深くお詫び申し上げます
やまもとりえ
這
にぎわい
酵素
厳重
韓国は日本
包んで
足らず
の規定による改正前の
▁子ども部屋
物販
ロフト
ぶっかけ
機器の誤作動
第三者による人為的改ざん
わっぱ弁当修行ブログ
高野豆腐
辿り着
国有財産
有権者
シンデレラ
宿泊予約
見せてくれ
ブログ村テーマ
が用意され
便乗
HKT
▁自治体からの避難情報に注意
▁初めての観戦
ちゃんねるまとめサイトのまとめ
マイナンバーカード
予想以上に
▁全ての地域
偶
おもろい
雑穀
いただけたら嬉しいです
帽
ケージ
兼任
扇動
を手に入れる
ミッド
息子たち
話しかけて
父母
見てみると
追いかけて
をだらだら
白石麻衣
楽天スーパーセール
モーニングスター株式会社
藤沢
生きてきた
九州地方で通行止め
MLB
をはじめてみませんか
ネーミング
第四十条
よいでしょう
ブルゾン
荒らし行為
用いられる
浮いて
んじゃないかと思う
ことのできる
その内容を保証するものでは
嘆く
(29)
▁発達ナビさんでコラム公開中です
怒涛の
Tech
と認めるときは
手放す
肩こり
ラスボス
を装った
昔ながらの
カップ麺
幹事長
になりそうだ
を漫画にしています
良品週間
JUNA
お披露目
耐久性
ヤフオク
になってしまって
辞典
運ばれ
夢を叶える
刈
ブックオフ
般
の一種
購入したもの
楽天証券
シェー
下北沢
モジュール
みっともない
めざまし
思考回路
新型インフルエンザ
定評
引き分け
書き下ろし
(68)
やめとけ
インスタ映え
効かない
アドテクノロジー
スマートホーム
ワラウ
住友
薬剤
四十九
リンク等について
納税義務者
生きづらいと思ったら親子
舛添
工務店
▁ウェブ電通報とは
正確に動作しない
ニュアンス
読まれた記事
特攻
鎌田
こちらをクリック
オプト
を実施しております
に該当しない
﨑
▁取り急ぎ
鬼女の井戸端会議
人材の育成
不味い
のクリスマスデート
預託
スレ立て
退屈
賦課
三宅
ゲーミング
ぶっ壊
台無し
消化器
▁ポイントの確認
(^_^)
差異
インターネット公売
活かし
効果検証
個別相談
を実現するために
杖
エイブラムス
ナポリタン
要人発言
事前登録
のお供
徒然
続かない
就寝
▁商標について
ard
お菓子教室
足を引っ張
究極
を全体最適する
ユーキさんのチラシ集積
生きにくい人のまとめ
アイホン株式会社のライセンスに
すずらん
奮闘記
台風被害
走行距離
食べ過ぎ
騎士カード
と考えられます
南海トラフ
中日ドラゴンズ
楼
ザルツブルク
スカイウォーカーの夜明け
ナンバーワン
ルーキー
にオープンした
譲渡所得
パケット
繋ぎ
設けること
苦言
搾
今後の展開
スーモカウンター
ブルームバーグ
聯合
ゴルファー
沈没
抹消
釈放
お取引までの流れ
あだ名
.9%
に至り
履き心地
ネパール
ああああああああああああああああ
につれて
街並み
▁こんばんわ
はいはい
むすめ
呑み
▁繋がるレシピ
漠然と
米軍基地
暴力的
スペイン語
磁気
肢
業務効率化
▁64.
寡
腔
アイルランド
緑のよもやま話
コンビニエンスストア
壮大な
件削除し
陶芸
が公開されました
春巻き
掴み
ふぁ
書類送検
格段に
鬼畜
直伝
事項を記載した
あいうえお
ation
嗣
もたない暮らし
乖離
オリックスレンタカー
ウォッチリストに
害虫
スケート
問いかけ
ささやかな
誘惑
相模
一定期間
クリックして頂けると
湧き
働くモノニュース
コンディション
思い浮かべ
開講
撃退
空想
未熟
完全個室
多額の
天気の子
難波
いこうと思います
迅速に対応
妊娠中に食べた
news
家に帰って
ピカピカ
引き締め
会員登録が必要です
梅雨前線に伴う
おきながら
沿
通期業績
絵柄
寝言
暴動
杭
ウインドウ
相互リンクは
わいわい
創刊
ウェブマガジン
照れ
タクミ
ことも可能
ニールセン
真冬
火山噴火
[3]
えむこ
リベンジ
火葬
第四十二条
言ってる奴
が凄すぎる
真っ黒
はっきり言って
といっしょ
日刊スポーツ
女子アナ
頂きありがとうございます
指定紛争解決機関
Retty
エックス線
紫外線
自治体の公式サイトなどで
サテライト
▁404-
柴田
寝たきり
(74)
の都合で
には対応して
ヶ谷
ASD
発達障害の娘
窪
▁聖剣エクスカリバー
板谷敏彦
アルポルト東京ビッグサイト店
箋
4,000
アウトレット
投資の学校
銀行代理業者
お腹いっぱい
保護者の方
破れ
を充実させ
関西生コン支部
トラッキング
総括
藻
おねがいします
嶺
フロンティア
長女のソロ
学研
描かれた
疲労回復
指揮官
の祭典
朝鮮日報
二次元
平塚
mas
議席
ご機嫌
バルセロナ
ロサンゼルス
ベクトル
笛
を加える改正規定
裏ワザ
験
返納
アレンジいろいろ
取締法
充当
第二弾
討
次いで
よく聞く
地方団体の徴収金
写真でみる永田町
かめ代さん
ヨドバシ
お振込み
を組む
延々と
キャッシュレス決済
時事通信
ect
意味わからん
捕まった
ぷにんぷファミリー
子宮頸がん
あそび
せんべい
赤羽
ヒート
二十一
お義母さん
クロとら
まあまあ
ポチッと応援よろしくお願いします
こってりメインおかず
圧力鍋おかず
ナレッジ
レーダー照射
生き延び
茉
微笑ましい
テーブル席
NASA
に応える
持株会社
有数の
ヘルパー
消臭
半世紀
明かし
ock
永住
楽しんだ
秋のおかず
日本ユニシス
業者に対する監督処分について
うさぎ食堂へようこそ
を元気にします
満席
漁港
の規定によつて
不正アクセス
要旨
打倒
うんうん
最寄駅
五輪代表
ポイントがたまります
睦
詠
社会福祉協議会
くらしとお金
JAPAN
BBC
きんぴら
電子書籍配信サービス
バレンティン
囲碁
こじらせ
機関投資家のお客様
ヶ丘
いただきますようお願いいたします
パブリックコメント
シャッター
ジャンボ
可能な限り
賛
▁みんなの感想
仕草
モンブラン
全裸
お絵描き
租税特別措置法
ダイアリー
あっさり副菜
カプセル
毎日かんたん作りおきおかず
基準価額は変動し
思えます
アップグレード
昼休み
探求
特定商取引に基づく表
可否
働きかけ
買い換え
第七十三条
MaaS
高山清司
顧客満足度
欲しがる
ことが大事
自虐
話を聞いた
公共工事
ボリュームのある副菜
スコットランド
を中心とする
概算
疲れた日に
キツネ
上がら
に比べたら
ヤード
で日本の会社
索
が導入されて
いったい何
倍儲かるホームページ
骸
莫大な
ストア出店について
次の各号に掲げる規定
職種を選択してください
▁静岡市
クレジットカード決済
仕返し
寒かった
に取り組んでいます
なくてはいけない
にゅーおた
椒
カニカマ
パイオニア
狩猟
燃焼
略奪
堕ち
近江
アミューズメント
文房具
は忖度しすぎ
お待たせ
カリフラワー
スミちゃん
人に言いたいこと
っちまった
note
あっさりメインおかず
免責
〓
サッパリ
おじいさん
お見逃しなく
姪っ子
スマートフォン版を表示
アタマ
樹脂
行うものとする
見習い
コミュ力
骨格
支援物資
被害に遭
逐
ドトール
夏季休業期間中
怨
滅茶苦茶
議事録
▁ショボン
駆動
借入金
やりくり
を依頼する
スペアリブ
洋菓子
曇
を開けると
ジョジョの奇妙な冒険
ききらら
行えます
てんきち
責務
が特徴です
好感度
ジャニーズ事務所
どう思って
早起き
地方自治法
を図って
満州
建売
ージング
満ち溢れた日に
ジャーナリズム
炭水化物
イタズラ
有益な
池上彰
1998
場合における当該
成り立って
保険に加入
老人ホーム
単勝
飛べ
レーサー
しといて
が印象的
を加速させ
綾瀬はるか
サイボーグ
😄
御朱印
ルールと日本
三代目
分かりにくい
断固
▁保存できる
を思い出しました
の歩き方
わいせつ行為をライブ配信
楊
祀
お留守番
中村医師
ほっぺ
次項において
進撃
ご希望の方は
声が聞こえ
弟嫁
当サイトの情報
ハマった
オムライス
混ざって
後進国
ううう
▁気候変動対策
お盆休み
改築
生き抜く
敗退
作詞
弥生
モバゲー
▁フォローして頂けると
不満を垂れ流
行政書士
検索してみてください
統一教会
落ち着か
に充て
保存容器
思春期
天気のなぞ
牡
貨幣
やさしい時間と
を養う
積載
回転寿司
堀江
苦しめ
いただければと思います
脚本家
はじまる
三振
思えて
▁検索条件を変更する
独特な
消費を斬る
蔓延
発の高速バス
オーシャン
;`)
▁断続的に
の絵日記ブログ
▁投資を始めたきっかけ
スムージー
テキトー
睨
大浴場
余分な
憎しみ
置け
ボトム
に投稿された
チンゲン菜
ジャムが余ったら
Klastyling
徴兵
抗争
本人確認書類
ことが明らか
楽天スーパーポイント
持ち運び
仕込み料理
定期預金
関わらない
ユダヤ
ベビーカー
盛り合わせ
呼ば
パカパカ
一回は一回です
知的財産
まち探訪
歪曲
夏のおかず
抑
ショボ
セーター
ake
両替
吐いて
ファイルまたはディレクトリ
妬
ヒットのクスリ
アルファベット
滅多に
を実現すべく
まどか
は以下の通りです
電車内で
産後にうつ再発編
五反田
壺
ポテンシャル
小田急
詣
✳
小田原
山田哲
さらなる加速
▁お問い合わせ先一覧
増やした
公社債
延べ
展望台
お疲れ様
経験がある方
瓜
タヌキ
獅子
レンジおかず
転がって
誤字
表彰式
deco
新年会
春のおかず
と進化が
載ってい
棋
周波数
連載が始まりました
霜
オプトアウト
忘れずに
挟まれ
かかりつけ
レッグ
シゴト
オトナ
飲ませ
ポインタ
巻きたい時
折り畳み
たまこのうつ病体験記
カミングアウト
岬
読解力
玩具
データで読む消費
特別措置法
パーティにオススメ
(44)
ポチッとよろしく
救命
乳児
ロゴマーク
宇治
洗面
教習所
の創設を
閲
▁上記休業期間
(≧▽≦)
撃墜
1989
の回答となりますので
を越える
に適合し
する事ができます
改正規定
ご指定のページは見つかりません
の進め方
第九号
麻酔科
ナビゲーター
お買物
▁読者登録お願いします
を含んだ
やめてくれ
ミリオン
瞬時に
冬のおかず
学院大学
観念
嫌悪感
が実施され
スカイウォーカー
汲
なかむら君
フルーツを使ったおかず
後頭部
マンネリ
武建一
職業訓練
増殖
斎場
用語解説
はたまた
怒らせ
結合
ちっとも
非営利
エレガント
憲法のトリセツ
預金保険機構
休診
食器棚
最高裁
の第一歩
踏ま
リテラシー
▁保存した検索条件
福山雅治
▁九州地方整備局入札監視委員会
▁予めご了承頂きますよう
閑
▁本日もご訪問
遮断
絶叫
指令
がきっかけで
拷問
ロジスティクス
京急
ウォル
増えてきて
返送
が届かない場合
DMM
アニメーター
前払式支払手段
は輝いている
地産地消
フレーバー
唄
枢
よろしくお願い申し上げます
ご飯を食べ
にジャンプします
を構成する
強烈
不動産取得税
クリーミー
パーソナライズ
お選びいただけます
あおぞら
淡路大震災
まろやか
マネジャー
読まれている
大半の
ピュア
理解を深め
マフィン
覇
夏季休業のご案内
▁赤ちゃんの部屋
固まって
シナモン
喜ばれる
仕送り
▁リクエストされた
が多すぎて
近接
集積
探知
活字
毛玉きょうだい
誠に申し訳ございません
郭
ロイター銘柄レポート
私的標本
有給休暇
堤防
だんご
ヘアアレンジ
ワンオペ
フィッシュ
ハーブを使った料理
公益社団法人
男女共同参画
トートバッグ
生粋の
アウトプット
▁以下の条件を
ニッキン
射殺
気がついた
ヒーター
ぜひご活用ください
リッジ
梢
期間満了
初めから読む
モチモチ
に努めてまいります
派閥
まな板
グリルおかず
無断転載を禁止します
テーマソング
食糧
登校
受かる
初回限定
株価指数
軽視
ハンカチ
余命
扶桑社
オールスターズ
填
歌川たいじ
安倍晋三首相
ヒャ
ナマポ
著作権侵害
なおさら
擁
抄
▁カゴに入れる
▁メニューを閉じる
ハロウィーン
前期比
生涯学習
たぬき
香典
空撮
奴おる
が寄せられ
場合に限り
主将
セキュア
めでたい
フットボール
をご確認いただき
胃袋
どこにでもある
煙草
不公平
就学
はたらく
を増やしたい
喫
密かに
猫だらけの家主
任侠
夜景が綺麗
の一環
ボートレース
経常
ABJ
銀行代理業
おまエラ
ウォーズ最後のジェダイ
恥ずかしくない
プレミアリーグ
伝票
尚更
引き渡し
保留
挙動
建造物
粥
家宅捜索
更新通知が受け取れます
禅
TOCOM
エグゼクティブ
麻痺
をイメージした
休みの日
.7%
ジェンダー
遠慮なく
を軽減する
予告なく
捜
諮問
超高層マンション
ターミネーター
1993
本格占い
難しかった
考えてみた
暗記
無くなり
翌朝
福岡空港
国土地理院
のんびり楽しく貯金
▁個人投資家の皆さまへ
見知らぬ
海水浴
英語民間試験
を振り返って
内部統制
品種の名称
のではないだろうか
休業日のお知らせ
を経験した
公判
お取り引き
国東市
黒い過去
お気軽にどうぞ
たばこ税
おそれのある
第十号
レスキュー
元凶
幽
トウモロコシ
お歳暮
肘
尖閣諸島
▁本日の記事です
▁ウェブアクセシビリティ
モットー
の不具合について
どうなってるの
▁通勤時間
義弟嫁
東京海上日動
券売機
フィルタリング
ペナルティ
ゆで卵
有用性
このブログのトップへ
る事が出来
これだけでお
庇
捌
度分までの
対応可能
多忙
総理大臣
善意
ほたて
諸外国
の合間に
立ち向か
せざるを得
ログ掲載のご案内
紫キャベツ
揃う
いまさら
くっつけ
剃
に用いる
キャッチコピー
動揺
資産の譲渡等
たっちゃんず
ボーナスありの求人
足立区
錦織
伐採
裏切られ
下品な
融通
を促進する
クレープ
▁メールでのお問い合わせはこちら
エナジー
略称
の低さ
慰め
太平洋戦争
ラブライブ
には許可ユーザ
スクラム
▁高配当の個別株
腐女子な私が
あーさんの成長記録
うまくいかない
含有
慢
温かく
栄養価
のせいにする
弔
超現代風源氏物語
連帯ユニオン
毎日がおひとりさま
こごろう
スタンバイ
読売新聞オンライン
ゴリ押し
健在
書き換え
を巡って
▁特定商取引
割賦販売
タロ兵衛
外為どっとコム
謙虚
ペイパル
官房長官
シンボルマーク
稚魚
アメリカ合衆国
価格は語る
ドライヤー
(33)
標榜していますが
うに目
江戸川乱歩
▁芸能人の気になる噂
ベーカリー
マフラー
▁ニトリ大好き
▁お笑い動画
認められて
平和になるのか
ソニック
を思い出し
こちらからご連絡ください
インテリアが大好き
起こされ
糀
洗練された
餡
ストライク
渡辺満里奈
を救った
減免
裁定
異なって
円滑に
焚
賑わい
唐突
ありがとう投信
ハムスター速報
腫れ
衰
やさしい経済学
振れ
学校給食
んじゃねーの
ホリデー
蜘
打線組んだ
メロメロ
に代わって
古くから
▁販売店への
おかずのもと
四半期決算
不倫相手
呈
パワフル
パセリ
溺れ
人物名レンタル
バレーボール
商品名レンタル
といえます
欠損
平成十八年
親しみ
というふうに
あと一品
ていねい
▁印刷物のデザイン
これはグリーンボンドとは明確に異
記事も読まれています
紺
におきまして
ニックネーム
恩返し
申告書を提出
退去
格納
のぞみ
テイクアウト
▁ウチコト
の認可を受け
フクロウ
正午
立野ダム
アーケード
キウイ
▁九州地方整備局における平成
FORCE
メールで送る
アルバイトの求人
恋愛相性
おためし
相対的に
Java
畠
▁りす子
観る前に押さえ
條
を狙った
を磨く
WiiU
唯
ふやす
休眠
サイコー
ポメラニアン
バーテンダー
会社四季報
の見分け方
なんやかんや
バリューコマース
仮設住宅
繁栄
どうやったら
予備軍
降格
穴を開け
の一部を改正する法律
につながります
あがった
清潔感
遮
健常者
PHOTO
肴
への資金提供
カリキュラム
北斗の拳
玲奈
栽培きのこ
陰謀論
(^^♪
の原点
掘り下げ
レスポンス
名も無き
奔
コンタクトレンズ
ガソリンスタンド
移動した可能性があります
のツーリング記事
突っ込む
を成功させる
別途消費税がかか
どうしたらよいですか
オウンドメディア
椎茸
ミラクル
酷評
貧乳
透視
ねばならない
第一項又は第二項
癒やし
勧められ
この記事の続きを読む
糸こんにゃく
原子炉
の放射性物質調査結果
底堅い
ナイフみたいにとがってら
レスポンシブ
ディープラーニング
バブル崩壊
ホコリ
虐め
扶
危惧
佃
手ぬぐい
イノシシ
予めご了承下さい
ピッチャー
のごとく
リーダーシップ
グリッド
棲
俯瞰
▁選択中の条件
受け付けておりません
嘲
秦
儒教
戸惑い
▁こちらの機能は
最寄りの
栄養満点
カリフォルニア州
難しそう
の適正な取扱いに関する基本方針
伝達式を行います
が大半
に該当し
跳び
懲罰
カツ丼
トランプ政権
ショルダー
インセンティブ
に見舞われ
ウォレット
を勘案し
が開きます
恵方巻
賑
とびだす絵本とひみつのコ
▁ロハコ
魚肉ソーセージ
▁平素は
パトカー
品種の属する農林水産植物の種類
おわび
ちょうだい
おかないと
を命じ
一般財団法人
墳
酵母
のお取扱い商品
どちらかというと
科は標榜していますが
に支えられ
督
牌
▁初めましての方は
棺
ダンナ様は安月給
鷲
菅官房長官
課題の解決
ヒーラー
めんどくさ
愉しむ
ロケバス目撃情報
鳳
ユネスコ
▁みんかぶ投信
禄
をひらく
ノイズ
を確保すべく
監禁
加齢
追い出され
埋もれ
四季折々の
含んで
安易に
も含まれて
蓋をして
痴
ぐっちぃ
コノビー
固くお断りいたします
意気込み
少なからず
叙
目の当たりに
到底
請願
新生児
ハードウェア
をつかむ
ペダル
天災
色は緑
から現在まで
▁編集部おすすめ
が適用され
FIFA
倍楽しくなる
を知り尽くす
孤児
手づくり郷土賞
芦北
英語の勉強
物理学
の投稿記事一覧
デンマーク
を考慮の上
記憶に残
密接
挿
阻
ソビエト
̇
でいうと
シューティング
やりたい放題
公的機関
ないでほしい
まいたけ
NET
言えません
スパイシー
ドンドン
扶養親族
求職者
は大きな進歩を遂げて
▁動画で学ぶ
地球温暖化緩和
整理収納コンサルタント
業態
封入
誤認
固まる
醍醐味
タンパク質
ウッディ
柚子胡椒
音痴
サーフィン
書を提出
電磁的記録
韻
プロテイン
否認
胸キュン
最大規模の
頑張りましょう
民衆
に陥る
▁長野県内産
刺繍
▁と思ったときに読む話
スチュワードシップ
コウモリ
ブンデス
フレンドリー
▁調理方法
を派遣します
消耗
アマチュア
スナップ
ミリタリー
フンミン
スマブラ
に際し
支払うべき
次世界大戦
晋
プリペイドカード
お役立て下さい
キャッシュフロー
LIVE
チベット
強引に
なきゃならない
稽
セッティング
ご冥福
🙇
あこがれ
リーフレット
を管轄する
ぷっちゃん
わかりにくい
がアクセスしようとしたページは
で定めるところにより
セレモニー
アスペルガー
ファミコン
キッカケ
一軒家
ヒートマップ
最古の
陸上競技
に立ち向かう
▁お気軽にお問い合わせ下さい
カルシウム
シリーズ最大の問題作
ヒトモドキ
むーたん
キャスティング
ちらほら
大げさ
▁一覧をみる
に規定するもののほか
鶏がら
投資家の皆様
助かって
KADOKAWA
と読み替えるものとする
阪口ゆうこ
アクリル
ファイアーエムブレム
にお住まいの方
とろとろ
ちょいちょい
切符
▁御用の
に頼る
大きすぎ
巳
先着順
してお買い物をすると
参議院選挙
を抱く
風評被害
鵜
ブラザーズ
danger
夷
こだわる
決算短信
非居住者
読書猿
知の発信
加賀
11/1
高価な
ess
ッスル
燕
サンシャイン
道を歩
従事者
幣
助産所
内覧会
▁犬と暮らす
コントローラー
▁一日一回
の兆し
口座を開設
政経
🍎
コンプリート
時価総額
狗
つながった
あずき
すりおろし
を手に入れて
に載って
似顔絵
人の子どもを育ててます
小矢部市
田中みな実
はできかねます
集団的自衛権
おつかれ
▁この省令は
余談
保健師
にもよる
を指します
藁
カウンセラー
平方メートル
モラハラ
系組員ら
ご一報ください
PlayStation
を交えて
をワンストップで
文字起こし
磐田
アサヒ
吐き出
Book
甘酸っぱ
国交断絶
第七十四条
ブランケット
具体的
にとらわれ
顧
登録品種の育成の経過の概要
🤔
伊丹
親近感
受刑者
国税庁
サウジ
終末
死んだふり
誘引
小学生の頃
んじゃねーよ
の極み
を行わ
第四十四条
大坂なおみ
▁このブログにコメントする
レギンス
伝わらない
呼称
ほんの少し
おとなしく
Lab
パスワードをお忘れの方
心斎橋
頑丈
▁お役立ちコンテンツ
SALE
どうすんだ
┃
みやま市役所山川
ご自身でご判断
ジンギスカン
ワンランク上の
フィスコ企業調査レポート
混在
を押すと
償却資産
が誇る
アソシエ
Tweet
シークレット
詫
遺憾
マヨサラダ
▁メールでのお問い合わせ
うちの娘
倫
▁ご指定のページが見つかりません
租
改正法附則
Michy
知られざる
賛否
横断歩道
生活習慣病
▁現在の検索条件
話し合って
第四十五条
おおむね
インシデント
ダントツ
宣告
変遷
海鮮丼
(55)
取得した個人情報
に次ぐ
欠けて
金目鯛
お気に入りに追加する
落ち着いた雰囲気
首相官邸
載ってる
孤
を遵守し
第七十一条
メンタリスト
鞄
▁第二子あおい出産話
外部からの評価
▁ヤフコメ民の
▁生活の知恵
上層部
TOKYO
無断で複写
オーディオブック
敢えて
猫との暮らし
手羽中
腫瘍
報告者がキチ
に及ぶ
ノルウェージャン
生み出す
騰
諭
スマートインターチェンジ
弦
眺望
▁使用した調味料
ネイビー
気を遣
曜日午後は
のどうでもいいこと
を彩る
推計
を抱えた
けものフレンズ
影響を及ぼし
わけにはいかない
ぉぉぉ
ワガママ
▁ショッピングで貯める
視覚障害者
移設
加わる
取り敢えず
ドルトムント
掲載されている全てのコンテンツに
禿
オーロラ
譲り受け
滑稽
▁応援クリックお願いします
エイリアン
掲げて
第五十一条
で政令で定めるもの
井上かなえ
石橋貴明
投資にかかる手数料等およびリスク
顛末
お客様の情報を取り扱います
柵
淫
誠にありがとうございました
四輪車
冬瓜
シロクマ
絵を描いて
躍進
平成十七年
靖
広がった
の恵み
ジャクソン
整骨院
猪原賽
ell
欅坂
バスケットボール
ガいジレス消せ三つ星に謝れ
が正しく入力されていない
にも取り組んでいます
給与形態を選択して下さい
レトルト
検索で調べる
フォトギャラリー
稲荷
(52)
設定されており
平成十六年
秩父
役立たず
タンブラー
パキスタン
無茶苦茶
名前が変更されたか
しょぼい
玄武
をこめて
に転身
盗まれた
を失い
▁さがみ典礼
MARCH
を行つた
エンタープライズ
まとめもりー
にはなれない
子供が喜ぶ
日本海側
第一項から第三項まで
埃
忽
騰落率
▁前川さなえ
第一話はこちら
が楽しくなる
疑われる
を奪い
部分最適
浜崎あゆみ
サイトに埋め込む
香川真司
ぼちぼち
決勝トーナメント
によって運営されてい
aku
平成二十七年
哨戒機
閖上の記憶
ご覧になれます
0:00
執念
バカにされ
の車買取
平成二十八年
詐
▁メニューを開きます
トイレットペーパー
民営化
の過ごし方
勘弁して
さんざん
お探しのページは見つかりません
ホークス
ルッコラ
変更されたか
公明党
🤗
証人喚問
宅急便
料理の豆知識
自発的
仕事の依頼はこちら
サーキット
都合の悪い
桶
助かりました
勾
廉
でこぽん
謝罪と賠償
ウエディング
第十一号
GAFA
やりがいを感じ
ポイントを貯める
増え続け
切干大根
第百七十
巷
クレンジング
▁携帯やスマホ
采配
9:00
毎晩
スナップえんどう
冷凍パイシート
▁ごちそうさまでした
外部サイトへ移動
第五十三条
東証一部上場
尖
大盛況
賓
弊害
ふざけんな
くなっちゃった
に陥って
の施行の際現に
薄力粉
ポケモン剣盾
塀
仏壇
関ジャニ
もち麦
さくら学院
を巻き起こ
いつまでたっても
司法書士
シリコンバレー
から記事を探す
は対象外です
▁常識的に考えた
ららぽーと
あけましておめでとうございます
鱗
を行なう
挟ま
クーペ
貸してくれ
ご意見をお聞かせください
大河ドラマ
光文社
雑談ネタを
仲直り
混じって
舗
を簡単検索
とどめ
フリーズドライ
クラウドソーシング
邑楽町
どうすればよいですか
確認して育成を完了したものである
国立国会図書館
諏訪
浮かんで
ボコボコに
コーヒー豆を
が含まれる
(78)
かあちゃん
ブラックフライデー
第四十八条
受益権
筑後川
オマケ
最終更新日
卑劣
賞賛
(66)
シナジー
を促し
を担い
▁お仕事の依頼
小沢健二
脊
の保険料っていくら
謎解き
秋元康
気満々
昨
▁ニュース一覧へ
を尊重し
詳
は以下のとおりです
と思った時に読む話
わたくしごとですが
楠
バイエルン
車中泊
迎撃
∇`*)
修復歴なし
サワークリーム
ブッフェ
鰹
サンフランシスコ
▁水戸公演
はお控えください
笑いと涙
寂しさ
白鵬
ress
を重視する
恵まれた
第十項
第五十条
腎
鬱陶しい
敬和学園大学
をリリースしました
ダークサイド
ill
仮設
占星術
漆黒のヴィランズ
襟
至上主義
◆◆◆
▁選ばれる理由
明治安田
に代わる
一元管理
ウェディング
ベンチマーク
文藝春秋
ほぅちゃん
姐
佇
憂鬱
貸会議室
くれぐれも
登録品種の育成をした者の氏名
教わった
たくましい
ブロードバンド
臼
おまる部長
▁ゆずぽんさんち
꒳
大船渡
ご容赦ください
垣間見
ベビーリーフ
がすてなーに
スモーク
燻製
でブログの更新情報
染ま
何卒ご容赦
加藤浩次
学芸大学
カーシェアリング
膨らむ
爆誕
個人情報の保護に関する法律
救護
ぁぁぁぁ
神奈川県横浜市
を予定しています
(※1)
経済産業大臣
置き去りに
譚
椎名林檎
ガラガラ
ダッシュボード
軒並み
ゴディバ
乞
今日紹介するのは
▁各事業の競争優位性
特別手当あり
ウイスキー
ブレグジット
家政婦
量販店
パネルディスカッション
リチウム
表示されるようになります
活断層
こぼし
描かせて
百六十
未経験者歓迎
絹さや
自動販売機
をふんだんに
ピクルス
へのリンクをコピー
准看護師
▁投資の教室
引っ張る
はみ出
垂れ流し
を介して
方もいらっしゃる
トロピコ
じょりじょり
(*^_^*)
家のふつうの日の絶品ごはん
ブログの最後には
くわしく
真っ暗
セルフリノベーション
▁防災ヘリ
真似したくな
から国民を守る党
採れ
▁見つかりません
途切れ
稚
第五十八条
プラズマ
ダイドードリンコ
⭐
▁代表あいさつ
肉じゃが
靖国神社
浮かば
が無ければ
どうすんの
自衛官
ぶつかり
登録していただくと
▁よく見られている
質疑応答
阿呆
リーマンショック
アメコミ
なおその効力を有する
スパイダーマン
デラックス
財閥
できあがり
に含まれて
第四十六条
関生支部
アジャイル
学校キャラバン
柑橘
良くも悪くも
アトリビューション
禁断の
情報を用いて行う
に悩まされ
なる場合がある
以下この号において
退職手当等
イールド
予告なしに変更
癇
ちょくちょく
政務官
総会を開催
少子高齢化
石田ゆり子
すんごい
下請け
べんとう
腎臓
)💦】
盗撮
が集う
第十二号
オムレツ
認定こども園
育成者権の存続期間
大晦日
洞察
挙げて
電車に乗
ガチャガチャ
ワッフル
なってきています
シネマ
できなくなります
に投資しますので
獲得予定ポイント
内容に一部変更があ
年にその特性が安定している
登録品種の特性の概要
Kindle
経団連
前代未聞
▁季節ごとに
吹き飛ば
として浮上し
ail
所要時間
月曜断食
コンフィデンシャル
法務省
へ遷移します
一眼レフ
洞爺湖
年以下の懲役
▁レシピの印刷
過去最低の
▁寄付のお願い
か知らんが
情報の正確性
の規定に違反して
アルミホイル
公共工事の品質確保
こと等で区別性が認められる
一覧を開きます
ハトポ
コメントへの返信
駅北口
コネクト
る最中
好評発売中
抵
で並び替える
郷ひろみさんの
ジョルノ
意味がわかると怖い話
存じます
ブライアン
クレイジー
督促
過小評価
1,300
衝撃の事実
目を覚ま
を予定しております
スカスカ
バレンタインデー
目指し
拗
佐川急便
▁アイリスペットどっとコム
引き継がれ
語彙
久美子
清野とおる
ヤングコーン
重まぶた
身の丈
太刀魚
ラブラドール
▁よろしければ押してください
思えた
夕刊
が気に入ったら
討伐
露呈
人工衛星
トランプ米大統領
▁お探しのページは削除されたか
寒くなって
く楽しい毎日を
グリンピース
検索連動型広告
謄
フォルクスワーゲン
爬虫類
鎧
ムチムチ
礁
マイノリティ
平成十五年
スリランカ
YJFX
危ないところを見つけてしまった
ふたご座
スパークリング
不具合を修正
リネン
▁よくある問い合わせ
厳密に
引きずり
カタール
レシピ検索はこちら
でんごんばん
社会資本整備審議会道路分科会
オニオン
傾斜
支える投資
十二条第一項
アーキテクチャ
東京ヤクルトスワローズ
ドラレコ
レコメンデーション
慄
クレーマー
を名乗る
フォアグラ
[4]
地方小委員会
スノボ
に踏み切
▁曲名で
文喜相
豊島区
▁パブリッシャー向け
▁現在行っている仕事
ウキウキ
知の龍河洞冒険コースに行ってみた
鰻
(*^▽^*)
メモを編集
オトナ女子の
凱旋門
わろた
以下この条
空芯菜
ゼクシィ
閣議決定
土日祝日除く
だめぽアンテナ
附則第五条
OCN
厄
社により予告なく変更される
≧
チンピラ
▁先々週
アドバンス
干支
豚ヒレ
そらまめ
鴻
大腸菌
健康診査
でも代用可能です
俺の青春ラブコメはまちがっている
気に入ら
むくみ
ご担当者様
テープ起こし
port
劉
旭化成
臆
費用負担など
イッチャマンの教科書
つぶやいて
縦覧
ふきのとう
やべー
を組み合わせて
利益相反
ネガキャン
文化功労者
に関し必要な事項は
ドヤ顔柴犬どんぐり
昨季
今どき
いざという時
▁このページの先頭
款
オードリー
は適用されません
カラパイアの歩き方
すかさず
前述の
てんびん座
▁フォアミセス
豚コレラ
を繋ぐ
を防ぎ
地球の歩き方
駄菓子
▁設定方法は
新株予約権
まめきちまめこニートの日常
デリバリー
▁メインコンテンツに移動
パイナップル
慶應
或
▸
恐慌
麓
度以後の年度分の
落とせ
バンダービルド
番外編
撥
ごちゃごちゃ
モフモフ
福島第一原発
を眺めながら
に協力した人
つつある一方
白玉粉
暮らせ
洲本市
四つ葉
ちちこのこと
ゴキゲンな
柏の葉キャンパス
炊き込みごはん
自尊心
インパクト投資は
在韓米軍
のスイーツビュッフェ
▁ページ先頭へ
リターンを生み出す
ボリューム満点
ベーグル
日本テレビ系
措置を講ずる
添い寝
レガシー
体調を崩
楕
投資勧誘を目的としたものでは
むずかしい
農作物
⇩
主婦と生活社
▁じっくり読みたい
▁なでしこジャパン
カプコン
よみがえ
何十年も
どうでも良い
▁田舎暮らし
の都合上
目を付けられ
を深める
糧
▁ワンクリックをお願いします
ロカボスタイルヘルシーレシピ
職務経歴書
隼
▁第一条この政令
高田馬場
規律
を祝う
お医者さん
掲げる
電子決済等代行業
宇宙飛行士
cafe
鐵
さりげなく
封鎖
讃岐
草津市
の記事が対象
に見合った
のび太
ドアを開け
スカーフ
アンビリバボー
代官山
ジャスティン
抽象
乳酸菌
ビギナー
前川さなえオフィシャルブログ
食物繊維
▁痛いテレビ
滑らか
第四十七条
巻き込まれ
Cloud
∩
よみぽランド
マウンテン
何の因果か
日韓基本条約
ワイルドなスタイル
家のコトで役立つ
争奪戦
オキシクリーン
あれやこれや
のあげかた
イーアイデム
三月三十一日
イートイン
廊
ハザード
添加物
南海トラフ巨大地震
榜
剪定
σ
アホ男子母死亡かるた
東京ガスくらし情報サイト
洒落怖
▁空腹時
優雅な
尼崎
県庁へのアクセス
行かせ
*****
若頭が出所
に係わる
または登録商標です
Σ
憶測
スカーレット
異世界転生
至福の
ランキングに参加しております
平成二十六年
円分ポイントが
お似合い
富良野
素晴らしかった
▁暮らしニスタ
〼
迂
♂♂
▁わらび
地域密着型
トレーディング
が見込まれる
を引き起こし
明かされ
AND
妄
ドナルド
うちごはんのゆる基本
▁ぷろとら
▁ストアのイチオシ
授賞式
気にしない日本人に欠けている視点
ハチミツ
のシェルター生活を経て
▁弊社代表が
敵地で
月一日から施行
いずみ
邊
李承晩
を含まない
ナナイロさん
バルコニー
ヨメちゃん
のケーキバイキング
毎日のおうちごはん
が足引っ張る
カナヘイ
たんぱく質
斉藤
振り返った
第五十七条
放り込
彗星
万の食費で
パシフィック
世界幸福度報告
大日本帝国
心筋梗塞
▁デマンド
漕
急激な
第六十条
年度概算要求の概要
美しすぎる
昨晩
▁スポーツを頑張る子
★★★
▁取り消す
日からの大雨
神楽坂
に限らせていただきます
お墨付き
サツマイモ
日本の幸福度
パラダイス
炸
▁仕事のやりがい
リタイア
号一過
新上五島町
京アニ放火
に陥った
▁かぼすママ
家に引っ越して
関西広域連合
ちょりまめ日和
帯広市で
▁電通グループの
執拗
日本製品不買
に違反し
米津玄師
謂
互助会
▁ふらいんぐうぃっち
が相次ぎ
かめ代のおうち
お好み焼屋
スヌーピー
るるぶトラベル
▁レーティング制度
同い年
不服申立て
正しく入力されているか
淑
漫画オタ外人と結婚してしまった
私服の制服化
➡
世間で話題のニュース
▁FIO
ワトソン
らっしゃい
まとまって
延滞金
均衡
を保証するものではなく
週刊文春
が在籍しています
私はロボットではありません
ポカポカ
人事おくやみプレスリリース
≦
今年の一皿
診療終了時間が遅い順
プレミアム利用ガイド
を築く
醸造
と思いきや
と診断された
を記念し
TNR
橘
オアシス
コワーキングスペース
マイページの希望条件一覧から
老朽化
GIGAZINE
NEXT
▁名前のない育児
まだ提供を開始してい
ミスをしたので
更新のお知らせが届きます
都内在住の会社員
▁やきうアンテナ
▁さいたま市見沼区
基点となる場所から
ネイチャー
小さなカフェで
のあるツイートが
分けることになった
傑
責任を負うものではありません
殖
険
ウチ猫様
いつのまにか
おうし座
ひとこま作者
万粒の分離作業がこちら
薬膳コンシェルジュ
長澤まさみ
なつめの手仕事日記
播
鮨
ジジババ
洒
’’
起こりがちな
いかがでしたか
を可能にする
▁レシピアップしてお
特定商取引法に基づく表記
DaiGo
マカロニ
月豪雨における出水について
に爆弾を投下
つくれぽお待ちしています
外国銀行支店
▁この記事にコメント
おしっこ
らっしゃる
形作られてい
謡
利益超過分配金含
馳
Adobe
▁なんじぇいスタジアム
実話恐怖体験談
現在利用できない可能性があります
未然に防
の賜物
を示す登録商標
適宜
払拭
人生を送
兜
除雪機の
を自由に閲覧
▁大学生の息子と
大キャンペーン開催
まとまった
彫刻
戦時中
絹
ホクホク
としか言いようがない
を学べる講座を
狡
当サイトで提供している株価
蜂蜜
疾
ウイーク
原動力
アスレチック
未練がましい
真っ直ぐ
お確かめください
かも知れん
頭の馬と
高槻市
ベネッセ
おきなわ
二トラー
のシンプル化
使いこなせ
移動または削除された
甘やかし
しし唐
も少なくない
醤
妖
この電子書店
かけがえのない
TrustYou
利用者は匿名のまま
国連の持続可能な開発目標
青瓦台
伊藤英明
弱体化
と研究開発ビジョンその
サイト閉鎖の
↑↑↑
が使途不明
が美味しい国はどこ
を上回った
世界を変えれる
主治医
正規版配信
気まぐれ
イニエスタ
烏骨鶏と共に田舎暮らしをしながら
(・・;)
避難場所の掲載
スパゲティ
烹
河野外相
ほんとに更年期
助けられ
はシアワセだ
読ませて頂いて
無害な
見下して
シームレス
▁不思議と謎の大冒険
カントリークラブ
時間をドブに捨てて
母ちゃんちの晩御飯とどたばた日記
者からコンテンツ使用許諾を得た
アドエビス
フィジカル
避妊
ッグっていうスーパーに行った
が低下し
でやってきたこと
賭
猫を飼
ディスカッション
特別徴収義務者
▁PSStore
雫
サミコの
などの設定や使用
ハマクラシー君
母さんのれしぴぃ置き場
絆創膏
▁ネオマーケティング
出てきそう
誕
釧
▁Udemy
カカクコム
▁個人情報の取扱について
これに答えられる
ペンス副大統領演説
太郎事務所が内閣官房に問い合わせ
新潟県新潟市の地域情報サイト
▁訪問お片づけサポート
空の境界
▁あなたは健常者
の理解と支援
のミカタ
に対して緊急に
容疑で逮捕
«
対日強硬
君が代斉唱に
受け継がれ
利用交通手段
画面が切り替われば投票完了です
ハロン棒
BABYMETAL
▁リアルサバイバル
▁岡山食べ歩き
▁逮捕容疑は
撲滅
と嘘をつき
を好む
窪田千紘
助産師
▁レンタルなんもしない人
ぷよぷよ
休館日
真面目に就活し
お天気キャスター
キムタク
生き残れ
要件を満た
フライドチキン
エフェクト
ローゼンバーグ株式
▁父と柴犬ワールド
性的マイノリティに向き合った
茶化さず
を見据えた
メチャクチャ
秋篠宮
パンプス
▁ご紹介させて頂いております
が盛ん
▁宜しかったら
配当再投資戦略
▁アラフォー不妊治療体験記
ZOZO
資産投資における
マーケティングオートメーション
この法律の施行の際現に
お久しぶりです
マタニティ
愁
▁受診される場合は必ず電話等で
▁気軽にフォローお願いします
山国川水系
一目惚れ
探究
豚ばら肉
疑問に思
個別信用購入あつせん
▁白銀の墟玄の月第
巻十二国記
初任給
青空の下で
▁購入には会員登録が必要です
いくじょぶ
しばらく待ってから
呟いております
第一線退く意向マリナーズに伝える
馬とニャンコと男と女
ひんやり
宵
旺盛
も交え
消極的
法政大学
取得意欲を
海外の万国反応記
七五三
蒔
▁はあちゅう
価格が安い順
▁その神経がわからん
▁文字を大きくする
の戦隊ヒーロー
エジプトのピラミッドが
スティーラーズ
掲載をお考えの企業様へ
▁ビービットの
フリマアプリ
憐
凹凸ちゃんねる
ファイナンシャルプランナー
累積
が負担すべき
に陥り
を痛め
を賜り
を夢見て
の恐ろしさ
とでも思って
▁価格が高い順
▁ファッションとお洒落
お疲れさまでした
ランキングにも参加中
来年から豪華ホテルとして営業予定
冥
加湿器
鮫
▁月曜の朝に
まえだゆずこ
と投票しています
アタシ
モックネック
▁いたって機嫌はわがまま
▁条件付き送料無料
ディレクトリ
真っ向
適格機関投資家
どれほど巨大な
いつも応援ありがとう
でもなんでもない
さざえ
手づくり郷土
現代のマイノリティに
に行かなくていいんだ
Anyca
これを見たら実感できると思
の登録商標です
タペストリー
普及のカギは
調理済み食品
魚焼きグリル
携わった
クーデター
堆
むすび
アットホームな
壁の角
セレブが着用
牛すね
コンソーシアム
職業あるある集
こんな風に見える写真
の子供アスリート栄養満点ごはん
早めに避難する
みやざき
サミィ
貪欲
17:00
及ばない
ヒートテック
体の不調の
を育てている
わかさぎ
早退し
壌
函
病原体
一躍話題となった犬
テキサス
▁翻訳したらこうなった
またいでいる
常識をぶち破る
甲状腺
異例のフォロワー
はご遠慮下さい
臨床試験へ
堵
南部鉄器
対照的
未就学児
▁ステークホルダーの皆様
正しく表示されない
メッセ
NFL
産学官連携
▁すべての機能をご利用いただく
▁歌川たいじの書籍
がんウイルス療法
めかじき
右衛門
巻演技で首位フィギュア世界選手権
永久保存版
ハッシュタグ
猛烈に
転移がんをウイルス薬で退治
大気中の放射線量
データ分析を主軸
地道な
指定されたページが見つかりません
捗
のパブに
日経テレコン
広瀬すず
▁避難に時間がかかる
スウィフト
耳鼻咽喉科
コンピューティング
クロワッサン
が今のあなたを
キャセロール
と診断されました
▁ライフマガジン
有用な
に追い込まれ
ブログ村ランキングに参加して
平成十三年
ぇぇぇ
讃
この商品を含むブログを見る
ばるぼら
の一部改正に伴う経過措置
みずがめ座
新たな時代へ
記事のご紹介ありがとうございます
は忍活
匿名で投稿
最適化を図った
をしながら絵やマンガ
▁心の病
7,000
介護福祉士
バツイチ
▁クリックしてもらえると
あるものだけでほめられ弁当
於
▁薬膳の効能別レシピ検索
ビズリーチ
目からうろこ
香ばしい
真っ最中
瀕
ミシュラン
特化型
バフェット太郎の秘密の
板橋区
診療開始時間が早い順
込もうと
旦
を要しない
蔭
ゆとりあるシンプルな暮らし
carview
日々のあれこれを綴ってい
Ddog
嵌
焚き火
脆
桧家住宅
で申し訳ないのですが
マンツーマン
晩酌
から提供されています
▁先ずは
ぎょう
▁求人詳細
▁アトリエのある家
檎
過大評価
釈迦
メールマガジンを購読
Vita
語は話せない
具だくさんドレッシング
互いの
馴
てるんやが
轄
女寿司職人
棒読みあんてな
第五十六条
を交配し
防弾少年団
聴覚情報処理障害
耐えられれば
ドッキリ
閃
弧
赤ん坊
▁はてなブロガー
オフィシャル料理ブログ
ヒカキン
丿
日帝残滓
褐
現行犯逮捕
をご入力下さい
被害は数十
レシピの女王
夜なべ物販
かが謎だ
▁世界一怖いお化け屋敷
米連続増配高配当株
▁ブリリアンス
ヒストリー
舌平目
▁次期装輪装甲車
お爺ちゃん
ブドウ
雌
時間をかけられる
が個人情報保護委
ビキニ
気はイマイチ
生シラス
民の疑問
ラプソディ
号の影響により
ご覧になりたいページをお探し
▁今すぐ利用登録
ソメイヨシノ
喘息
一日一クリック
▁ペイトリオッツ
縁を切
賜
特定預金等契約
ディレクション
万ドルの賞金を
心療内科
ヒステリー
前年同期比
ゝ
猛烈な
日常で使いやすい
繁殖に成功
平成十四年
の仕業
飽
席に座
を忘れた方
第十一項
滑走路
ひとこまのイラスト
立替払
▁告知協力のお願い
が追突事故
汽
ダッチオーブン
が高まっている
お年玉
に輝いた
を守ろう
謬
▁メイちゃんノマチャン劇場
▁なまら
掲載されているすべてのコンテンツ
カラスが可愛
▁安心安全のため
まとまり
俸
きかつお
項及び第
第五十五条
挫
▁サッカーを頑張る息子の
してる絵日記ブログランキングに
シーホークスが
マイダーリン
覚せい剤
マシュマロ
利他的
定点観測
▁桑田佳祐大衆音楽史
しょーもない話も
かっとび
アメーバ
気で斬る
簡潔
▁毎日のごはん
完全性を保証するものでは
迎
とデジタル領域マーケティング
▁おかあさんといっしょ
と鳴くようになる
フワフワ
住所や電話番号等の個人情報
嘱
家庭菜園
✔
偵察
芥
分厚い
チーム森田の
フェニックス
草生える
忘
山林所得金額
抹
おうちごはんとおかしとねこ
スミマセン
▁おまじないとジンクス
璃
啓蒙
ズッキーニセロリ
プロッコリー
手羽元手羽先
スプリング
PIMCO
ココロのくらしニトリ
❓
ウェルスナビ
ハプニング
バツグン
人工知能など最先端
問題に対して解答を見つける
鶏軟骨
コミックアラカルト舞鶴鎮守府編
デベロッパー
バークレイズ
何気なく
目覚まし
華麗な
らたらの芽
加わって
に左右され
年に建てた自宅を
殖を行いながら特性の調査を継続し
新垣結衣
米中貿易戦争
ゲノム
闇が深すぎる
紫陽花
書かせていただいてます
食のみやこ
マニフェスト
行政機関の長
飄
▁やる夫で学ぶ
▁記事や画像
雪が降
を深めて
▁障がい者採用
地方整備局
第一項若しくは第二項
てへぺろ
陸前高田市
オッケー
▁静岡の整理収納アドバイザー
初表紙を飾る美バストチラリ
当サイト以外のウェブサイトの内容
筍
いたしかねます
煌
緻
マフィア
ホルホル
フェミニスト
航空券の決済日
ゴージャス
勿体ない
▁にゅーすなう
神保町
ゆぴこ
小さかった
にさらされ
大袈裟
鬼滅の刃
量的緩和
▁みれさんと同居生活
▁社会に対する取り組み
日中文化交流
楽しく貯金しながら
ヨーアンドマーレ
仮登録受付メール
手厚い
こんなんでクビになるのか
利害関係
ネクタイ
さようなら
▁EXP
▁パチスロバトルリーグ第
▁漏えい等の対応
こんな記事も読んで
非核化
エクスペリエンス
湊
松江市
に助けを求め
甚大な被害
▁配送方法と送料
どのようなものがありますか
デブでオタクで独身だけど猫がいる
代からの暮らしの整え方
跨
高校生の娘と
サカサカ
▁ストア出店
からできるだけ離れ
の株価予想
インプット
あかりとうたのディズニー日記
つっぱり棒
詩織さん
エリザベス
麺好い
どなたか
が保証され
に掲げ
無さそう
に限られ
冒涜
イッチャマン
▁時間を置いてから
喧
税引前
有り難うございます
▁このページを見ている人は
▁託児所あり
▁詳細は画像をクリック
人を尊敬する
小泉進次郎
親日国タイの反応
レジデンス
は予告なく削除
を体現
の留意点
▁不登校と鬱を乗り越えた
facebook
▁カラパイアの最新記事をお届け
マヌケ
キャバ嬢
明日の建設産業を担
電子計算機
▁困ったときに
じいちゃん
メールでご連絡
矛
ガタガタ
カスタマージャーニー
ご愛顧を賜りまして
の一切について責任を負う
明るさ
インスタにコメント
フォームから送ってください
このすば
見受けられ
みぃみぃ
具体例
インターフェース
大変感謝申し上げます
牢
の片隅で
講演会の資料
誰かの笑顔
Halloween
稜
普天間
九段ビル
弑
鹿児島国道事務所
肛
名倉潤と
アンチエイジング
引き継ぐ
宮根誠司さん
飛行機のエコノミークラスに
のクソコラ
カミソリ
一目瞭然
掟
ASEAN
皆様のご多幸をお祈りいたし
嘔吐
は他人のため
▁井上家の
▁こっちもよろしく
乗るとこうな
帖
の風物詩
薦
フラッグ
の定めるところにより
宇垣美里
ウォッチャー
オカメインコのマルとヨウムの福と
スパム扱いにな
ヘルマンリクガメのひでちゃん
はコメント欄を閉じさせて頂
新たな取り組みの
を上回って
ら覚醒する
平成十九年
記事のコメントを見る
ファイナンシャル
唸
瑛
シミュレーター
ワードはライブドア基準
スキマ時間
パーソナリティ
県内の建設企業等を対象とした
▁ご活用くださいませ
コーヒーを頼む
フルムーン旅行
六角川水系
▁この商品を含むブログ
`●)
が示され
おウチご飯
困りごと
揶揄
ネイマール
りコメントできなく
竣
オクサマ
リゾット
膿
臨場感
すてきな
とおもいます
平成二十四年
折りたた
むつみさんも
諾
市周辺の求人
ロクシタン
一覧からカラーとサイズを選択して
疲弊
̆
梓
皇太子
▁リサとガスパールタウン
データマイニング
アメニティ
コマーシャル
古き良き
育児や日常
回決算型
責任投資について
遠い先だと思っていたのに
キセキ
気鋭の
絶大な
時間をおいて再度
茅
赤坂見附
給与手渡し
読ませていただいてます
起こらない
メダリスト
大迫勇也
▁すらるど
いばってます
弱火で
の用に供
イデア
三びきのやぎのがらがらどん
営業日以内に出荷予定
環境影響評価
おっさんずラブ
ずうずうしい
時台に配信中
毎日が発見ネット
発症から通院まで
▁いつも見に来てくれて
と管理人が判断した
としてアップされた
交互に
立入検査
さそり座
送りたいわー
イメチェン
模倣
立命館
初月無料
お客様本位の業務運営
▁ヨッピーが
まぜそば
美瑛町
お悔やみ
スリーピングドッグス
の第一人者
戴
事業年度分の法人の
伝わらなさそう
障害者手帳を貰
大聖堂
塩コショウ
並べ替える
押し目買い
の公立図書館
氏名又は名称
▁ほかの特集を
with
記事への反応
通用し
真に受け
よもぎくん
をご覧いただくには
気になった生活スレまとめ
翔泳社
鵜呑みに
不適切なレビューを
同志社
▁重ねづけ
に切替える
正当性
お嬢様
表示されない場合は
相模原市
撤
三月三十一日までの間に
に届け出なければならない
アメフト
弊社の年末年始の営業
僧侶
に呆れ声
不条理
二十歳街道まっしぐら
歓送迎会
かじやんさん
フロントロウ編集部
特別養護老人ホーム
ハシゴ
アムンディ
ダイヤモンドでプロポーズ
寄り添って
▁並べ替え
のメールフォームからお願いします
▁検索をお試し
ブレーメン
キャロル
ストリーミング
フラペチーノ
▁器に盛って
払戻金
竿
共和党
切り拓く
質問者さん
鎌
濤
無降雨時
カーディガン
前方不注意が原因か
日教組
▁九州地方整備局管内
いっつも
▁来てくださってありがとうござ
教えられ
ページが存在しません
ちょと保育園
キキジジ
栽
政権を握っているのは総理大臣だけ
▁資金決済法に基づく表示
ハンガリー
メダカ
荻窪
跳
おとめ座
シュワルツェネッガー
翁
重いハナシ
閲覧は自己責任でお願い
中高年の方活躍中
正論をかま
紹介予定派遣
ジキキ
▁にゃんにゃん
ことごとく
生い立ち
が不可欠
を割り込む
少なすぎ
当ブログで紹介している
年に妻のちこ太郎と共に大阪
シンプリスト
フレグランス
▁ログインしてコメントを書く
さっぽろ
オイスターソース
何でもかんでも
慕
がお求めになりやすい価格となって
工業標準化法
焙煎
サスペンス
社会保険加入推進地域会議
地域おこし協力隊
ティール組織
かつお節
騨
タロちゃん
再読込
の進捗状況
実食レポ
ホットペッパーグルメ
ギルバート
▁朝夕食付き
▁水沼貴史が語る
シュトーレン
電話がつながりにくい
テナント
スタンプしたユーザー
人を選んでる
記事の途中ですが
扮
人身事故
幸福の科学
親から結婚しろ
手羽先
戦勝国
凱旋
パウンド
大雑把
▁半角数字を入力してください
ったら激震だよな
オーナメント
ジャンプでフェミニズム漫画をや
出航日の
静かにしていられない
🎶
頓挫
厩
怜
はお受けできません
ビビる
円を控除した金額
平成二十五年
貶
ご不便をおかけ
経費は大会組織委員会
▁菅長官
召し上がって
脇が甘すぎ
ではなかろうか
ポスティング
最上階
すさまじい
▁どうしたらいいでしょうか
繋げて
食欲の秋
率先して
第四十三条
▁あおもり
木更津
烏骨鶏
▁ひとり親家庭
きみといっしょに
ゲリラ
轟
業界では当たり前
ほざいて
炒
▁皆様にはご迷惑をお掛けし
技術上の基準
テレビ局もスポンサーも頭おかしい
倉持由香さんと結婚
心遣い
第四十九条
倍儲かる秘密のヒント
あるものだけでおつまみごはん
がもたらしたもの
ことをしたせいで
品種登録を受ける者の名称
ブツブツ
頷
リミテッド
特別土地保有税
メルロコ一家
フランチャイズ
(^▽^;)
▁この銘柄を見た人はこんな銘柄
で気持ち悪がられて炎上してしまう
ゆうかりん
抱っこだ立つんだ揺れるんだ
統合失調症
ちっちゃい
カスタード
徳井さんの件
下ろす
平成十二年
リクルートメディカルキャリア
公序良俗
完全スルーの闇
サンプリング
すごーく
コードの受入れ
分かち合
浮世絵
蝦
ことを保証する
親しまれ
領収証
あおいのお手をはいしゃく
挙げ句
部分をスキップし
をゆるりと
男の気持ちがわから
ポタージュ
梯
みょん
加わった
フォームよりご連絡ください
▁ライフストーリーを
穢
オリエンタル
世界の猟奇殺人者
粒マスタード
子育て楽じゃありません
興味津々
写真の無断転載を禁じます
はさておき
質問に答え
手間がかか
分配金再投資
フォルム
片っ端から
凡人すたいる
機動戦士ガンダム
滲
▁勝手なお願い
に至っては
いざというとき
と名付けられ
変更となる場合がございます
8,000
第六十八条
コンテンツとしての公開は翌週以降
東洋インキ
秤
夏バテ
おうちでもできる
彫
斉
責任を取
に対して課する固定資産税について
財務諸表
▁性別をご選択
つのランキングに参加中です
楚
転生したらスライムだった件
湯川裕司
ゴブリン
には何もありません
(^^;;
よしながふみ
鍼灸
NEXCO
あおいの恋の悪知恵
この素晴らしい世界に祝福を
をご負担いただく場合があります
を手伝ってくれる人を募集します
▁大変申し訳ありませんが
保険マンモス
靭
▁どうかご理解
にこにこ
第六十六条
どうしたらよいの
ハム速について
少額短期保険
薩
ひーたむの
▁某投資顧問のアドバイザー
あっけらかん
から何が変わったのか
兼業主婦
職場のストレスセルフチェック
隕
からの脱却
慨
おつきあい
ニワトリ
なければいけません
散らして
ブロック発注者協議会
透析
爵
▁ブラック企業の思い出
今日は何の日
風邪をひ
人気洋菓子店の外観を無断使用
▁ようこそゲスト様
もぐもぐ
振り込め詐欺
牝
躁
憫
リゾーツ
糠
対話する気がある
日本大使館が公認取
ずにはいられ
地域の実情に応じた
インターエデュ
[11/03]
▁連続写真で見る
が生々しすぎると話題に
スピリチュアル
安楽死が合法化され
発注情報の一元化について
プロパティ
光ファイバ
が女性にモテ
ビビって
を生物学的
剰余金
元気ママ応援プロジェクト
TWICE
のアビシニアン
贄
曝
繁華街
の宝庫
人の子ども育ててます
四捨五入
執筆のきっかけは
過去に負った
偽レビュー作りまくる不届者の正体
損失が生じるおそれがあります
エンブレム
に欠ける
伝わった
毎週火曜
化合物
ニーズに応え
としか思え
凸版印刷
現実逃避
を全てクリアする
オードブル
こもちん
萬
ぎりぎり
ヒルクライム
匙
瀬戸内海
毎月分配型
決算説明会動画
付き添い
▁当ウェブサ
に来られ
力がどうしようもな
揉
ドライブがてら
外貨建資産
ゎ
存じ上げます
寅
一念発起
鈴木優香ちゃん
正社員雇用す
媒
第二項及び第三項
第七十五条
弐
▁長男たくの誕生日
環境に配慮した企業活動
祷
小さな建売住宅
首を絞め
樺
資格認定制度
手掛けた
取り外し
ジャッジ
天真爛漫
ホイル焼き
年の瀬も押し
むちゃくちゃ
手を差し伸べ
近づいた
を完成させ
幡
徐
伊方発電所
に際しての留意事項
食洗機
Flash
▁政治と経済
スチール
新天地
ないといけません
平成二十三年
入札参加資格
のプログレッシブな日々
趣味の園芸
一読ください
振られ
キャラデザ
ご多用のことと
クレメンス
囁
▁ヘビイチゴです
エスカレート
ファンデーション
トカゲ
燃料費調整単価のお知らせ
に起因する
from
請け負
▁盛るだけつめるだけ
▁このブログを描いている人
光熱費
噺
米中改善期待で
▁他のランキングを見る
ジャストコーズ
真珠湾
有り得ない
マンガで描いて
ービスの問題点
課税総所得金額
マネージメント
第三者への提供
😢
▁サイトのご利用条件
ティクス企業が世界を目指す理由
外交的欠礼
福島民友
日本図書館協会認定司書制度
スピンオフ
成功例多
くまもと森都心プラザ
本塁打
気軽な
大韓航空
2019.0
締めくく
義務を負
をおこなって
pgr
繕
撰
バイナリーオプション
▁ゲイカップル
お客様本位の業務運営に関する方針
における市場予測と
は最高の被写体
欠かさず
野立て太陽光のコンサル
ヴェリタス
浮かんだ
第六十三条
プロトコル
チルドレン
▁みやぎのお医者さんガイド
▁世間は狭い
Togetter
前年同月比
猫じゃらし
領域のマーケティング施策
ヒップシート
法律第八十
を乗じて計算した金額
筑後川水系渇水調整連絡会
ミディアム
文京区
InternetExplorer
さぶろー山
▁個人情報のお取り扱いについて
のリーディングカンパニー
上戸彩
凪
惰
麻婆豆腐
▁━━
輿
あいちトリエンナーレ
ラインでお知らせします
繁忙期
罹
どう思いますか
に覆われ
官庁施設保全連絡会議
をモチーフにした
雪だるま
ホイップ
を一元化し
徴税吏員
ジェラート
具だくさん
▁座右の銘は
同性愛者のサッカー選手
JHS
大々的に
バイリンガルへの道
私物化
書いちゃ
主務大臣
醒
まっしぐら
バフェット
郁
ガガガ文庫
の大掃除がラクに
アスリートの台所事情
れいわ新選組
鈴木美鈴
に耳を傾け
擦
だまされ
から読んでいただ
第七百一条の
▁※※※
▁サイト内共通メニュー
各社の商標または登録商標です
香ばしく
ブラッシング
心鷲掴み
牟
蝕
課税標準額
県踏切道改良協議会
BOATRACE
卒業後の進路と
ストロベリー
▁中田敦彦
日々奮闘中です
マグニチュード
今すぐ無料ダウンロード
老若男女
ブログ内の写真
協定を締結
ちの休日ごはん
鉾
貪
モッシュッシュコメント
婿
ゲッティイメージズ
文科省
せり売形式
当情報の内容は各
掲載テレビ撮影コラムなどメディア
水曜日のダウンタウン
ぼったくり
電子調達システム
泌尿器科
脳神経外科
が亡くなり
櫻
まんまアミーゴ
小学三年生
右岸流域
まさきの一日
かい離率
八つ当たり
種牡馬
💢
wiki
総務省統計局
頼もしい
のメンバーで一番の
CNBC
砂防復旧技術検討委員会
この差って何ですか
蟲
▁人力検索はてな
をめざす
キャサリン
ほったらかし
屋久島
▁このページの上部
なる話題満載
を念頭に
または一部を無断で
▁とっても便利だし読者にな
おりぇくん
の向くままに
毎月決算型
とは限りません
ポテチ
サトシ
違反の疑いで逮捕
手塚治虫
▁違反商品の申告
僕のヒーローアカデミア
平成二十年
ハウジング
桜木町
ガベージニュース
手羽元
Yeah
▁キャリアなどに興味はない
ややこしい
スポーツ報知
バイオレンス
▁ゆうパック運転手
まどぐち
レスキューナウ
国有地
露骨に
いただくようお願い
ければ読みやすい
をおこなう
のひとこま
浮動小数点
片づけ習慣コンサルタント
信憑性
横田増生
▁今日は猫の日
ぬくもり
大田区
更新連絡を受け取
も少なくありません
尋ねた
に囚われ
を悪化させ
獏
注文確認画面にて
も負いかねます
アワビ
レプリカ
ぶちまけ
踏ん張
二分の一
君の絵は
起こさない
▁たっちゃんずパンケーキ部
▁今月のおすすめ優待
▁無印良品オススメのモノ
換気扇
西野七瀬
メレンゲ
清掃兼油回収船
通り越して
おこなわれ
夜霧よ今夜も有難う
いちじく
しまくとぅば
オキシ
ハーモニー
ポータブル
画像クリックで記事にとぶ
ひどかった
テイルズ
呟いてます
持続可能な開発目標
田原総一朗
チカ母チカ父
反社会的勢力に対する基本方針
危険が迫る
ヒルナンデス
リラクゼーション
ソウルドアウト
キャッチャー
うちのこざんまい
バーンスタイン
ワタシの独壇場
エシカル
赤ずきん
クローズアップ
レビュアー
違約金
$
遠賀川水系
をもちまして
庶
ご迷惑をお掛け
▁選考基準は
賂
ウンザリ
youtube
沌
💓
marimo
デッサン
シルバニア
随意契約
オールインワン
ビッグレースの現場
浅田真央
叉
茨木市
では一生幸せになれないってことよ
笑うメディアクレイジー
葡
返信リツイートお気に入り
阿鼻叫喚
坦
▁忙しいときでもスグ
すばやく
トイプードル
この人には返
から起算して
長期信用銀行
弊
▁山火事で
精鋭ライター達が
殲
に起因するいかなる損害
をはげます会
スタンプラリー
⚫
金融商品取引法に基づく表示
未登録車
第五十二条の六十
ウロウロ
年度九州地方整備局における
邁
お探しのページを見つけることが
おしゃれな空間とロケ地と観光風景
へ戻っていく
写真の撮り方
コーデュロイ
名探偵コナン
祓
超高画質
新木優子
対策を講じ
函館の飲み食い
平成十年
▁他のキーワードでもう一度
おばさんデイズ
辻元清美
ほくでん
吃
ひだまりマーチ
古事記
降水量
切磋琢磨
よびかけ
珠理奈
電動アシスト自転車
マチネの終わりに
カトラリー
ウェールズ
法律の施行に関し必要な経過措置
交通量について
スティーヴン
自転車に乗
6,000
潟
└
吸血鬼
アウトソーシング
両親の死の真相
寇
のラブレター
傭
お声がけ
貴乃花
アニメ感想ツイートまとめ
に先駆けて
蔦
所得割の額
フィデリティ
済未使用車
ハーゲンダッツ
あじゃじゃしたー
ランキングが上がる仕組みです
関東大震災
乗務員
WSJ
ぐっすり
トリップアドバイザー
フロリダ
お父様
▁何かお仕事があ
強制送還
東海道新幹線
元本が保証されているものでは
人付き合いの処方箋
安室奈美恵
セレブファッションブログ
▁一つ一つありがたく読ませて
🔴
キャプチャ
第五十四条
災害救助犬
を正しくご利用いただくには
中国四国九州
淋
面白くて可愛いあーさん
アイシャドウ
月の営業情報
まんまみーあ
マサオ
お姫様
お仕事のご依頼やお問い合わせは
と話題になっているようです
赦
練馬区
今まで生きてきて凄く衝撃的だった
▁乳がん闘病記
と押して頂けると喜びます
四万十
ご無沙汰
価格の安い順
方程式
発注情報を一元化
ごり押し
応援お願いしま
賦
に改める部分
▁進級問題
▁お仕事用のアドレス
▁買い予想上昇
年中無休
号に掲げる規定の施行の日
とっておきの冷凍作りおき
類似案件の落札情報も
動物愛護
近藤春菜
▁女の人間関係はめんどうなのよ
更新すると通知
なく楽しいモッシュッシュコメント
パン耳さん
特定商取引に関する法律
あの人があなた
ヴィクトリア
Edy
▁地域密着をコンセプト
電子書籍が読み放題
自賠責
ジュニアゴルフコーチの育成
田代まさし容疑者逮捕
遊戯王
お出迎え
サンショウウオ
広告企画のご案内
永久不滅ポイント
▁TRAVELSTAR
お婆ちゃん
らすぐわかります
もてなしごはん
第三百四十九条の三
東北地方太平洋沖地震
ジェニファー
仕事探しに役立つ最新の
豚バラ薄切り肉
XboxOne
お店みせて
service
ハミルトン
フライドポテト
高校入学組
膏
ご自身の判断と責任において
ごあんない
でブログの更新をお知らせ
到
▁消滅した元彼とのこと
斧
▁このレシピに関連する
巫
極まりない
BTS
第十三号
茨
アディダス
に対して課すべき
東京ビッグサイト
ITmedia
フフフ
交際中の一般男性と結婚
放送事故級の映像に視聴者大興奮
生まれの水瓶座
適時開示
吉岡里帆
渋野日向子
ビブリオバトル
風力発電
の代名詞
の上限に達しました
をご体験ください
出前授業
マジョルカ
眞子さま
💪
引っ張られ
地震補償保険
學
▁こよなく愛する
を命ずることができる
昭恵夫人
▁人気のこだわり条件
ケンタッキー
cotta
ご不明点
アダプタ
ウェアラブル
SQL
の施行の日から施行
ロペス
惜
トラフィック
▁ご迷惑おかけいたします
▁さわかみ投信
クリントン
想いを寄せる
アプデ
断ち切
お探しいただけます
ower
ブロック土木部長等会議
クリティカル
😱
▁個人情報のお取扱いについて
つぼゆりの発酵女子カルテ
マスキングテープ
マンチェスター
ワタシの独擅場
続きをお読みいただけます
TOKIO
篭
リラックマ
片づかない
翠
個人型確定拠出年金
児童ポルノ
ガバガバ
苦情処理措置及び紛争解決措置
▁コメントの返信と
▁儲かるマーケティング法則
取り残され
平成二十二年
盟
第七十条
PHS
松岡茉優
明石家さんま
▁キアヌ
▁ライブドア大忘年会で
クアラルンプール
▁指定されたページまたはファイル
時もあるかと思いますが
読み込みに時間がかかって
買って正解大賞
デタラメ
ボラティリティ
▁放課後等デイ
個人の見解であ
窟
エルニーニョ
国税局インターネット公売
ポニーテール
を余儀なくされ
中居正広
どうなりますか
行わなければならない
複数選択可
鉛
オールブラックス
わんぱく
災害対策等緊急事業推進費
ウィッグ
仁義なき戦い
ぐちゃぐちゃ
▁お店限定のお得な情報
お手数お掛けします
どっとこむ
戦略的な入札が可能
に関する規定の適用
親孝行
心躍る
読み解き
スプリンクラー
脱炭素化
整合性
牧師家庭
武勇伝
金オンチの私にもわかるように家計
エマージング
平成三十年
その実生の中から選抜
距離が縮ま
ブレード
餃子の王将
カバードコール戦略
(*^-^*)
で受け取れるようになりました
雨が降って
俳
▁初めてうつ病になった話
公認会計士
デジタルシフトを推進する
こちらにお書きください
を目指そう
厚く御礼申し上げます
を浮かべ
グラニュー糖
キャバクラ
の転勤族で
福岡財務支局
ユベントス
自閉症児こもたろとその
ゆりかもめ
ぷにんぷ妊婦
東宝ハウス川口
価格の高い順
百田尚樹
プロセッサ
ケネディ
ノベルティ
アソシエイション
トランザクション
HTTP
トライアスロン
お許しください
見逃せない
パティシエ
球磨川治水対策協議会
なんらかの
たまらなく
お手数をおかけいたしますが
グンゼ
後遺症
▁発送日までの日数
株価の値動きから探す
社員登用制度あり
▁法人会員について
ストレス発散
琵琶湖
市教委
大谷翔平
の間で一人称
コシヒカリ
福島県議選
八村塁
いつも見に来てくださり
の素晴らしさ
糸引くキス
別途料金が発生する
お探しいただくか
林家正蔵
チャットボット
いい暮らしがしたい
おばバカ日誌
デジタル大辞泉
▁資金の借入
なんでもかんでも
井上尚弥
赤外線
うんぬん
熱さ対策へ天才すぎる策
ファビョ
アクアカタリスト
酔っ払い
▁株探プレミアムのご紹介
ジッジ
もふもふ
二子玉川
今日もワイン部
白血病
一時的に利用できない
追っかけ
ればよいのでは
捨
住民基本台帳
無料版をお試し
県内に勤務地多数
▁県土づくり
セラピスト
ブレスレット
ごきげん
たびゲーター
岩盤浴
素晴らしく
取っ手
でログインいただけ
平成二十九年
商品の再送
閑静な
純血種
いっちょまえ姉妹を育てています
はどんな案件を落札しているのか
グラデーション
酔っ払って
考古学
解き明か
CanCam
きのう何食べた
試写会
アーセナル
サコッシュ
フェードアウト
ジレンマ
ハーレム
シャフト
村卓也
する羽目に
ナチュラルフードコーディネーター
新着求人をメールで受け取る
大学入学共通テスト
大東亜
翻弄される
今行きたい旬
カレッジ
グラッドキューブ
手島章斗
新情報が受け取れます
契約を締結する必要があり
秋刀魚
杉並区
アーノルド
▁良かったらフォローしてね
見逃さない
劇訳表示
シアワセ
三井物産
コラムニスト
内視鏡
アナとクリストフの恋
ぽっちっと読者登録お願いします
パソコンがない時代
素朴な和のおやつ
コスチューム
日本赤十字社
ちょいボケな
と見なされ
スキャナ
准
Firefox
することは固く禁じ
ゆきぽよ
ぎっしり
疑心暗鬼
宗主国
かたくりこ
必要な措置をとる
ジンバブエ
▁昨日の更新記事
Data
滋
STUDIO
まいほーむ
セーラームーン
武内駿輔さん
ファミ通
ヱ
御座います
るぅのおいしいうちごはん
ウィンドウで開きます
上沼恵美子
海の中道海浜公園
資生堂
反抗期男子観察日記
は君に注目している
ニトリで買って良かったもの
モウリーニョ
一部運転見合わせ
万本でトップレベル
今年一番の感動
犬ネコと暮ら
ニューオータニ
日露戦争
脳梗塞
LOHACO
多角的
乏
コンペティション
(^◇^;)
▁無料の名作映画
▁少女時代テヨン
エルドアン
無慈悲な
現在進行形
▁ログインパスワードを忘れた
▁他のお薦め記事
エンターキーを押す
有限会社おしぼり長崎
らぁめん
安易な
▁ぷにぷにの息子たちを
手伝う
▁外部サービスとの
パッチ内容のお
▁株テーマから探す
さといもな日々
少ないもので生活
彼が消滅したヲタ彼女でぃーぷろぐ
ザクザク
意識高い系
薄っぺら
取り戻せ
注文内容確認
漢方薬
民間競争入札実施要項
JICA
ビートたけし
ヤフコメ
大反響郷愁にかられるアナログ世代
星取県
江ノ島
Life
万円を荒稼ぎ
弊社サービスをご利用くださいま
ちりめんじゃこ
ハローワーク
みかじめ料
引き締ま
入金確認後
損益計算書
エメラルド
ダミー人形
勿体無い
引っ越す
賜りますよう
役務提供事業者
改正後のそれぞれの法律
当番医
超次元量子学の問題とその解法
ひょっとして
一石二鳥
感情移入
総集編
の方からのご寄付
を身に着け
顕微鏡
浅丘ルリ子さん
Yuu
が衰えており
ヲタママだっていーじゃない
不特定多数
超常現象
ぷにぷに
言葉遣い
に役立つ情報を配信してい
自家用車
立ち止ま
トリュフ
お気軽にお寄せ
蒙
▁製菓衛生師
入札市場での動きを追うことも可能
猫川たら子
紐解く
遺品整理
サファリ
開会式
よろしければ応援クリックお願い
日常を漫画に
軽油引取税
スキャニング
ドタキャン
▁平安貴族
だからあなたは結婚できない
ヒアルロン酸
無期懲役求刑
一歩を踏み出
れている会社の話
ソーシャルレンディング
レイシスト
▁写真でみる復興
ハレの日ごはん
関連機関へのリンク
お買い求め
ご留意ください
東京ヴェルディ
Youtube
自動車取得税
市営地下鉄
全内幕
を漂わせている
富士急ハイランド
年功序列
暮らしたいと願ってい
オマージュ
JIPDEC
グッジョブ
体調が悪いだ
稲垣吾郎
トップページからお探し
アクセサリー手作り体験
役に立てたらいいなと
株式諸手続き
琉球新報
セゾン資産形成の達人ファンド
ホイホイ
横溝正史
見習え
コピーが完了し
不審者扱いで
辱
つけびの村
架け橋
▁毎日の暮らしを
社会保険加入に積極的に取り組
▁今日のパパ弁
ギャラクシー
ニトリで収納インテリア
リフィニティブ
内のよく見られている
矢で射られ
ふわっふわ
昨日の晩ゴハン
の遵守を宣言する
解き放
▁プレゼントが決ま
第十二項
へと向か
からあげ捜査官
余計な物を持たない
創価学会
八重洲
アヒージョ
便で発送いたします
突実験カートのカプセルトイが登場
ぴょん
慰安所
に係る特別の料金の徴収の有無及び
祝祭日
の掲載商品価格は
フィデューシャリー
中火で熱し
▁中高まなびプロジェクト
ファン大盛り上がり
フルボッコ
ちくま文庫
来社不要
見つからず
別段の定めがあるものを除
白身魚
引き寄せ片づけ術
第三百二十一条の
Ameba
インタフェース
積立投資効果をシミュレーション
▁迷子の子犬
三原じゅん子議員
サイレント
本サイトに掲載されている情報
件登録されてい
的に売り上げに繋げ
蕾
リスグラシュー
うちのロボット掃除機
シンフォギア
小説高橋是清第
被爆者
過去のセミナー開催実績
中期経営計画
地政学
羨
平成二十一年
いつでも解除でき
第六十二条
ヒロに謝れヒロに謝れ
コレキヨ
も演出も撮影も
フランクフルト
プロジェクター
女性の活躍推進
恐るべし
▁お探しのページまたはファイルが
から派遣のお仕事を探す
るマーケティングを支援しています
センノハマ神父
ホルムズ海峡
心や体の悩み
感慨深い
セネガル
ゼットン
宣戦布告
WordPress
二階堂ふみ
CLUB
マイクロソフト株式会社より発売
▁顧客本位の業務運営
情報提供者に帰属し
日本工業規格
パブリッシング
Smart
▁ナタリーストアの商品
▁高配当利回り株
日々の気づきや思いを記録
フォレスト
潜んでい
文字サイズを変更
隈
愉快な毎日
へこみ直し
サンタクロース
ジョギング
司令官
▁漁業者と連携して浅海域の
GHQ
プレジデント
ストライプ
投資勧誘を目的として
マドンナ
法律第五十
イチャイチャ
愛してやまない
歳女性の葛藤大塚玲子
ニュージーランドで暮らしてい
因果関係
Precious
済州島
地区第一種市街地再開発事業
予約患者のみ
励まされ
ガスを排出する
コンセンサス
自閉症スペクトラム
HSBC
▁かぼ父さん
▁事業等のリスク
の決定的な違い
やまだめがね
スキャルピング
インスパイア
無料版を試してみ
知的財産権その他一切の権利は
第二次大戦
第百八条
箸の持ち方
村上春樹
データが存在しません
二周忌まで
人生の棚卸中
社協の動きなど
日々をつづった
重度知的障
同表の下欄に掲げる
求める人物像
日経産業新聞
honto
マドレーヌ
ご自愛ください
その他のエピソードはこちら
パッシブ
レーティング中立を据置き
香取慎吾
保険契約者保護機構
営業所又は事務所
剰
朽
匂
濫
咽
遷
瞭
紳
槌
劫
尼
緯
紘
峡
梗
据
勿
濡
欺
逞
叢
稔
哨
績
昆
爽
褒
侶
匿
董
慌
邑
捉
痺
挺
菱
埼
礎
汰
酌
苔
悼
妊
摯
勧
墜
齊
哺
捏
胞
姦
惹
媚
鞠
紹
頸
累
匡
維
幌
屍
衡
勃
琢
諦
畿
渚
會
冗
耗
隷
樋
撲
午
采
吏
碗
欅
嗜
迅
僅
莫
酬
殊
藝
惚
鵬
碁
灸
妥
倣
剋
坐
僚
揮
戟
瘍
凱
栃
披
侠
爛
冒
謗
繊
誹
蝉
燻
柑
琉
魯
渉
賽
療
唆
綺
姜
́
糾
瞑
玩
倶
抽
拉
閥
▷
儒
碍
捧
渾
憩
洪
聯
較
滓
訂
晦
郵
些
詮
把
距
鍼
迦
燥
嫉
裟
殆
惣
涯
瞰
斐
喘
涛
醍
窃
醐
溢
獅
昧
贅
后
齋
膚
肖
痩
袈
槿
酵
訟
蔽
桧
汎
俯
蔓
洩
舶
努
Φ
酎
璧
旺
憧
湘
痢
措
猶
購
傲
械
琶
遵
曰
應
焙
貿
餃
暫
諮
梱
媛
偵
犠
穫
綻
拐
姻
漠
且
賠
粧
嘔
祇
戚
茹
吠
薯
讐
雰
茄
蕎
唖
析
舛
伎
肯
阜
該
搭
淘
濯
矯
疲
爬
琲
践
訃
訣
擅
郊
舐
妨
彗
娠
叔
秩
珈
剖
惧
顛
娯
剪
椅
揶
挨
祉
頒
舫
氾
循
淹
眺
彙
繍
蠣
薔
牲
鹸
拷
焉
憾
嚇
陛
冤
曖
磋
薇
拶
►
̄
琵
猾
擢
彿
徘
徊
泄
贔
屓
峙
奄
蛛
踪
遽
萄
娩
閖
躇
忖
恫
墟
愕
乖
肪
劾
諏
噌
揄
涜
嘩
逮
