[PAD]
[EOS]
[UNK]
[CLS]
[SEP]
[MASK]
、
の
に
。
は
て
た
を
と
が
で
し
も
1
「
」
ある
年
から
な
れ
2
さ
ない
いる
こと
（
）
か
だ
・
する
その
9
い
へ
月
もの
一
3
お
それ
0
日
いう
この
—
よう
人
や
8
5
4
…
6
なっ
7
ん
あっ
的
ば
私
　
中
です
まし
あり
など
れる
『
まで
者
』
これ
なる
見
また
つ
ます
大
後
より
彼
られ
ため
時
何
ず
##っ
##り
##い
00
日本
上
##し
二
なく
家
さん
-
よ
せ
そう
来
なら
三
なかっ
第
なり
事
手
##つ
ぬ
前
自分
ね
方
##く
出
間
ながら
s
a
小
ら
##子
目
##き
どう
ところ
##ら
だっ
##る
ませ
市
だけ
き
下
国
##れ
本
今
女
気
しかし
御
十
所
##み
つい
ゐる
そして
##ん
名
##か
c
)
.
(
心
山
もう
たち
県
i
たり
？
##め
m
n
よっ
いっ
そこ
長
水
おり
不
！
他
やう
おい
##す
b
新
等
内
顔
いふ
##ラ
##え
##ク
ゐ
##ス
##リ
##ル
##田
##さ
男
ア
行っ
五
##ッ
君
度
あの
町
部
物
四
られる
いい
よる
"
大学
e
高
金
あ
うち
ばかり
##ー
車
##々
時代
生
d
ほど
t
無
##う
み
f
考え
性
##タ
学校
代
同
,
眼
##ン
地
会
話
##け
僕
様
八
分
##人
世界
子
たら
学
じゃ
##ナ
場合
いつ
##ひ
口
現在
軍
たい
声
よく
##山
とも
風
そんな
あつ
人間
回
##イ
こう
神
##ツ
外
知ら
化
東京
##ア
見る
一人
駅
o
道
とき
##ロ
線
語
多く
##わ
る
数
戦
氏
##チ
p
h
彼女
##ま
でき
かけ
力
次
だろう
夜
万
ここ
##ウ
なけれ
位
す
村
実
得
法
公
母
ま
受け
##せ
花
同じ
六
形
##シ
頭
r
##む
東
身
のみ
機
行く
西
まだ
g
放送
k
でし
元
父
マ
さう
##ト
出し
わ
##・
二人
##カ
川
##ド
##川
カ
まま
たる
初
##ニ
先
七
思っ
けれど
##a
##ム
しまっ
来る
白
##e
研究
あろう
できる
アメリカ
なつ
石
作品
##物
##コ
全
共
出来
北
##フ
用
思い
##じ
##オ
生活
う
対し
べき
少し
号
世
居
ハ
##ック
l
##ろ
エ
音
くれ
誰
行わ
点
体
海
##ール
##t
通り
##マ
##レ
見え
存在
##リー
こ
頃
##ノ
言っ
時間
当時
##び
問題
##s
又
ただ
別
南
／
達
真
持っ
##ブ
サ
コ
あなた
思う
言葉
居る
屋
天
リ
ねえ
なお
ス
らしい
ござい
##i
州
##o
##スト
意味
##ぎ
##へ
##ふ
木
重
##の
歳
##ズ
##キ
社会
なん
せる
其
郡
u
今日
オ
立
##は
子供
正
＼
って
足
昭和
云っ
空
姿
両
娘
##しく
##ミ
##ット
以上
使用
関係
##上
九
云う
##える
大きな
色
##地
##y
社
朝
どこ
##ち
お前
場
王
あれ
取り
##エ
こんな
j
##野
自身
映画
光
ひ
v
でしょう
活動
選手
バ
シ
ノ
ぞ
馬
先生
##た
船
##バ
平
必要
く
円
感じ
イ
##道
ほか
##が
w
わけ
てる
歌
島
会社
館
寺
文
##ジ
書
思わ
##て
##れる
##ネ
すぐ
##しい
##d
ラ
主
|
型
やっ
レ
##木
##ガ
##グ
##手
なかつ
式
可能
美
##出
行
持つ
##中
相
呼ば
曲
##名
城
##ダ
安
多
##内
区
多い
いや
つけ
##島
権
##プ
二十
##下
通
主義
ク
ふ
松
此
店
作
え
##こ
##な
半
例
発
赤
院
着
ど
##生
##と
##口
ご
パ
くる
知れ
##家
一般
##テ
おけ
ロ
##er
各
引き
##行
約
テレビ
##吉
番組
番
##井
土
にて
む
および
面
横
自
##める
際
メ
側
有
##原
系
代表
##や
台
以下
自然
酒
旧
首
官
古
急
##ば
中心
##l
ド
キ
##場
ひと
##長
愛
現
##ディ
##ビ
##気
##サ
左
さらに
##色
教
局
##水
党
役
わたし
ミ
出身
常
春
文化
立ち
明治
火
人々
まい
奥
とっ
モ
引
なし
##日
部屋
##p
最も
清
野
デ
##出し
客
/
##屋
ト
事件
結果
経
一部
直
文学
発売
##ける
地域
明
聞い
フランス
室
##町
##者
音楽
死
：
一方
##国
##事
開発
##ティ
同年
之
しか
もっ
フ
##げ
##村
ち
雪
千
どんな
戦争
##ケ
##面
書い
始め
入れ
##体
入
総
タ
言う
セ
発表
変
親
地方
:
主人
##デ
胸
都
ツ
ル
##ヤ
行き
版
##c
##力
##ぐ
妻
##する
枚
種
ナ
##かし
ニ
##部
入っ
##ーン
##モ
歴史
しよう
最初
自由
強
黒
仕事
賞
さえ
勝
すべて
##ゴ
右
兄
鉄道
##見
##ート
##u
##合
論
よい
ドイツ
プロ
期
##馬
あら
なか
対
青
##方
##法
##g
##an
##ね
対する
##ター
利用
##然
##m
皆
記録
流
教育
いく
立っ
##メ
知っ
用い
##文
秋
非常
同時
悪
あと
##数
##用
##所
すれ
最後
夢
##込ん
血
試合
さま
以降
信
云ふ
チーム
敵
##明
俺
ピ
草
我
ホ
##に
門
!
開始
出場
小説
裏
しまう
##かっ
品
特に
相手
##n
##ソ
##まっ
見せ
##谷
##ザ
位置
こそ
ウ
あまり
アル
江戸
##ハ
アン
登場
##風
政治
隊
##ラー
##心
ざる
##べ
科学
部分
為
百
平成
x
サン
参加
り
再
##一
話し
諸
##目
め
仕
もし
##だ
##r
ガ
定
入り
処
言い
やがて
反
全く
場所
和
##間
大会
窓
兵
申し
岩
当
##ぶ
若
高い
大阪
##al
ゲーム
##女
##頭
世紀
無い
##つけ
義
伝
丸
省
##本
生き
##作
若い
艦
なに
##リン
夏
田
及び
監督
やら
##らし
はじめ
落ち
##書
新聞
10
ましょう
帰っ
事業
ボ
持ち
早く
所属
##性
連
最
コン
老
余
ぢや
ゆ
見える
##ワ
計画
幾
寝
同様
##マン
ヒ
耳
##k
末
ダ
以外
片
シーズン
雨
原
來
自動
シリーズ
つつ
##en
国際
橋
##ント
ポ
実際
##平
イギリス
政府
ビ
中央
##b
リーグ
##動
成
影響
表
階
似
##ボ
異
過ぎ
昔
そ
与え
取
##セ
開催
##立
##太郎
初めて
座
##身
近
派
吉
科
事実
状態
病
ゝ
ほう
##イン
##ルト
##代
だつ
中国
茶
卒業
みんな
女性
テ
行う
##h
都市
少年
##門
解
人物
洋
ソ
##ース
広
鉄
##金
##年
##ず
1日
博士
＝
出る
目的
イン
##ップ
集
指
戸
委員
感
あたり
級
##in
それぞれ
武
ゆく
##分
ッ
経済
宮
##ーズ
開
非
以前
ほとんど
##石
##まり
務め
年間
なれ
##夫
優勝
運動
米
##州
紙
y
打
##よ
いま
##ード
バス
忘れ
出演
再び
夫
ブ
##ar
立て
##ヴィ
##リア
説
冷
流れ
あるいは
星
宿
死ん
藤
つか
字
芸術
向け
ああ
程
##線
根
##言
追
手紙
楽
ほ
いわ
発見
かつて
転
機関
精神
技術
長い
##形
%
設置
グ
教授
おれ
深
絵
##レー
組
士
##学
合
類
しまい
##f
出来る
電
##沢
民
新しい
ヘ
生まれ
##軍
##戦
みる
交
置い
太
歩い
詩
知
理由
##声
員
け
様子
利
##ろう
結婚
アルバム
葉
変更
三十
熱
決して
##パ
近く
##ど
建設
苦
食
やる
大きく
腹
言わ
いえ
ベ
##ベ
奴
方法
波
##やか
##化
団
助
悪い
マン
断
##前
チ
ちゃん
##バー
2010
加
##外
##ヴ
京都
森
やはり
得る
命
##大
夫人
思ひ
##ヌ
伊
やり
じ
晩
一緒
##着
関する
##楽
街
久
背
認め
##務
玉
##光
あげ
生産
自ら
殿
続け
乗
旅
獲得
於
行つ
げ
##w
ジ
##元
打ち
平次
史
ペ
藩
下さい
府
まあ
特
満
##ッド
竹
遊
落
組織
師
離れ
不思議
##も
鳥
##まる
林
##ラン
だらう
構成
攻撃
文字
故
妙
##入
担当
##ダー
##路
当初
立つ
群
##ヒ
腰
基
##業
決定
##on
##城
退
##和
つて
いずれ
小さな
切
早
宗
夕
設立
調査
##政
薬
もと
情報
弾
難
##津
聖
名前
遠
らしく
##ロー
雲
##葉
云つ
いけ
##上げ
##月
如く
##ナー
未
内容
高等
つき
##トン
画
増
しかも
発生
なさい
路
##橋
振り
はず
##世
個
ケ
##レン
訳
白い
##流
ひとり
##尾
庭
差
とり
選挙
##ご
源
祭
氣
考へ
販売
書き
好
ロシア
可
ザ
以来
##江
巻
##アン
思ふ
聞き
##意
言
##音
製
冬
さし
歩
##岡
つまり
##室
説明
##ない
犬
##そう
骨
思
帰
##兵衛
連れ
ム
どの
労働
逃げ
涙
##勢
地区
##兵
荒
肩
業
わが
河
程度
押し
##ニー
##味
美しい
支
##かい
##ゼ
作家
思つ
量
##よう
##ックス
要
デビュー
素
京
##員
製造
強い
グループ
##車
ゴ
鼻
##ぼ
守
まるで
英
ロー
縁
思想
##助
##出す
##つい
##度
次第
##st
##is
人口
影
全体
其の
完全
谷
図
##定
気持
独立
青年
持
意識
姉
節
合衆
たく
舞台
土地
佐
忠
ちょっと
まず
善
飛
制
成功
使
もん
##足
近い
特別
##ソン
いろいろ
逆
カー
今度
必ず
湯
##at
弟
##蔵
##治
改
##ーク
##ギ
##端
ネ
##点
z
採用
2014
産
##le
受
##宮
罪
##来
羽
更に
入る
ただし
言つ
オー
政
あらう
言ふ
呼び
角
加え
帝国
ディ
航空
精
##シュ
##ポ
使わ
##役
進
腕
##el
一番
##そ
##ング
志
放
契約
やつ
向
##海
率
失
##位
表現
##あ
情
関
国民
海軍
寄
答え
##会
銀
っ
笑い
普通
くらい
制作
##or
里
列車
器
##知
違い
##官
ギ
深い
筈
##ic
過
なぜ
システム
観
##士
ワ
挙げ
事務
極
##王
述べ
##it
付
変化
時期
フェ
##崎
一種
就任
底
警察
路線
経験
つもり
天皇
km
床
##ッチ
##づ
薄
##次
浮
自己
施設
ー
計
堂
写真
最大
云い
本当
しばらく
##根
細
わから
低
飛び
道路
株式
壁
重要
##空
最終
部隊
すでに
婦人
終了
取っ
折
ヤ
好き
反対
板
ころ
##ピ
##利
仏
形式
車両
##v
保
全国
##的
園
公開
注意
the
候
女子
##かつ
わし
専門
勝利
製作
ども
しめ
##調
眺め
出版
##命
国家
ぶり
〜
##発
香
##こん
##成
##白
アー
居り
小さい
##先
ユ
モデル
ぜ
々
##進
##神
方面
独
##太
矢
軒
商
破
老人
捕
共和
シングル
50
名称
豊
乗り
##せる
帯
終
ハイ
魚
よし
湖
構造
いかに
議員
物語
##語
つく
収録
味
全て
支配
戦い
残っ
限り
出す
付け
主に
高く
翌
プ
投げ
いくら
途中
比較
##食
続い
此の
求め
わたくし
機能
高校
恋
起
##花
単
切り
##重
##郎
短
割
既に
##記
良
突
ジョ
条
ヨ
ぶ
##義
##民
##で
散
管理
従
企業
##シー
##こう
阿
現代
##ch
##種
決
以
タイ
シュ
最高
活躍
かく
野球
心配
##お
運転
我々
##主
なんか
飛行
##ペ
##かり
起き
比
かう
##撃
かた
仲
すなわち
##産
##権
毎日
或る
##ro
##量
年度
##天
ファ
##ーム
かかっ
砲
一時
由
##ざ
メンバー
cm
毛
##信
##雄
馬鹿
副
##ゲ
##かけ
センター
ライ
##装
息
軽
かかる
2000
料理
編成
##込み
##ロン
界
〇
##落
休
##松
クラブ
多数
世間
ジャ
教会
##ライ
指揮
動物
幸
喜
個人
雑誌
照
受賞
周
対象
記念
江
いゝ
##族
肉
延
工
##任
絶
仰
参
##男
学生
戦闘
##がっ
##火
特徴
くれる
##科
##わっ
なき
様々
主張
##死
ハン
'
端
実施
##三
##社
待っ
公園
哲学
行か
キャ
しれ
われ
新た
##am
領
富
含む
ホーム
##付
##カー
バー
##集
有名
エンジン
古い
##時
##レス
初め
記
深く
##フェ
永
すぎ
怪
移籍
でせう
英語
尾
ラン
指導
妹
##es
##出さ
遠く
##感
優
建
サッカー
通常
ちゃ
意
もっと
##船
示し
せい
協会
##ンス
##草
##話
段
工場
大きい
##相
好い
交通
振
条件
親分
対応
露
超
人気
あんな
大正
マル
身体
在
予
##座
評価
##わし
##望
樹
傍
降
帰り
なんて
農
##立て
##スタ
##情
##ぜ
造
考える
直接
ごと
仮
行動
基本
池
呼ん
覚え
静か
黄
原因
過去
##造
##論
値
予定
雑
ヨーロッパ
##職
設計
イタリア
友
かれ
紅
##美
裁判
##ホ
押
おら
初期
遺
規模
銭
##想
宇宙
視
鏡
はい
##ッシュ
さて
完成
脱
なさ
笑っ
作曲
あたし
団体
期間
##戸
##マー
住
病院
##から
パン
被
のち
パー
貴
梅
兼
さあ
辺
陰
外国
消え
種類
宗教
##正
～
クラ
カン
##ュー
列
知り
止
##二
##ヴァ
相当
##台
こちら
##夜
×
報告
服
柳
シャ
順
アイ
公式
##之助
##良
焼
状
砂
##教
大臣
投
態度
##ニア
信じ
静
##まし
坂
額
福
##別
発展
##ウス
塩
以後
##返し
○
##柄
経営
筆
##理
展開
息子
異なる
##リング
搭載
知る
五十
奇
設定
席
準
能
美術
キャラクター
張
調子
##入れ
明らか
牛
チャ
少女
漫画
##たい
同じく
聞く
##越
将軍
連続
四十
支那
想像
港
##念
ふと
##つき
母親
もつ
アニメ
##波
##質
例えば
電車
かなり
バンド
思は
##寺
ブラ
密
暗
紹介
如き
配
電話
##ュ
##辺
指定
使っ
”
追い
##げる
建築
校
調
少
なあ
##取
##覚
神社
余り
だし
##圧
相違
陣
ニュー
##込ま
通じ
徳
ウェ
弱
降り
連合
##南
職
北海道
提供
スト
##ファ
ドラマ
##クト
与
動
現実
読ん
読み
なかなか
ゲ
理
旦那
感情
何処
しも
##エル
##営
勇
跡
残し
方向
##久
念
##スター
カル
質
##領
フィ
##ブル
食べ
渡
家族
運行
唯
##説
リリース
穴
殺し
然し
掛け
##母
大戦
嫌
飯
距離
開い
##賀
墓
すっかり
みな
##ヨ
浅
いたし
歯
悲
補
鬼
ラジオ
共同
あらゆる
ビル
従っ
運営
隣
毎
仲間
決勝
舞
生命
示す
##輪
ローマ
##型
##期
介
含ま
治
##合い
##実
強く
閉
##条
養
参照
恐
##高
とても
制度
ヴィ
十分
突き
##だし
##直
刀
残
##界
##タン
呼ぶ
理解
おも
人民
置く
##里
ジェ
顏
痛
ほぼ
劇場
##息
銀行
上げ
##居
灯
迎え
丁目
##園
能力
##ション
地球
##テン
生れ
##付け
環境
##器
膝
布
試験
病気
黒い
議会
##瀬
会議
民族
描い
執
##ウム
採
いよいよ
批判
女房
カップ
ずつ
結
シン
至る
興味
進ん
探
民主
突然
二三
言語
##トル
陸軍
電気
##番
タイトル
表記
##字
剣
廃
廃止
##服
##衣
##派
##林
ぎ
マー
乱
地下
時々
即ち
国内
##朝
##モン
昼
むしろ
##師
俳優
演奏
立派
##込む
導入
ぐ
##東
果たし
置か
##クス
向う
時点
##工
##なく
##走
附
朝鮮
結局
扉
編
頼
由来
チェ
申
##千
つれ
サービス
傷
死去
理論
##式
ブル
##わる
ハー
甲
泣き
小屋
しまつ
人生
検
家庭
欠
快
劇
心持
秀
“
もっとも
受ける
##de
はいっ
##徳
寒
##状
選
空気
樣
##あげ
##房
孫
階級
##ri
スペイン
帝
st
植物
父親
返
防
ファン
##歌
撮影
少なく
混
##ing
飛ん
唐
吹き
枝
##布
云わ
効果
べし
夫婦
箱
##ベル
大変
かつ
事情
坊
##鳥
唯一
洗
ぐらい
祝
to
前後
ござり
純
##z
実験
いわゆる
ヲ
##断
たろう
##re
帰る
ひどく
##令
書か
##跡
##サー
革命
##三郎
記憶
##談
無理
##岸
いか
よれ
##コン
庁
周辺
婆
連邦
礼
赤い
##像
##ほ
##かる
登
待ち
要求
##制
##報
西洋
見れ
形成
一体
ドル
霊
地上
長く
使い
國
本作
周囲
供
暴
黙っ
銃
漢
##例
##オン
億
##il
太陽
総合
工業
##ンズ
##ステ
##後
##段
##x
自治
ちょうど
##藤
分ら
##能
鳴
サー
ごとく
##機
案内
行い
返事
ぼく
はっきり
われわれ
弁
応
関連
救
午後
圏
売
##曲
価値
極めて
デザイン
##次郎
re
勝ち
麻
成立
聞え
就
##具
##ずる
##おう
クリ
建物
杉
##習
輪
##パー
アジア
結成
現象
幕
果
是
通っ
##礼
させ
活
伸子
属
##ィ
敗
兄弟
##ザー
##角
句
性質
競技
温
##星
煙
族
意見
##ッツ
一寸
すこし
空間
作ら
容易
陸
##枝
##解
行為
誘
教え
専
一切
或は
無く
さへ
##らい
約束
##へる
_
##羽
毒
華
機会
インド
友人
##害
エン
侍
頬
##首
幅
修
作っ
歩き
作戦
##合っ
注
##しき
番号
##et
移動
筋
##告
カード
##席
in
##画
紀
支援
知識
魔
陽
きっと
##留
桜
機械
盛
あい
スポーツ
動き
きょう
巡
レース
##盤
撃
勿論
用意
やや
速
##un
引退
置き
##悪
##骨
驚い
龍
##もの
フォ
##イル
装置
##巻
##"
畳
責任
油
##as
通信
生徒
##立っ
ええ
そば
##保
面白い
推
##雨
尺
低い
笑
幸福
じっと
##毛
倍
男性
髪
相談
##ol
##ジャ
明日
プラ
誌
艦隊
うつ
de
迄
困難
##党
蔵
発行
たしか
スーパー
設け
##ッと
旗
対戦
児
集め
##児
半分
立場
大統領
##達
状況
魂
##当
営業
住ん
##わり
うる
作り
復
##司
椅子
現れ
章
リン
姫
いで
おお
##素
##議
奪
おく
旅行
屋敷
##ルー
いき
とにかく
##店
虫
存
刻
不安
分類
メートル
登録
ニューヨーク
##雲
リー
近代
##シャ
##節
従来
##倉
整備
##品
まったく
危険
みたい
留
##米
##通
かしら
性格
##th
憎
開け
敬
向っ
鶴
##術
&
##局
##坂
持た
成績
掛
微
##セン
狂
##リス
##安
ルー
良い
##らか
給
##トロ
韓国
仕方
糸
トン
きり
統一
図書
候補
覚
伝え
激
法律
##土
##紙
翌年
##西
オリンピック
輸送
切っ
べ
ch
##堂
広島
勢力
##友
隠
一生
ライン
増加
戻っ
積
杯
関し
付近
##刀
保護
眞
けど
行政
緑
噂
いた
然
記事
封
射
##チャ
概念
コー
##アル
消
##向
主要
サイ
武士
伴い
表示
わかっ
盗
不明
以て
秘密
##ンド
潜
芝居
産業
女中
喰
己
##起
び
##髪
単に
今夜
2人
宝
運用
内部
ベル
いち
エル
##介
##章
ウィ
すら
##トリ
あたる
##多
##殿
横浜
別れ
危
平均
名古屋
作者
何う
クロ
収
##丸
直ぐ
of
否
##古
死ぬ
栄
##ョ
法人
司令
##宗
##八
企画
氷
##かさ
##末
ざ
生物
疑
太平
方式
ロンドン
##薬
##約
##茶
##ur
大事
批評
作用
左右
脚
皇
失敗
吹
辞
##カル
##院
買
存じ
技
##たく
元年
竜
乗っ
安心
南部
##イス
菊
どれ
掲載
語っ
暗い
##電
記述
闇
希望
神経
書く
定め
浜
##デン
わずか
だんだん
##ユ
恐れ
工事
ホテル
隻
##玉
##ガー
沈
mm
所有
##養
しばしば
##ジー
市民
離
紫
よつ
虚
致し
##程
猫
##武
##之
湾
##板
データ
着物
##頃
##殺
なぞ
きい
##まつ
##0
興
政策
とおり
いら
呉
##校
他人
運
誠
##とう
##ン・
当然
願
合わせ
##材
幕府
ワールド
温泉
拡大
命令
探偵
##ェ
吾
##興
複数
##取り
心理
##側
##類
バル
下り
層
屋根
##北
##シア
##腹
規定
言ひ
徒
モン
標準
恥
フラン
広く
酔
送っ
週間
厭
パリ
減
部門
ステ
破壊
召
出さ
支持
ウォ
##メント
結び
判断
##球
妾
広い
スター
實
##ましい
微笑
枠
晴
プレ
討
##題
殺さ
小林
ゆえ
懐
ほんとう
##図
##エン
通し
管
なるほど
##ジェ
バン
甚
わかり
名誉
衆
まっ
僧
##ガン
即
##縁
合併
丁度
甘
##ルス
区別
同一
##眼
特殊
叔父
正式
##積
鎮
雄
選出
幼
格
庄
##なし
成長
伝統
※
##史
秒
衣
便
##てる
##使
とう
互
もちろん
勢
##域
人形
勝手
進め
待つ
傾向
豪
##滅
だれ
##回
##スク
##ヘ
李
貞
尊
俊
かん
高速
健
女優
##算
系統
会長
皮
##がり
尚
##管
まゝ
浦
事故
時計
運命
区間
ライブ
田舎
廊下
べく
茂
ふり
踏み
描か
##句
##つく
##氣
イベント
要素
社長
協力
まする
机
##トラ
##勝
了
認識
##ed
##立つ
わかる
##らしい
差し
勘
##泉
煙草
申す
費
網
海岸
代り
何故
少ない
世話
##態
何ん
舟
堀
富士
冠
九州
とる
##らす
シェ
物質
安全
福岡
##しかっ
大き
時分
##難
貫
##守
汝
建て
##ねる
証拠
古代
##ac
気味
連載
繁
朝日
こっち
##らう
トップ
後半
恩
##格
ゆき
釣
境
博
##願
止め
威
復帰
任
調べ
男子
市場
演
宇
##置
どちら
##ドル
##っと
さすが
隅
ペン
迷
駈け
レコード
グラ
固
嘘
殺
付き
##ヴェ
踏
叫ん
##陽
進出
至っ
実現
##百
智
柔
移
熊
"）
##父
作る
確認
仙
フリー
内閣
稲
##永
##ジュ
併し
##典
嫁
ぢ
被害
##ゾ
欲
##かく
這
怒
悪く
遣
案
負
同盟
##製
負け
##ルド
やっと
浪
翌日
試
続く
多少
適
空港
ほんと
資本
津
往
ひき
キリスト
井
##羅
ソフト
##盛
近年
##芸
買っ
柱
助け
確か
築
各地
##ゃ
るる
しろ
たゞ
枕
##ゲン
生じ
畑
含め
芸
##ビー
ダイ
とて
##ation
遊び
##案
仁
テーマ
岸
##極
排
軍事
挨拶
ついに
競馬
##まえ
開業
景
マイ
拝
聞か
塔
王国
初代
##クラ
##河
住民
寸
貴族
信仰
楽曲
恐ろしい
核
云
武蔵
##郷
満足
##フィ
##血
汽車
##変
暫く
##在
##臣
##なり
選ば
##んと
##塚
編集
##ス・
対立
##ぞ
綱
決め
共通
##儀
向かっ
ぼ
言え
追加
##メン
抜
レイ
##じる
次郎
探し
##問
秀吉
著
努力
問
配置
やっぱり
##くら
##病
聞
染
地元
千葉
容
玄
浴
ぽ
本来
基礎
弥
##客
範囲
或
##籠
##層
健康
とうとう
##護
観光
政権
##ra
いきなり
細胞
##切
うえ
ジャン
##雪
まえ
得点
吸
##ジャー
##テル
遠い
あた
使う
働き
並ん
友達
術
試み
限
##ゝ
ホール
##イド
##ティー
孝
趣味
誕生
##つける
##入り
，
失っ
##料
解釈
##イト
##志
嬢
一定
平和
戦後
##号
暮
両手
##筋
知つ
徳川
##源
泥
思え
おか
##切り
あいだ
レー
聴
泊
入口
絶対
敗れ
##彦
弟子
丈
+
医者
組み
##けれ
猿
装備
ぴ
##春
眠
疲れ
たび
##陣
ヶ月
世の中
講
セン
##近
##もと
道具
##カン
##、
##ent
出かけ
##々しい
所在
##壁
始まっ
理想
ゆる
棒
生涯
許
>
##館
形態
##se
料
期待
サイト
絶え
男女
取得
##都
##与
安定
就い
整
ジュ
##しゃ
ずっと
大分
亡
駒
殊に
##して
肥
製品
##ランド
未だ
許さ
はじめて
唇
分け
バイ
刺
定義
一層
##筆
##乱
限ら
没
聲
##市
##隊
承知
沖
##us
##虫
走り
沢山
組合
働い
望
北部
蒼
凝
##なっ
何時
指摘
因
地位
##チェ
習
大型
捨て
昨夜
##季
関東
台湾
ふう
##つか
瞬間
##価
亜
けん
殆ど
座敷
騒
物理
八五郎
件
国道
長崎
たくさん
おそらく
王座
観念
国立
##ion
記者
吐
だい
将
像
＊
毎年
愚
なさる
系列
ダン
米国
##ぢ
取る
トリ
##華
##団
郵便
手段
まこと
東北
##サン
互い
隆
昨日
仕様
丘
##バル
ロック
専用
与える
準備
##レイ
q
百姓
##配
奉
ちや
##右衛門
汚
モー
不足
大いに
おる
課
忍
映像
天下
集団
オリ
##キー
##合せ
##公
限定
formula
ください
惑星
維持
貴方
##伝
##結
##経
アップ
印象
派遣
こゝ
食事
##飯
創
つづけ
分野
発達
都合
引っ
##チン
##さま
ティ
しょう
滝
乳
実行
出発
談
##視
独自
##速
おき
虎
願い
##しん
納
向い
有する
命じ
##退
<
鎌倉
トラ
籠
特定
ノー
陳
停車
##袋
##密
もしくは
症
劉
匹
遂に
役割
##替え
化学
神戸
解決
詩人
太郎
クラス
##黒
##なる
盤
チョ
自体
袖
プレー
作業
##スカ
表情
模
澄
尋ね
防衛
到着
選択
爺
眉
オリジナル
ユー
郷
医
係
原作
うしろ
敷
斯
##顔
##六
夕方
岡
##ブラ
皇帝
臨
##チャー
財
##持
##らん
逢
出來
通る
青い
速度
統合
##佐
見物
商品
##愛
=
ひろ
応じ
信長
あけ
越
靴
##将
覆
入学
##片
めぐ
記載
人類
##有
フォー
##らさ
達し
確
銅
簡単
おまえ
処理
全部
##底
至
教師
荷
##上げる
恐らく
備
##スコ
切れ
##破
##ir
中学
がっ
渡っ
亦
襲
原子
障害
条約
本人
否定
かい
脳
偽
議論
蛇
県道
ジョン
しゃ
もはや
如何に
改造
不幸
ダム
指す
譲
##観
除
##等
かえって
ゼ
本部
電子
##浦
來る
文章
地震
ぱ
詰
要する
泣い
ふる
読者
業務
坐っ
ベスト
付い
アナ
##氏
始
博物
おや
##スティ
交渉
違っ
埋
猛
住宅
丹
随
双
亀
交換
##體
こん
##交
公演
反応
##折
桃
〕
##まら
寛
鹿
##直し
##送
厳
商業
真実
厚
弘
制限
買い
比べ
驚
さら
〔
呉れ
貢献
##称
##関
属する
見つけ
職業
流行
段階
ドラ
得意
監
##急
資料
##レーション
勉強
導
伴
暖
変っ
倉
キー
医学
##影
策
犯人
童
ごろ
模様
資格
##替
抜け
俗
球
##容
##際
ホー
用いる
気分
云え
アリ
##列
##衆
なす
##ゆ
拠点
##束
─
語り
農業
##傷
##証
斬
発電
オープン
##くり
英国
大陸
伸
ニュース
##來
アド
一杯
##舎
直後
##っぱ
如
##肉
愛し
メーカー
飲ん
##魚
淡
往来
寿
屈
##額
彼の
略
玄関
##失
映
##かす
##クロ
##込
宣
於け
所謂
具
道徳
婦
##止
日曜
借り
論理
大切
街道
ブリ
メイン
##ムズ
一面
たとえば
飲み
この頃
入つ
##無
##輩
##敗
ズ
ヴェ
##ャ
参り
判
##わら
昇
始める
表面
結ぶ
かかわら
ぼんやり
宅
変え
斯う
さっき
誤
機構
學
現われ
##得
嘉
→
題
共産
##ぬ
海外
エネルギー
違う
偶然
並
##福
ひどい
貸
オブ
##樹
塗
マリ
起っ
じゃあ
##訳
朱
しき
焦
一家
訪れ
ませう
走っ
承
##航
繋
紀元
最近
何事
充
變
送り
##察
店舗
多かっ
張り
復活
報道
##好
邸
創設
燃え
かな
賢
思い出し
面積
うまく
##散
画家
ようやく
ター
##系
ピアノ
##ビア
フラ
将来
伝説
近所
##がし
##かしい
中村
##取っ
黙
ちがい
##しま
倒れ
泰
購入
##差
若し
##一郎
複雑
房
##em
務める
新潟
材料
ガス
尤も
さまざま
##j
尻
引い
##奏
ネット
かね
学問
価格
印
踊
どうぞ
##住
連絡
留守
軌道
##ラス
##妻
愉快
伯
##わさ
死亡
売り
刊行
備え
向上
乾
後ろ
主演
越え
##やし
改革
ベース
溶
スタ
駄目
三郎
欧州
汗
づ
残り
刑事
まん
癖
##デル
##組
##烈
霧
減少
##タル
ボー
充分
単位
##射
ドア
##合わせ
シー
トラン
なくなっ
##備
##かん
##計
保存
加入
収め
オランダ
##庭
##刊
かける
##通り
抱
帳
抱い
##掛
弁護
奈良
繰り
タイプ
ヶ
あんまり
グレ
倒
幻
あんた
ン
大将
ワン
生まれる
隠し
改正
傾
結ん
##港
ギャ
##引
気の毒
種々
訓練
貧
恐怖
##転
べから
酸
天井
制御
カラ
芳
オル
ショ
元気
滑
##ブルク
さき
税
##応
開か
針
しん
週
雷
##ミー
一致
貨物
##ig
考
##給
序
招
小さく
写
よろ
一言
終わっ
通過
作成
障子
##ティング
ｋ
帽子
告
ro
##がら
完
注目
炎
達成
##詞
自殺
##ti
舌
医師
移転
##浜
##五郎
山口
峠
盛ん
##却
云ひ
##幕
送
##酸
環
##印
##ごろ
一同
ツアー
行け
急い
待
代わり
患者
##京
憲法
本社
沼
権利
##セル
文明
辛
菓子
脚本
へん
ふたり
署
柄
卵
困る
半ば
泉
狭
メディア
神奈川
##越し
やすい
歌手
功
抱き
故郷
オン
坐
報
##恵
中華
包
営
証明
其処
基地
とん
冊
読む
並べ
##益
##霊
触れ
##荷
依
##けよう
肉体
学者
意志
短い
求める
##示
##クリ
ステージ
##換
怖
称
占領
明け
##アー
カナダ
およそ
配信
なんぞ
##喜
取ら
沖縄
手前
たって
侯
##君
ごとき
##ul
触
##ec
織
やま
投票
##税
演劇
##級
##向き
文書
此処
とつ
##受け
正面
まつ
1人
ヴァ
担
計算
##弁
階段
##帝
吾々
続
解放
詳細
##床
停
##索
##ダン
##トゥ
同社
禁止
仙台
##塁
漁
##異
せよ
##宝
芝
炭
標
翼
犯罪
習慣
沢
稀
庵
理事
スタジオ
添
##di
観察
師匠
連中
上っ
##鉄
源氏
勤
古く
##ニャ
接
##ミン
取締
##香
令
半島
##艦
少く
兩
##納
##宅
刑
本名
訪ね
想
弓
任務
やろう
諸君
トラック
脅
項
味方
野郎
解散
しきり
つける
珍
秘
巣
##より
領域
##ブリ
堅
苦労
かき
震
競走
##ショ
オフ
##策
細君
禁
主な
40
宣言
やす
遠慮
連盟
アッ
ヒット
ソ連
打っ
おこ
##運
観測
年齢
午前
滅
体制
大衆
アク
たった
医療
卓
ポイント
##府
鍵
しま
##プロ
東洋
##舞
如何
優秀
どころ
諸国
握
帰国
##立ち
垂
ブランド
歩く
燃
##覧
縦
頂
槍
##バイ
走
挙
##イズ
拾
いろ
熱心
通称
あゝ
会員
恋愛
##リオ
艇
残る
中継
##ニング
方針
単純
ne
競
叙
分析
すぎる
成り
##上っ
ガラス
接続
停止
早い
評判
やれ
喧嘩
ゾ
地名
##細
栗
背中
##智
ポーランド
脇
タイム
##区
クレ
天文
呼
義務
随分
只
駆け
継続
ガン
ワー
##國
掘
性能
商売
こんど
##洲
##くる
甲斐
##スタン
帆
はた
##様
##帯
称し
##麗
起こし
##ヶ
動い
もらっ
アンド
##酒
愛知
##クター
and
巨大
小僧
熟
目標
趣
粉
##露
##ァ
##me
姓
いれ
ビデオ
書物
##七
たれ
荘
首都
##途
見せる
返し
顕
関西
ちら
近づい
感覚
##弟
暇
僅か
燈
からだ
もら
##左衛門
發
明智
##暦
供給
著作
##ダム
プロジェクト
旅客
出で
悟
スク
##栄
アフリカ
面白
dvd
##壇
##費
継承
そっと
峰
馬車
##笑
借
##タイ
##表
フル
長男
根本
治療
メダル
植
##ファー
演出
文芸
ろ
##まい
延長
１
背後
##わす
パラ
##ナル
##接
商人
丁
入れる
祖父
##ージ
巻き
分離
バラ
読
逃
##熱
つまら
簡
始まる
十字
やめ
進歩
kg
##リズム
兵庫
無事
未来
いったい
福島
改良
暮し
演じ
かし
建造
##さら
具体
呑
##新
イー
##ut
とら
たた
抵抗
積極
日間
仏教
日常
##老
摂
若者
基準
だり
市街
ベン
猶
大抵
くだ
ゴール
##略
##バン
学園
正直
住む
本質
．
翻訳
##売
裸
##境
扱い
結合
知事
彦
##リスト
ロッ
惜
##ころ
##シン
渡し
たて
逸
武器
##學
（"
架
狐
##ごと
意外
低く
宛
##パン
肌
也
告げ
廻
トロ
予選
構
両親
旨
ともかく
きみ
重ね
##率
色々
現役
##べる
飲
##賞
フレ
ぶら
全然
袋
取引
損
詞
両方
したがっ
論文
住居
##弾
壮
##宿
昇格
##紀
呪
役人
##りゃ
もた
##チュ
##答
ジョー
わたっ
装
##仏
##ナイ
一族
##ちゃ
貰
近頃
奉行
背景
言は
繰り返し
決心
利益
大丈夫
わざと
##分け
兵士
機嫌
甚だ
数学
静岡
##to
綺麗
民間
よかっ
うん
敏
師団
##um
強化
上記
必
訪問
訊い
ビー
##しみ
語る
##and
セル
きれ
コーチ
##沼
提案
##ォ
六十
##池
br
ポジション
歸
マーク
併
##属
多分
##ょう
設備
##敵
巨
可愛
須
潮
長野
進行
透
有る
軸
##ad
囲
li
操作
##クション
株
吉田
明るい
コース
諸島
##フト
いっしょ
##絵
##防
とど
見つめ
寄せ
com
##易
##しめ
##しか
ニコ
##潮
浸
##善
軍人
ごく
小型
重大
憤
##強
不可
美し
##たら
参戦
下手
貝
潜水
心得
##ル・
飽
##lo
本線
あや
残さ
着い
煮
こいつ
拡
練習
有し
車体
進む
呼吸
許し
##識
普及
ソロ
唄
更
相互
レベル
駆逐
co
##脚
##ズム
##貴
##闘
##陸
正月
気持ち
上野
金属
おど
鼠
メジャー
消費
植民
##綱
違
##腕
##裁
オーストラリア
##我
##述
稼
at
首相
鈴
きっかけ
##たり
##ハン
迫
悪魔
回転
同士
("
優れ
出来事
飾
御座い
尽
届
殺人
狭い
##徒
規則
##ド・
劣
盆
指名
シーン
かの
##-
##張
ユダヤ
固定
つぶ
無論
胡
労
##がい
爲
正確
ａ
##打
中間
イングランド
うけ
けり
##十郎
th
##修
経由
頼ん
ユニ
確保
幹
衆議
過程
民衆
ちやん
##上がっ
##要
##ドン
財産
プレイ
レギュラー
流れる
イメージ
起こっ
##もう
##満
逮捕
le
主催
##ばし
葛
リア
隣接
鐘
")
揺
働く
##辞
今朝
##ょ
啓
##めよう
辻
##しむ
展示
當
域
縛
スタート
ミュージック
分っ
コンピュータ
##絶
##やい
祖
硬
豆
くり
##つめ
怒り
西部
##倒
隠れ
##ボン
エレ
常識
たちまち
##ve
勤め
解説
抑
藤原
am
##くし
mo
アラ
驚く
跳
広告
##固
正しい
困っ
獣
荷物
スピ
先ず
依頼
プリ
##掛け
##襲
あいつ
起し
驚き
腐
発足
##弱
死骸
執筆
ポン
##ディー
康
属し
レン
スカ
コーナー
大名
##がれ
##読
答
裾
激しい
死後
叱
バック
##li
寂
##がる
乙
打つ
岳
ページ
埼玉
##仁
関心
機体
あて
沿
五郎
まわり
衝突
寄り
##フォ
プログラム
渡り
券
al
桂
儀
卿
任命
ダイヤ
途
ドン
ルイ
##まさ
定期
##貨
葉子
上り
越し
東西
##ドゥ
動作
判定
尼
始まり
揚
羅
護
某
##co
##ゥ
コロ
フジ
tv
此方
身分
窮
##選
中止
祖母
蹴
主題
an
##らえ
##英
親切
##向い
ラー
分布
徴
##親
萬
ダンス
##ag
騎
##評
記し
致
いいえ
場面
献
犠牲
長官
行こう
卑
縮
世代
胴
シティ
拳
エー
sp
異なり
頑
入団
古典
##じめ
##練
紋
洞
殺害
スー
避け
養子
##加
誓
投手
疑問
懸
地点
##統
鶏
トゥ
指し
烏
熊本
##ゅう
那
風景
前述
対策
提出
もとより
二、三
漂
##順
置
原則
同情
##がけ
鈴木
乍ら
宜
意気
蘭
いかなる
##ゑ
概
交流
保険
弱い
##だい
本塁
大人
証
スタイル
##祖
おっ
##シェ
##われ
資金
se
田中
挑戦
##ce
##兄
東部
才
タン
##続
憂
連隊
児童
陸上
コード
翁
携
検討
恵
剥
ほん
肝
千代
子ども
邦
土曜
經
##合う
##ザン
##ストン
回復
##寄せ
たの
前年
##従
##皮
ライト
推進
幽
蔭
司
 
流し
拘
免
狩
マッ
不意
##キン
##斎
束
伴う
独り
##緒
縄
##ノー
しまふ
疑い
白く
##ウン
会場
伊勢
##庁
井戸
電力
家康
##ドロ
大勢
灰
推定
重い
##si
後継
湿
命名
##ロス
##めい
##連
##ゐ
盛り
足り
負傷
偏
紳士
##処
遅れ
今年
ケン
##ーター
覚悟
処分
do
##札
伺
そいつ
##乗
##清
適用
各種
##景
矛盾
闘
ボール
外交
##同
騒ぎ
看護
##3
預
##俗
除く
##罪
紛
改称
牧
##マル
##比
##張り
慶
魔法
蓋
##垣
きっ
##聞
札幌
山田
ユニット
文句
真理
叫び
女王
擁
##放
##ニック
対抗
ヘル
##グル
蜂
##参
##訴
日記
サラ
##り出し
混乱
なすっ
##也
貰っ
ほんの
涼
散歩
信用
歓
よろしい
##ムス
現場
予想
興行
整理
石川
##グラ
本格
寒い
もち
民国
勤務
漸く
ちゃんと
枯
施
たいへん
収入
##惑
去っ
##挙
##律
廻っ
處
権力
オール
議
当選
番頭
##デー
戦車
##柱
入ら
##去
##さり
喜び
掌
鹿児島
喜ん
##象
びっくり
忽ち
南北
アウ
渋
我が
とび
so
##りる
大量
信号
開幕
大和
干
##ラル
軽く
郎
後期
更新
##かれ
陥
爪
鮮
遅
ピン
##ワー
声優
##コー
何に
秋田
さい
防御
占め
一向
祈
質問
ぐる
##設
違ひ
神話
立た
深夜
みえ
##っぽ
″
ゆっくり
ひら
話題
有力
##ましく
##返っ
##かえ
しょ
進学
通算
自転
亭主
##さっ
貿易
終っ
描く
享
統治
一覧
交差
ガラ
##レンジ
##ざし
抗
話す
su
##粉
絹
周年
清水
てん
検査
集合
課程
光景
##レット
黄金
##育
ながめ
忍び
マイル
走る
開設
両者
許可
鉱
集まっ
曇
殆んど
づけ
グル
##ぐる
墨
起用
慰
##ルム
##々しく
もらい
昌
##わしい
制定
おし
贈
政党
様式
##釈
文庫
たずね
響
警
結構
危機
##温
婚
評
機器
兵器
勧
向かう
先刻
うら
會
修道
細い
怨
デイ
##ジア
シャー
落し
意義
管轄
下げ
##竹
農民
還
及ば
蝶
##ter
輝
飼
分割
しっかり
##弥
雅
ふく
二百
聞こえ
協
曰く
##れよう
##痛
辰
##許
後述
坊主
会っ
形状
]
評論
おそ
##よく
％
つづい
襟
苦痛
グリ
全身
時刻
過ぎる
##刻
数多く
訊
遺伝
しい
木村
##んじ
寺院
改め
四方
##銀
大半
##なか
##考
ミニ
輸入
##丘
##遇
笠
カリ
トンネル
扇
剤
##労
算
耐
##組み
たっ
死に
ポケット
貧乏
貯
##あい
食べる
sh
のぞ
大使
テーブル
##クル
##4
発言
難い
際し
請
おと
従事
病人
##の間
移行
委
讀
札
まさ
##ッグ
斎
感じる
五六
崖
##写
##り込ん
望み
クル
フォン
右手
たまら
海上
##らしく
##穴
儘
合計
岐阜
がら
感謝
格子
テレ
加減
圧
信頼
##屈
移っ
同志
##森
ベー
[
欄
集中
##ネル
##さう
##たし
改善
是非
狙
がっこう
いっぱい
今後
岡山
作詞
蓮
公共
棟
単独
承認
〉
嘆
〈
うた
まる
遺産
ar
惡
傳
編入
中世
良人
奉公
瀬
はじ
##離
##衛
麦
測
描写
区域
ちょう
普
識
小学
家臣
##蔭
さも
ランド
表す
幹線
デジタル
歩兵
美しく
払
プロデューサー
晴れ
赴
謂
かわ
衝
風呂
含ん
動く
##あがっ
無かっ
ショー
夢中
自信
##付い
高度
##つと
トー
ランキング
前半
##オー
デュ
続き
篇
台所
##ver
喫
ひっ
遊ん
兼ね
いえる
登板
##づけ
争
統計
謎
到
カリフォルニア
始末
つゝ
動か
含
目指し
拡張
燃料
ストーリー
ゲスト
磁
あたっ
まア
しかる
取り上げ
オーストリア
ますます
##秀
載せ
ゞ
邪魔
煩
藩主
金融
悩
消滅
元来
もともと
##びる
発射
率い
ペル
佐藤
動かし
##とめ
爆発
工学
アカデミー
##ケット
手法
合流
##ベルク
国境
下し
関数
食い
加盟
認定
役者
□
催
##収
在籍
##舟
全員
出現
ヌ
くん
no
披露
ブラジル
分子
各国
施行
卒
食物
ケース
崩壊
美人
帰つ
きら
ハウス
##澤
撤退
進み
堤
##獄
##則
##返す
絞
崩
往っ
間違い
カメラ
象徴
しまひ
惨
打た
有効
確立
地獄
##do
まさか
一旦
バージョン
暮れ
心臓
アイドル
有り
御覧
##娘
##スキ
スキー
来い
與
##ロッ
ベルリン
謙
空想
駆
送ら
##ネー
学ん
##円
##洋
##キング
##脈
迎
##獣
創作
躍
##ルズ
di
ma
インターネット
元々
ra
片手
##減
発し
縫
果て
##暮
斉
真似
地帯
##エー
##岐
平気
##還
名義
##ぶり
面白く
先づ
攻め
##ネス
一応
##紋
苦しい
##かかっ
抱え
上手
判ら
壊
##因
##夏
叩き
のん
上下
平安
##畑
硝子
##りつけ
ゆう
##償
原稿
直前
悲しい
稽古
##切っ
段々
女の子
早速
当て
争い
po
##ウル
記さ
呼称
かかり
山脈
出力
続ける
云は
##犬
発明
殺す
四五
芸能
球団
巡査
略称
冗談
上流
##姿
徹
寄っ
アナウンサー
##歴
幽霊
##んな
浅草
血液
姿勢
伸び
審査
ひょ
犯
##浪
果して
緩
求
収容
ブレ
視聴
世帯
##マイ
怪我
２
移住
削
プレイヤー
##えよう
?
デー
暮らし
景色
益
末期
差別
律
##染
感心
くせ
我慢
そん
姉妹
哲
折り
真面目
上陸
失わ
猪
蒸気
セット
率いる
録
##プル
徐々
##é
渡る
##漢
直ちに
箇所
工夫
捜査
スタッフ
文献
##.
去年
聴い
叔母
トル
校長
警官
わるい
##着い
##油
##き出し
子孫
分り
ごらん
学院
スウェーデン
頼み
競争
##ベン
ファイ
##籍
合成
笹
テン
##ミング
##敷
##限
##殺し
広場
バッ
王子
##すれ
きく
伊藤
コル
覗い
震災
前身
悦
##ヂ
事態
たかっ
先発
##去っ
エリア
地面
喋
かえ
##ゞ
見よう
有様
大した
守る
##違い
##候
##技
##便
無限
室内
##竜
統
訴え
類似
印刷
五百
懸命
天然
##降
公立
強制
もつと
カラー
##丁
放射
足ら
曾
##伏
後者
碑
笛
殘
##茂
泣
組ん
をば
再開
柏
キャン
しめる
をり
複
じょう
あき
俳句
エア
##括
たま
##止め
##ゼン
堪え
##広
発揮
##樣
あらわれ
噴
##カラ
異常
クー
##ビン
##ろし
楊
##キュ
頸
ギリシア
##ト・
どうせ
死体
純粋
##展
面倒
##ap
本拠
生息
法学
##ルフ
踊り
忌
取つ
##ハー
##ine
ささ
桑
井上
雇
顔色
##しかつ
境界
提
カトリック
あげる
蒸
山本
魅力
入社
##くれ
皿
尖
クリストフ
天気
戦死
咲
武田
##寄り
郊外
カタ
きれい
開き
低下
わざわざ
##件
唱
きか
いらっしゃる
##箱
急行
##戯
杖
ネットワーク
##te
大幅
迷惑
##ge
及ぶ
##トリー
##況
日光
変わっ
うまい
##存
必然
睡
耕
看
執行
##没
抽
東海
遺跡
外部
##ci
##湯
高橋
釈
罰
愛する
用語
粗
客観
戻る
ことば
抑え
哀
なア
人数
笑ひ
##尊
炉
メキシコ
じゅう
生成
##婚
or
pro
ジャパン
綿
疎
舎
##僧
フロ
曳
##スキー
どん
講師
沙汰
##明け
駐
パーク
##入っ
ずいぶん
実質
阪神
上海
巧
前作
まとめ
##張っ
##はり
##鳴
泳
せよう
##はし
モード
乗せ
メイ
錦
王者
##雷
##眠
か月
変ら
##除
##砲
ジョージ
身長
ボル
爆
恋人
果たす
乗車
##疑
占
愛称
光り
勇気
メン
而
松本
##揚
##決
##シャル
開通
沿岸
移し
##裂
寧ろ
##プリ
行方
原理
##なら
弦
ロード
##ジン
##姓
なが
側面
噛
リスト
數
双方
国王
根拠
##四郎
##鶴
##渡し
画面
表明
眠っ
珍しい
香港
臨時
濃
##負
焼き
ソー
却って
示さ
##7
八十
##カリ
プロレス
終り
終え
部下
河川
苦しみ
多様
##っち
##開
スル
練
スケ
歴任
酷
規
##暗
運ん
暗く
じい
録音
居住
鑑
特急
振っ
手術
判決
##いち
現に
食っ
衛星
年代
慣
##リアン
##矢
垣
ナイ
参考
増え
留学
富山
古墳
リング
ミサイル
行なわ
##径
パイ
##活
だらけ
##婦
何處
##ドラ
メル
##迫
費用
はは
スタン
役所
起る
浄
##歩
−
##糸
##ールズ
菅
慎
##隆
新人
まじ
##才
##指
賭
ルート
it
銀座
名人
ポール
書籍
閑
宋
凍
上昇
隙
穿
##取る
北京
済
牢
ジュニア
##照
うす
三百
通行
自宅
ドー
ロン
ばか
##支
あん
泣く
ひそか
あわて
象
for
##災
##さい
夜中
研
乞食
新宿
易
皮膚
超え
##かう
せめて
何者
らしかっ
問わ
000
選ん
##帳
寢
きまっ
羊
##ab
##詰
ござる
ポルトガル
偉大
並び
##もち
pc
##ケン
基づい
##標
反し
分る
##劇
見事
生え
##妙
イヤ
##ニン
##縮
拒否
ダー
裁
英雄
部落
##ヴァー
日々
上位
頓
蘇
除い
##ノン
消し
独特
くら
銘
あくまで
著書
新設
送る
悲しみ
じつ
のう
##遊
軍隊
##オル
##牛
だら
法師
単なる
##ck
下駄
囚
ソフトウェア
明るく
棚
判明
ついで
鎖
自覚
##ペン
よほど
七十
妖
##苦
たとえ
季節
##ニュ
かげ
非難
##穂
買収
失礼
害
奴隷
相対
##厳
筑
##づく
にくい
改めて
##ぽ
南西
戦略
生きる
彫刻
垂れ
葬
乃至
守備
##捨て
接し
会話
伯爵
ちょ
ゆか
##下げ
光っ
金曜
##ia
赤く
ゃ
##らっ
##ak
##干
溝
we
火鉢
憲
楽器
感ずる
禅
渦
遮
##est
なかろう
終る
空軍
開く
##ゆる
西側
凡
##魂
操
市内
或いは
臣
マッチ
鉢
人工
とこ
彼方
##ゅ
##おい
##十
創造
永遠
##奪
がる
縁側
合せ
下宿
個体
隔
##謀
尊敬
奏
故障
暴力
欲しい
##築
エク
下さる
##塔
ウィリアム
##サイ
恒
体験
##』
明確
俄
訴
革
法則
##現
##若
カール
恰好
うな
##めき
滞在
刃
##柳
##ウィ
助手
##亭
艶
せん
チャート
ギリシャ
##ゴン
この世
絵画
疾
終わり
ッて
##窓
焚
三角
タウン
#
溜
渓
##誌
そりゃ
天地
勝負
##とり
##須
観音
体系
一日
継
##貌
##藝
主体
蓄
育
戻り
北西
組み合わせ
圓
現地
ギター
平野
在る
愛情
戦線
戯曲
スラ
吸収
##ナン
きめ
甲板
体育
いそ
調整
##旗
ゴー
投入
護衛
セー
惹
裂
茶屋
##狂
がち
芽
抜い
徹底
みよう
診
いへ
##るい
敢
機動
塚
隠居
ラテン
ウィン
笑つ
##かける
仮面
奇妙
敗北
##致
##童
##はれ
##打ち
##少
ちっとも
希
沈黙
ルール
はるか
##酷
蒙
##シャー
##注
投資
一帯
##やり
慕
肺
化粧
旋
##県
頁
讃
戯
モノ
都会
##煙
構想
オペラ
不満
考へる
おろし
ポー
##棄
させる
ワイ
##000
増し
正しく
大体
##ネット
吹い
##延
足利
激しく
##寿
集落
線路
##裏
宣伝
霜
考慮
##焼
##版
##よい
##棚
ブロック
観客
つぎ
睨
答へ
裕
数字
##當
樣子
勢い
乘
退屈
##ティン
財政
##忠
紐
##サル
でる
飲む
残念
##とも
掲げ
mar
帯び
埋め
結論
加藤
換
才能
クリー
初頭
基づく
起こる
一行
掴
##銃
隱
云へ
梁
顧
北東
めい
直線
##岩
コンサート
石油
##ディング
##那
ベイ
規制
池田
ちよつと
鋼
士官
##らく
##こし
少数
レッド
緊張
がた
携帯
打率
みれ
##商
醜
鍛
奈
##甲
幸い
##アム
無線
イオン
##寄っ
ｓ
戦国
凄
浪人
##雀
予備
加わっ
神田
##ッキ
補助
温度
貼
実在
酸化
膨
気候
蒲
武装
現れる
アーティスト
訪
市長
掻き
八幡
##半
食堂
穏
飛び出し
構え
##タリ
支度
馳
附近
##始
ボン
塾
エジプト
瞳
ハリ
ランプ
暑
看板
負担
攻
##ほど
実業
##丈
##賊
永久
##済
沈ん
##ワン
聽
##飛
食品
##夷
提灯
最中
かか
##奥
往復
侵攻
##幅
初回
チャン
栽培
新しく
廿
現存
剛
上演
当駅
匂
太夫
特色
合格
ブルー
吊
##躍
締
学習
合理
グランプリ
見出し
国会
祭り
##仙
##刺
いと
崇
##摩
##ph
##麦
##棒
濡れ
##むる
解ら
##シング
##筒
##託
素子
##抜け
北条
##ard
拍子
##豪
孤
人格
改名
##似
オート
皮肉
##陰
##欲
##たん
困
##みる
アシ
汲
##伐
燕
閉鎖
半七
サイズ
まと
##がつ
##ボー
##切れ
到達
亡くなっ
鷹
しら
去る
悔
新田
伯父
##めん
遠征
凡て
ミル
依然
##祭
冷たい
##どころ
同日
貸し
三菱
語ら
うれ
廣
##頂
追っ
保守
亭
トルコ
##たえ
割合
再建
かすか
明か
##常
代理
合戦
もらう
##ミュ
於い
反乱
色彩
浩
黄色
克
##ったり
ハンガリー
織田
##ールド
宜い
すく
##入る
交響
ホル
次男
墓地
テスト
議長
##潔
いろんな
天才
シル
鍋
##亜
##オス
毎週
琴
いひ
穂
うむ
巨人
わたる
勧め
出入り
中部
嵐
アイルランド
賃
##昌
おち
キロ
キン
守護
展
至り
##廃
動機
##慮
参謀
##ウンド
意地
マク
停留
スクール
覗
進化
次々
ける
演説
忘
再生
足音
転換
無料
地理
やあ
いらっしゃい
輸出
羽織
生存
##載
走行
警戒
##セント
辿
地図
降っ
青森
襲撃
ロケット
豊か
曹操
con
雀
怪しい
朗
尋
拠
無視
##こま
##もっ
良く
歌っ
##蘭
みせ
##編
国鉄
アレ
次元
磯
##龍
サポート
保有
へえ
沿っ
俳
固有
全米
暦
附け
甥
カバー
向き
##クレ
職人
鼓
平方
萩
行列
まして
歸つ
かり
##請
異なっ
ケー
##軽
##どう
聖書
鈍
スイス
忙
##ht
久し
顎
資
相撲
先頭
国勢
一夜
彩
スペシャル
ウル
協議
前方
先輩
##燈
教室
##いら
いまだ
懇
沿い
##笛
寝台
学び
包囲
財団
啼
##舌
けい
##寄
去
劇団
ブラック
##あっ
継い
薄い
そり
餘
##威
ヒュー
##群
なろう
臭
描き
武家
三千
たけ
カイ
##麻
ワシントン
##増
扱う
情熱
川崎
のり
履
仕え
昇進
下記
到底
嬉
馳走
笑う
描
is
載
察し
嘲
称する
活用
長期
教養
##ダル
融
指示
勅
中将
当たる
##ぼう
重量
相続
分かれ
空中
##クトル
本能
項目
意図
半年
##どり
彫
be
##わい
詠
##ッカー
菌
例外
##5
宵
トレ
##遠
宮城
興奮
謀
太い
迫っ
つめ
四国
篠
這入っ
監視
##匠
##ティブ
控え
##なつ
ぷ
戦隊
成る
効
塵
徳島
##こむ
しむ
ビール
##qu
たつ
##）
有っ
すつかり
從
##夕
受け入れ
##ゲル
天正
歌詞
莫
つとめ
スペース
帰ら
怪物
伴っ
測定
狼
働
騎士
##もり
まさに
液
エリ
##ピー
ふさ
##はつ
##吾
##丹
咲い
キャラ
分裂
蒲団
##篇
モスクワ
眼鏡
かが
標高
即位
見当
怠
##ボル
##ばす
エイ
征
生み
##姫
ふしぎ
サイド
馴れ
##幸
張っ
超える
屍
創立
込ん
破っ
予算
窺
##やく
恭
罵
##査
火山
支え
叩い
格闘
袂
駕籠
##歳
魏
乃
レーベル
箇
楽しみ
スキ
いちばん
反映
おかしい
##ラム
##落ち
刈
伏
経過
##庫
冒険
ソング
胃
##バラ
アカ
戰
度々
方々
合っ
交代
何物
登っ
bo
当っ
火事
規格
旭
タレント
軽い
既
##ライト
邪
夫妻
著名
掃
坪
ざり
膳
引き続き
方言
柿
##書き
登山
呂
##スラ
塀
曹
沙
戴
濁
自衛
変り
高山
要請
用心
立てる
##なう
すす
##しゅう
追放
順序
学ぶ
典
後方
##キア
##冠
餌
遅く
生じる
##蓮
転じ
綾
ソビエト
出席
インタビュー
##さつ
人種
纏
##賛
##ばさ
しく
打撃
両国
喉
フィルム
##払い
##核
上京
符
マルクス
復興
漢字
鋭い
怒っ
細工
頼む
案外
飛ぶ
職員
装甲
褒
渡辺
遭
保持
見解
##がた
筒
使者
磨
如何なる
著者
覺
##リーナ
菜
##禄
少将
一郎
##静
数え
サル
註
##レッ
風俗
無し
ほしい
じゃア
サウンド
##アナ
南東
貴女
認める
ｔ
釜
##陀
用事
改修
悪化
豊富
##vi
あたかも
アム
感染
零
陶
楽団
票
##旬
航海
デル
のせ
ヤン
##上り
火星
好意
##快
育て
主力
すみ
##スタント
–
急速
アクション
##ツィ
えき
##換え
虐
何しろ
昼間
##魔
若干
##たう
名付け
##la
ｂ
さっ
かゝ
おじ
##ろく
パッ
##マス
捨
司会
キャリア
降る
むかし
賛成
##おし
懐中
真っ
光る
##織
##とっ
##合わ
適当
船長
そろ
##ラント
すば
エピソード
##稿
##レーター
態
軍団
幼い
##認
左手
奧
戦場
##さき
雌
##ドー
努め
こま
和尚
北側
需要
大佐
喚
航
警部
##岳
貴様
城下
スペ
ワイン
洋服
仇
些
交際
修正
慣れ
接触
="
直し
過ごし
匂い
##悩
##熟
小川
廻り
閣
ｍ
分解
装飾
松平
##こみ
捕虜
爆弾
達する
則
どっち
##per
##かしく
右衛門
隣り
修行
三重
colspan
晩年
逢っ
水戸
瑞
がたい
##持ち
山形
インディ
##ピング
##ヌス
すすめ
下っ
週刊
為め
言える
潰
飢
改札
##封
起源
決まっ
司法
スタジアム
はら
創業
マリア
創刊
講義
農村
##ヴォ
##ate
lo
控
売っ
売却
##だす
錯
当局
商店
爆撃
宮廷
##げよう
征服
単行
電燈
待て
一々
森林
推測
##之丞
勘定
書記
薫
賀
再度
懲
思へ
確実
アフ
傘下
済ま
親子
消防
袴
死刑
きき
拙者
##範
強力
慈
パル
##フォード
##さえ
漏
会い
##卒
学術
眠り
感ぜ
##早
道理
無数
積ん
ガー
##yst
##さん
検事
##過
グリーン
早稲田
##ぐら
豚
出入
電動
維新
兎
侵入
##早く
史上
汁
顫
ex
座席
但し
工合
囁
浴び
実践
だめ
異様
聞える
始終
自慢
駅舎
##飾
絶望
育成
ジャック
ロボット
##更
##当て
##殖
ファイル
区分
誤解
響き
包ん
放っ
決意
ブレーキ
##めし
マラ
おっしゃ
人員
##ウェ
呟い
むろん
庫
公表
シア
##受
觀
##いか
視線
##ろい
詳しく
##袖
もど
上げる
結晶
食う
具合
孔
遍
しば
身の上
感動
##罰
大手
福井
落ちる
まいり
おかみ
当日
##敬
つなが
##総
推薦
##av
前者
不良
桐
警備
握っ
債
月曜
##謡
淋しい
武者
ラッ
リス
旅館
マシン
料金
警視
だん
騎兵
##メー
言へ
##頼
コミック
##磨
輩
行事
一瞬
ムー
##ぐれ
テク
訴訟
##まれ
三木
無言
##ジョン
外れ
##毒
##闇
##返
向つ
なるべく
次い
かぶ
及ん
痕
揃
据え
俯
岡田
##真
戦っ
##藩
##瓶
##ドリ
発音
珠
シナ
経っ
銀河
東側
##モンド
領土
##貞
輝い
上る
##取ら
訊ね
獨
チュー
##勤
ごう
大声
ドラフト
丁寧
##架
援助
さす
上映
ボタン
粘
合唱
歴代
平凡
盃
傘
好み
##秋
##しら
引く
亡く
３
個性
家督
灰色
べつ
在学
圧倒
##演
##ざめ
セイ
宮崎
斜
ふたたび
##梅
猟
爾
衛門
可笑
而も
雰囲気
悲劇
奮
一貫
霞
たん
佳
大西
降伏
破れ
青木
貰い
壺
畜生
ひい
##パイ
##ヽ
ジー
うか
開拓
叫
さる
戒
チャンピオン
シート
長年
応用
境内
##欧
オス
スコ
##憲
鳩
気象
ph
##峰
##鹿
##ダイ
抗議
as
望む
共演
インター
権威
##全
洩
はつきり
挙げる
重視
祖先
聯
##譜
外套
功績
下部
演技
アメリカン
チャンネル
掻
体重
画像
損害
##ョー
払っ
破り
##トー
占める
クライ
リュ
##伸
朝廷
##リッ
暗殺
拭
ふい
藪
ミス
接近
突っ
##盗
太鼓
##フル
浮か
防ぐ
将棋
ロサンゼルス
襖
云々
訓
買う
堪
##導
ニー
##スル
キング
数々
総督
変換
掃除
瓦
ボート
講演
嫌い
適切
##ne
##植
役目
そら
称さ
par
山中
##せん
##怒
均
##効
##菌
資源
##剣
道場
移り
柔道
吹く
明瞭
深刻
gp
イスラム
あわせ
アレクサン
盲
伊豆
ことごとく
##ッキー
連結
孔子
ヤマ
軟
##判
すま
左様
一座
##ワード
脊
ヴァン
##復
##ブン
離脱
目指す
##附
謝
##迦
伝承
ガンダム
音声
##はら
餅
少々
賜
獲
##堀
たらう
保証
寮
附い
##ます
司馬
フィールド
町内
逃げる
##おり
脱出
浮ん
##旋
##豆
暁
渋谷
##ぴ
ダウン
##ぶん
##監
完了
見上げ
悉く
##アイ
わたり
なほ
おろ
課題
##慶
##ツェ
免許
専攻
ばあ
奪わ
##ガル
調和
ホン
賊
##キャ
##鬼
鉄砲
麓
不審
楼
好奇
##づか
揉
ふた
摩
##隅
はげ
慾
##がかり
クロス
##上る
##添
##精
服装
##皇
構築
嬉し
プロダクション
##乗り
県立
数十
主観
大字
カット
終戦
題材
取り出し
くらゐ
##今
素人
コンクリート
付属
御免
おの
提携
閉じ
戦士
絡
秩序
なんに
折れ
‥
泥棒
極端
統制
##症
呈
##ぜん
癒
##ばら
間違
au
アクセス
##唱
ホワイト
##づい
読書
近づく
##輔
教員
操縦
すがた
##しり
死な
##蹟
戦う
ゲー
烈
##自
##ヘン
##ity
##デス
##高い
上部
面し
合意
表し
かねて
無人
##入れる
レス
実用
毛利
国防
ぜひ
##ハイ
##かえし
親類
##ミニ
關
チベット
きわめて
憐
任意
##砂
帰還
プライ
##揚げ
ヴ
##lu
プロレタリア
義理
国土
不快
述べる
南側
矢張り
だす
余裕
ちがっ
##つくり
任じ
##坊
##ぎれ
休み
敷地
ユーザー
老婆
##酔
##man
授業
協定
##獲
茨城
悲し
徐
##アス
##逸
大賞
励
##待
##ヤー
偶
##祥
スコットランド
先端
取り入れ
剃
割り
旅人
ありが
媒
遂げ
高級
之助
北方
##ア・
中野
##為
##振
##au
親王
##實
##むら
da
歌舞伎
續
はる
##旨
守り
土間
##奴
##うけ
##健
はて
##掌
##ベー
むら
##漠
##簡
イラ
ho
##はう
乗客
当主
休止
##抜
兵隊
廻し
##痴
参議
記号
リッ
##つかり
##歯
ヘッド
分岐
戦艦
後世
授与
大地
##妓
南方
解体
しみ
午
ブー
教皇
えゝ
##ベルト
鞭
##予
##へば
プリン
##すり
##げん
及ぼ
##會
##投
誇
戻
##彩
見つ
長屋
デンマーク
##耳
傾け
##青
今更
獅子
倫理
ちなみ
鳴らし
芸者
親方
ないし
##ミル
軽蔑
##ぐり
信者
孤独
有つ
上がっ
ベトナム
##軸
##ber
いただき
反射
アルバ
##当り
災害
##省
成程
##ドウ
##スピ
しから
以内
蛙
先行
##ウト
天保
##伯
##忍
そろそろ
滑稽
##なわ
圧力
能く
##ばっ
挑
鉱山
神聖
湧
積み
領主
問う
した
越後
されば
慶長
出走
なくっ
当る
ヘン
発掘
いは
及
テイ
フェル
##リーン
招待
對し
つと
瓶
依存
##郡
##いろ
痛み
##すっ
哀れ
大坂
##吹
報じ
兎に角
かゝる
確定
日頃
翌朝
##牧
両側
茫
伊達
##なみ
##紅
牡
##ブス
顧問
待た
##」
高原
##爆
ベッド
アス
イスラエル
折角
##衡
誘導
##sh
##bo
芸人
##oo
申し上げ
鋭
手足
裡
##髄
中期
群馬
トム
出馬
##モリ
##禁
me
##たっ
ビジネス
##やす
##そり
境遇
##向け
平日
いざ
嗅
経緯
避ける
はいる
次ぐ
##ウェイ
文部
##詰め
日中
斑
ヴィル
##返さ
##ct
何れ
##奈
拍
制し
再現
且つ
##好き
移民
修理
おかげ
##ブレ
マニ
頂上
##迷
芥川
主任
加工
##レンス
##上がり
you
正義
遂
綴
##駒
##ディア
##たて
二千
##チョ
太田
終わる
モンゴル
藁
答える
つな
##ぶら
防止
其處
据
切る
ナン
##っかけ
正体
同意
個々
##録
ジャズ
##諾
拘ら
臭い
内側
雛
間に
淵
##ナス
キリ
火災
##遣
##医
公認
書斎
ボーイ
##ik
避難
こぼ
掲
##こり
ハッキリ
彼れ
##ンソン
注文
にゃ
##しょ
効率
奔
済み
踏ん
かへ
合同
フィンランド
比例
河原
酔っ
伝わっ
歪
ゅう
定着
ポリ
##ぷ
##ども
用途
意思
関与
##リティ
##込め
大尉
よろしく
##御
##pe
味噌
呆
天狗
包み
心地
on
##けん
提唱
##はは
にわか
##侍
##基
##リック
##著
##炎
コムーネ
茶碗
父母
ステーション
無駄
成っ
##2
マグ
ジャンプ
##でも
呼びかけ
幼少
資産
好ん
和歌山
手拭
隔て
##さる
大隊
ヴェル
##ru
幾分
##呂
らし
伝える
宴
陥っ
処刑
一見
察
##働
##やう
のぞい
ガイ
ピー
限界
ばら
空襲
いわば
ネーム
##慾
##はる
パワー
皺
ちゅう
此處
##レル
司教
優しい
##己
##カス
扶
##それ
崩れ
##婆
賛
ベルギー
称号
乱れ
放映
乗る
男の子
おなじ
##侯
代助
頼ま
##くっ
遠ざ
ジャンル
中山
透明
沸
小鳥
三河
なつか
つくっ
堺
苦笑
同人
秦
jo
方角
品物
成果
下女
全長
極め
神秘
##惨
通う
祈り
行なっ
挿
気づい
あがっ
體
きこえ
##プレ
高知
痩せ
渠
着け
信ずる
島田
季
署名
mi
レオ
バンク
こめ
##薄
ファッション
機種
うご
##ッケ
旗本
動画
論じ
福祉
先祖
瀬戸
梢
##たさ
##ヴァン
##知ら
発着
##立た
痛い
##ニュー
ソン
洪水
任せ
反省
新規
##ケー
勃発
##かせ
##スン
援
斎藤
苛
こしらえ
化け
##ざま
みずから
##伊
素直
##渡
幹部
本体
シカゴ
戦時
たびたび
余儀
ナポレオン
見かけ
審
えらい
取材
近江
スケート
宝塚
恨
パス
##ビル
闘争
症状
誤り
##モア
シュー
テニス
##われる
ブルジョア
##フラ
議席
嫡
##フレ
最多
正当
伸ばし
岸本
##菜
遥か
分間
扱わ
万事
砦
巧み
樂
##黄
景気
宿屋
##蓋
流通
攻略
ぶっ
寂しい
そっくり
君主
つゞ
##,
ござ
##be
升
木戸
##じょう
粒子
読ま
嫉妬
ロバート
トーナメント
復讐
魚雷
##たる
##賃
コート
不平
##登
接する
##8
撮
點
青山
;
部品
慰め
ドゥ
ウクライナ
将校
全面
祀
想定
アニメーション
私立
コスト
ディー
ありがとう
前提
近郊
言及
丈夫
##功
##じい
会う
野菜
迎える
厳しい
会見
濃い
ウイ
##殻
電灯
一連
僧侶
動員
かわり
締結
レッ
短編
スティー
出來る
王朝
##ングス
松山
頻
##刑
岩手
離婚
入院
雨戸
譲渡
樹木
リード
同期
望ん
ヨー
同僚
来日
釘
顧み
社員
ヘンリー
プロデュース
##返り
憧
諦め
ピストル
アント
ゴルフ
##付き
黒く
たいてい
##っきり
コメント
ターミナル
寝床
逃れ
ひた
すり
済ん
騒動
典型
欧米
##っかり
##幹
よん
義雄
##小
河岸
スパ
印度
電鉄
囲ま
特性
かぶっ
証言
挟
祐
##翼
☆
傍ら
##拠
ウィーン
やすく
滴
そち
従い
##倍
和歌
頂戴
地主
##悶
賑
結ば
違反
摘
電報
##鎖
説い
##嘆
歌う
支店
欺
カッ
乞
尋常
ストリート
宙
##巡
青春
おまけ
##笠
##ジャン
最低
##フィア
アダ
鳴り
ウン
船団
##かた
光線
申請
頷
昨
妖怪
スミス
ゲル
人影
##ライン
技師
##ウント
重く
書生
##さと
桁
そもそも
##エフ
引用
潤
##隈
十郎
可い
##庵
山地
惣
パイロット
米友
##ろり
反抗
書類
唯物
失い
事柄
おう
##フォーム
マド
厄介
棄て
切つ
四、五
給え
羨
チン
河内
##まま
鴨
##ツク
ジャイ
三味
駄
鞍
##ゴー
土手
落語
退職
硫
喫し
強調
##たす
配給
処女
家老
材
敗戦
##エスト
災
砕
ロス
キュー
合い
歎
##白い
インテ
棲
官僚
修了
##らせ
大小
唱え
書店
佐々木
リンク
帽
歌劇
飾っ
かぎり
評し
成分
##ピア
きのう
別荘
棄
イデオロギー
いっそう
ナイト
##劣
おもしろい
##さし
吟
##駅
ブラウン
##対
##尻
ハッ
みち
師事
最早
診断
##|
運ば
豹
##やつ
##藏
イラン
水素
ビッグ
##クソン
##孝
かくれ
##剤
優先
捲
##ゃあ
丞
一環
ｙ
シャル
##ke
詫
三浦
カム
造船
うろ
このごろ
抽象
薩摩
難しい
繁殖
たど
##弘
##シップ
ときどき
奇怪
土佐
響い
おび
国外
##付ける
晋
en
##よっ
##伴
どおり
消息
落とし
選抜
##資
ミュージシャン
ゆうべ
##余
出かける
紅葉
ライダー
##値
措置
##ストラ
しの
小山
物音
告白
翻
歴
企
駿
あちこち
衛
気温
解消
地形
栃木
##膜
フリ
グランド
セント
##癖
蝋燭
go
##なさ
バリ
眺
山崎
起こり
誇り
勝っ
##らり
エンディング
##ギー
該当
ゴム
死者
有限
##博
行は
家内
起つ
##違
辞任
貰う
##つし
佛
ポンド
宮殿
射撃
取れ
man
借金
寝る
℃
並行
幾ら
股
総称
チャンピ
嬉しい
あちら
海峡
##適
windows
一目
##残
腫
##晩
##リュ
かくし
近隣
同行
預け
##斗
牝
最新
至ら
振興
思い出
収集
##るし
杜
なくし
木曜
区画
コンビ
編曲
鳴る
##シズム
##梁
ポル
褐色
sch
越前
ボストン
コス
ジェイ
唸
##緑
やさしい
守っ
顔つき
##慨
藍
一刻
人情
##プラ
##慢
惡い
月刊
前面
##オンズ
##腐
除き
連携
##巣
漸
電波
評議
配備
手がけ
講談
ウォー
km/h
##ss
代わっ
##ポン
著しく
儒
珍しく
撫で
特有
武将
バスケットボール
居ら
郷里
勿
##軒
東映
替
衣服
生ずる
##沈
売る
擬
熱い
前日
室町
大気
上杉
形容
##項
ランク
ヒー
もたらし
##尉
ふら
起り
累
仰せ
イラスト
##膳
捉
突破
留め
幼稚
あそこ
##エラ
妥
固く
スピード
前期
ノン
##孫
##すら
##キシ
##コロ
一角
##舞い
易い
##ff
コミュニティ
水準
めえ
活性
在住
##やみ
ぬい
ハワイ
確信
##だれ
述
獄
##テインメント
浮世
自社
ふれ
台車
群れ
棺
だいぶ
##ソー
皇后
##継が
つら
選ぶ
名づけ
ヒロ
附属
fm
口調
出せ
育っ
##ティック
鎌
下流
流域
三四
建立
万葉
##ツァ
はあ
ブラン
かくて
關係
かあ
##ティア
鬱
ポスト
古今
##辱
被告
促進
動かす
実力
牧師
すぐれ
今回
漫
親しく
ソウル
##厚
共有
障
天使
##銅
貴重
失う
募集
経路
塞
便宜
趙
ひび
落葉
度い
家中
吉野
埃
墜
〻
##求
##ビジョン
当たり
養成
アマチュア
たべ
##暴
固め
##免
着く
麗
町人
タンク
si
##炉
##じり
##休
証券
原始
施し
##嫁
##去る
却
##富
慌て
津田
期限
基づき
泡
粒
着用
##瓜
緒
法的
リーダー
つくる
シャツ
大工
山梨
動揺
便利
男爵
マネ
平生
茎
##琴
##じん
入手
教へ
##ぱ
しり
畏
曲者
実家
向こう
巴里
とめ
かゝつ
保障
遙
是れ
##ぐっ
近世
皇子
クラシック
ドーム
##ターズ
短く
##上つ
会計
##貫
##ウェア
親戚
やがる
たとい
##協
変動
##og
衛生
##回り
良心
あぶ
親友
転向
jr
##磁
##午
あそ
##逆
内儀
頭部
##ill
##ds
尽し
三島
打点
篤
##払っ
端末
庇
眩
隙間
別名
農家
蜜
侵
酵素
階下
要塞
葡萄
レコーディング
##援
よかろう
一員
オープニング
地中
既存
コピー
##艇
昂
レンズ
##いき
授
おぼ
##雅
##づき
おのれ
失望
##戻し
偉
飲ま
砂糖
紺
佐賀
史料
函
可愛い
如し
ローカル
閃
ソヴェト
支部
カテ
##銭
玄徳
必死
##阪
いづれ
困り
判っ
思いがけ
参っ
探検
##ばた
已
御前
番地
##テナ
フォード
チャールズ
200
##聴
東方
恐ろしく
美濃
オスマン
造り
岬
前田
##りつい
とれ
教科
夜間
撤去
兵衛
るゝ
刺激
グロー
pla
球場
吐い
ホイ
退団
応援
直通
ou
拔
焼け
##透
放棄
委託
遷
たと
妄
生ん
よき
苗
##こめ
戦前
儀式
山陽
四郎
学科
##ニコ
碁
ヘー
架空
そそ
選定
小野
遁
玩具
傾斜
ようす
面相
##ラ・
ダル
##敢
複合
##ボール
緊急
堂々
頻繁
少い
繰
なくなる
水上
##ルター
寧
##ウッド
##笑い
満州
こい
拓
横た
大胆
たつた
敗退
東宝
対照
シャン
メール
インディアン
よそ
突い
小児
金沢
太子
ri
##ずり
名詞
##ボード
##ぬけ
##なす
家来
インチ
４
エンター
##臓
叫ぶ
チュ
切ら
乾燥
原題
汚れ
脱退
先き
##革
苦心
トーク
海水
庭園
要因
韓
##壊
アート
##きれ
##蘇
コンセプト
包ま
新らしい
石炭
真中
##ma
北朝鮮
理性
##消
##ポート
スポンサー
##たび
艦長
##切ら
##訓
ac
当該
タッグ
漕
後年
炭素
申さ
謹
変わら
判事
実績
カウン
蟹
西武
書け
##im
まわっ
箸
##並
un
耐え
仮定
休ん
東海道
貧しい
順位
解析
アルコール
昭
はや
面目
乱暴
ならび
##乳
アイテム
上方
招い
安打
食わ
試作
愈
城主
積り
思案
##ッサ
黒人
##えん
平家
詮
棋
バラエティ
殴
連覇
##出る
##滞
##妹
不詳
##建
住み
曲線
##ice
苦しん
細川
椎
さア
うなずい
ピッ
蜀
短期
付か
なにしろ
悠
名乗っ
##攻
主流
通路
小田原
けっして
駆動
わき
學校
##勇
##カイ
##閥
ボックス
若く
いささか
##販
むずかしい
忠実
少佐
旅団
##立てる
作中
たか
迂
堆
暑い
##レート
##脳
ジェームズ
昆虫
最上
生かし
満ち
しかた
頼朝
微妙
捉え
外務
解除
##スパ
薪
薄暗い
駅前
孔明
合わ
凌
##寒
表紙
下位
途端
樽
##id
捧げ
放し
##メル
パート
撫
主婦
元禄
左翼
師範
##ログ
北米
##かげ
拒
##通し
質量
損傷
##mo
着手
真珠
ライセンス
##敏
滿
後任
独占
出資
キャンプ
編纂
##sp
##ell
読売
密度
構わ
納言
モル
観点
代々
金色
##買
逃亡
買つ
##淵
正規
決議
自民
##ノフ
宝石
竣工
一ぱい
ぐらゐ
伏せ
方程
ロング
咳
##樂
胆
甘い
拵え
受信
##果
つくし
療
スポ
てえ
括
はなし
##やき
享年
##チュー
肖像
拵
##っそり
野原
有機
敷い
##偽
忘れる
残ら
埋葬
尊氏
益々
脈
かす
クレジット
いたずら
学士
戦力
染め
虹
半身
適し
周り
図る
椿
##深
見ろ
貰つ
摺
自主
はじめる
作つ
##脇
アイヌ
廉
##邸
##猫
鳥取
信濃
人事
成人
所以
##cor
ユース
緑色
僅
ハル
フィート
##da
周波
かえっ
山城
##one
まち
把握
真剣
鷲
潔
路地
挟ん
おば
##葬
##ッション
##エール
ヴォ
坐つ
特許
##ft
ジャー
厩
參
亮
勲章
やがっ
兵馬
狸
穢
後悔
暗示
捜索
##傍
##ふれ
##ム・
##ちら
納め
お銀
ユーロ
##寝
ちょいと
##mi
フィリピン
##づける
衝撃
躊躇
引か
アイス
仔細
よろこび
好く
海洋
素材
##出せ
運河
手伝
el
ノルウェー
蔽
しまえ
出会っ
セリ
本郷
小倉
《
了っ
山岳
##フィー
ソース
見よ
がん
ハム
##粛
済む
倭
##ミア
淀
##屋敷
続編
##)
淋
##泳
##ッジ
錢形
とい
##スペ
申上げ
##せい
数百
頗る
##テイ
船舶
浮べ
芭蕉
群集
キュ
卯
せっかく
咎
蝦
箱根
アルゼンチン
来り
洛
派生
##閑
屡
##so
##微
モーター
しずか
心持ち
禁じ
内務
浮き
##泊
エス
##仕
追わ
がり
各々
放つ
二郎
本土
マイケル
##バーグ
腸
苦し
ドライバー
櫛
吾人
##けい
栄養
##リーム
##ica
古来
鎧
処置
礼拝
社名
万一
思ひ出し
溜息
##引き
##セット
##ナルド
マネー
全域
##廻
増大
曰
事例
比べる
逢い
終結
外側
風呂敷
封建
先代
すまし
大橋
##驗
理窟
澤
つかん
跨
あきらめ
さつき
水平
液体
入力
ゴールデン
空母
しゃべ
わかつ
リズム
おそろしい
撤
逃げ出し
同月
広大
退い
プラット
魯
品川
函館
襲わ
至極
聞け
平等
##リウス
怖い
中川
仕舞
一歩
許り
すむ
なけ
石垣
欲し
ジム
コア
草履
擦
説く
融合
ボディ
あすこ
コミュニ
呟
##雑
請求
すん
存続
天体
やつと
見廻し
##リート
伯母
浮い
遊ぶ
主導
食料
広がっ
取り付け
縞
咽喉
雜
デモ
3000
添え
阪
前進
和田
ひらい
揺れ
好む
黙つ
##損
焼い
##突
航路
テル
ゼロ
シンガポール
單
叶
勾
ニン
クリア
届け
他方
奨励
与へ
当たっ
訣
ひろげ
そつと
捻
飼育
##った
野村
プロイセン
凶
##ran
酌
ノート
悲鳴
受験
出掛け
巌
物資
##遷
幾何
王位
セレ
圧迫
去り
並木
黒田
叱ら
フランク
ノース
つる
瞬
飮
迷信
築い
東南
テキサス
ti
メッセージ
会館
疲労
さめ
##晴
捕え
市川
ふっ
##ネマ
刺戟
懸念
##グリ
##ぐん
疾患
ケル
さび
生理
尽き
##横
##鑑
##回る
web
ちゃっ
ミシ
##ドルフ
漆
がつ
太刀
三吉
友だち
仕掛け
##駄
譯
##冶
混合
有利
ドキュ
跡地
巻い
免れ
先方
髯
出世
侵略
大島
亡命
権限
うれしい
因果
補給
審議
近鉄
臥
外出
信念
フロント
##ミュー
戀
神宮
祈祷
諏訪
楠
やむ
在り
ラグビー
ジャケット
##ase
##なた
示唆
##討
久しく
##フスキー
水面
穀物
トヨタ
鋳
兆
騷
##じっ
圭
畢
やつぱり
煽
陵
##イー
シナリオ
##デ・
##こえる
##シュタイン
笑顔
細かい
馴
一流
高め
投稿
ブライ
エース
##液
譜
##掛ける
春日
##ッタ
横須賀
戸口
##ジョ
暗黒
芋
ストライ
弁証
##爵
ナショナル
因縁
##ヨン
アウト
範疇
餓
考案
##6
眺める
##骸
班
ジェット
再編
門前
阻
現状
くわ
ベンチ
多摩
ネー
連勝
掴ん
橋本
##ふる
代替
op
佇
##ずれ
そなた
憚
可なり
賤
打ち上げ
廻る
出口
##妃
##わけ
みえる
汽船
タクシー
ガラッ
余計
つくり
とりわけ
##テッド
》
##呼
菊池
滅亡
併せ
##テー
老い
スロ
直径
肯定
##廻し
耽
##暇
欠け
意向
琉球
##農
ヴァイオリン
##いた
滅多
揃っ
##コフ
さげ
墳
##胆
陥落
聖堂
ミン
熱帯
メタル
ワイド
だまっ
まれ
拙
衣裳
当地
頻り
こだ
##掘
##バス
明白
回数
キロメートル
鐵
利根
フットボール
レストラン
家人
つね
扮
ブレイ
コーヒー
すべ
乳母
構内
倶楽部
カロ
ボーカル
負っ
##晶
起こす
ぺ
##切る
価
##奇
戦術
じぶん
伊東
健全
当人
並ぶ
##ers
上級
髪の毛
日向
間隔
油断
次いで
下され
##エット
##財
保安
##駆
ふん
山々
女神
注い
一室
薄く
さよう
未満
コレクション
tr
梨
追う
厳密
パーソナリティ
荒れ
学名
##継ぎ
""
始めて
種子
バトル
##浄
##マニ
訪れる
##どき
責
オーケストラ
："
##シス
訊く
暗号
チャー
加える
##叉
ケーブル
九十
##ガイ
白人
##タール
##邦
拾っ
紛争
歩み
##振り
起きる
##踏
惜しい
出典
ビット
マイナー
閉め
##規
##じて
刹那
##銘
見つかっ
ヴァル
##検
開放
ざれ
金銭
##塞
##チャン
##杉
解い
##まう
ほの
##淡
降格
宏
道中
のぼっ
##てい
釣り
吃
合図
恨み
造ら
地蔵
演じる
##チル
心中
##霧
##ばせ
基盤
欠点
顕著
サウ
はん
呆れ
對
あッ
軍勢
フリードリヒ
刷
移さ
本国
御所
##随
##責
新造
宇治
##ッズ
可哀
まづ
コラ
工作
冥
婿
不正
遡
駐車
噛み
弁当
化合
ヴァー
長女
##締
ガリ
藻
たぶん
向ふ
##リカ
ちがう
##誉
牛乳
##閉
付く
水曜
ルイス
かさ
濟
シテ
##ure
すき
怪人
厚い
認
目撃
出会い
学年
厚生
よら
反発
塗装
洗っ
返す
當時
排除
角度
隨
船頭
軍艦
漬
火曜
ブーム
大蔵
南京
業績
就職
同名
オレ
捜し
秘書
永い
ぬけ
薔薇
ドロ
碧
課長
##ちがい
メー
マジ
へい
動産
よせ
やい
##じゃ
蠅
##階
見送っ
##がき
凡そ
慈悲
制約
初演
レーダー
移る
##ぷり
胎
当分
##（"
鳴っ
循環
ねん
牧野
便所
畫
偵察
公爵
##イア
##エイ
【
##レム
締め
家屋
##あわせ
昨年
説得
##爺
現行
鑑賞
##乃
##瓦
雁
郷土
寛永
山頂
文壇
近藤
総理
っぽい
濡
恵まれ
##落し
アニ
##トロール
##唄
分かっ
吸い
扱っ
稚
伐
関わっ
甲府
アブ
】
にや
スリ
##蛮
##のり
##すぐ
派手
無用
細く
騎手
若手
担っ
ハード
はなれ
避
提示
ヘビー
ナチス
犯し
限っ
##包
ナンバー
促
牧場
##曹
斜面
ディズニー
公卿
突入
三井
推移
論争
##灯
違つ
毎晩
##ずい
馬場
阿部
施さ
ヤング
cc
焔
塊
面会
校舎
##さく
従軍
登る
おどろい
##郭
尽力
国語
1番
懸け
よこし
##ぎっ
伴れ
切符
漠
移植
インターチェンジ
貨幣
car
##塵
疑わ
樺
敦
准
聴く
##違ひ
バカ
知人
##トレ
醸
高田
##々し
飾り
情勢
##つかっ
弄
はなはだ
余程
加速
##　
卷
かよう
中尉
海底
##譲
##とし
微か
三田
丘陵
己れ
水中
冒頭
クリスマス
山下
ディスク
短縮
快速
マス
パフォーマンス
##腰
##むい
##ヤン
事前
菩薩
##朽
回路
足跡
詰め
五、六
リオ
證
宇都宮
余地
模型
##もや
##構
##浴
狙っ
一しょ
毎月
確率
縮小
枯れ
淳
果た
vol
こころ
臆病
企て
##モス
推理
バイパス
さがし
さながら
おぼえ
了つ
##ヶ谷
##age
##めく
堪へ
れよう
頭脳
回避
三好
カレッジ
キャスト
変形
たまたま
本當
喪
断念
酸素
妃
後日
ファー
world
ｎ
##ハハ
宣教
la
錠
離れる
ソニー
親父
さっぱり
##しょう
りっぱ
不動
##テレ
一軍
図っ
##蒙
頂き
中隊
柵
##鉱
アラブ
ヒル
腰かけ
標本
合う
判り
親しみ
中々
雖
定める
##反
少しく
禿
そちら
活発
海戦
抑制
##まん
修業
もて
おさ
辛抱
触れる
彼奴
グラフィ
予期
##きる
智慧
聳
##っくり
盲目
##ため
##測
問い
##ハッ
蕎
##かろう
甲子
加賀
##いつ
気づか
鯉
##帥
本編
##り前
抛
##ロック
とたん
筋肉
検出
給仕
##リヤ
鳴く
##出そう
一心
横断
小次郎
飲食
人目
##した
殖
糞
フライ
##ずん
傑作
主君
予言
セルビア
右側
輕
コンパ
##鼻
ブロー
香川
かわい
inter
総裁
装着
ボクシング
珍らしい
考察
募
##たか
ｆ
緊
ヂ
対決
##00
##あたり
給へ
ひね
##蛇
##餅
通つ
映っ
河口
雇用
トレード
なま
##囲
表彰
##粒
挿入
数値
はいり
外観
おっしゃる
託
ほとり
入場
気配
御飯
感激
##縛
のっ
遅い
誤っ
##降り
水道
日本橋
エンド
溺
欧
物体
たえ
##づれ
按
原料
##放し
##璃
##扱
阿波
##グルス
平面
##畜
信州
誇る
かみ
管弦
##塊
##ぜい
##腸
筑波
ロゴ
煉
熊野
轟
洲
コロンビア
##珠
上田
##條
巫
展望
戸外
車内
向かい
ちなん
フィギュア
かまわ
##提
ノル
制覇
##キイ
坂本
愛媛
ストー
村上
##督
##朴
わるく
とくに
all
##鈴
樹立
丑
出土
對する
呉れる
案じ
内地
脱い
爲め
出雲
春秋
モチーフ
中断
寝室
放出
##テス
関わら
食糧
閣下
##あげる
充実
名乗る
ネル
##サイト
退任
桶
オーバー
洒
噴火
示
一気
ステークス
茲
集まり
##エーション
オーディション
登り
動力
グラン
jap
爽
マガジン
##ずみ
坑
呻
蜘蛛
眠る
尾張
##メイ
ほら
##碑
普遍
松竹
愛想
つながっ
##謝
閲
決める
ダブル
リニューアル
ヵ月
左側
狼狽
範
量産
下る
一所
５
事物
##就
兵力
責め
博多
契機
ちと
卸
削減
輝き
藝術
##スチ
帰し
##周
運航
恰も
到る
##ぶる
衞門
##つち
解剖
聞かさ
殊
いよう
出張
##扱い
##康
巡洋
##om
ファミリー
##消し
こつち
名所
##究
##みれ
##すつ
大方
ロイヤ
うっかり
##針
一大
大久保
##テスト
なれる
##組ん
協同
柴田
部族
特異
容疑
咲く
遇
love
キャンパス
内心
妨げ
##股
一斉
梶
関わる
保つ
近畿
##キスタン
ファイナル
##數
##ばり
厳重
前線
力学
マイクロ
金剛
救助
気筒
音響
メリ
大野
駕
残す
団地
従う
トーマス
##合つ
ネタ
終点
設
所持
友情
天国
art
##ラリ
ひそ
マサ
エド
さわ
体操
廃車
きょ
##抜き
明神
容貌
握り
親しい
別々
芦
ウィル
鋭く
入道
むこう
安政
逆転
療法
##ドイツ
擧
迅
右翼
カント
紙幣
実装
じき
没し
per
5000
うるさい
フィリップ
やか
感想
##ばん
究
櫓
院長
楽しい
##陵
辞儀
有難う
##ハウ
国連
レンタル
戻つ
分から
授け
柴
ge
★
##送り
今晩
スマート
##幡
ラウンド
パターン
##洞
遺体
暫定
##媒
滋賀
風邪
堪ら
##冬
憂鬱
##ごう
##起こし
会合
##臺
打者
断っ
##せよう
##つて
青く
入門
##驚
橘
畠
町名
メロ
まかせ
徒歩
隊長
刑務
灌
カ月
外し
高齢
##ベニア
早朝
##訪
移管
いよ
間違っ
俵
##たき
住所
どんどん
ずつと
##トラー
デン
社會
##タス
本項
いたる
逐
ミュン
スプ
##がん
素晴らしい
待合
高松
鮎
三振
box
只今
門人
付ける
保管
##セイ
残つ
疊
発する
##借
支流
勝つ
神学
茅
##つれ
怖れ
金吾
省略
##ローズ
口惜
育ち
ファースト
繰返し
仰い
##征
磐
ドラゴン
アミ
##くん
じや
はやく
おのずから
らん
##奮
##株
遺言
パソコン
"|-||
笑わ
名物
扱
蚊
##いや
上つ
やが
変える
tra
吠
混雑
誘惑
然う
食卓
##トス
袁
オプ
アトラン
途方
いかが
ばん
流さ
鄭
しみじみ
##ie
辺り
振る
木立
アパート
萌
##上がる
中島
あざ
##響
##ほう
パッケージ
格別
##あがる
好ま
プロセス
##マンド
バージニア
問答
大川
##汁
交易
##ヲ
codice
ｈ
##僚
##太子
砲撃
さっそく
話しかけ
飛び込ん
##九郎
##1
あがり
一昨
売り上げ
##ミネ
天神
アラビア
##払
ティー
器用
##紫
救う
##ラク
##かえっ
##美子
##っとり
郭
##シャン
後部
街路
デザイナー
当り
糖
南海
幕末
タンパク
一口
##右
職務
ap
稍
帰れ
朋
桟
伝わる
奏者
アプリケーション
奪っ
押え
##供
辛い
上等
流石
アンナ
振動
##桶
平常
尊重
一と
##アニ
阪急
集っ
##券
送信
唾
##がす
ｃ
富岡
念仏
聴き
##ケーション
学区
面影
##ホー
##プライ
脂
チー
記す
判る
疑う
##網
贈ら
丹波
近衛
瑠
漁業
ショッ
役員
##ッター
##曽
倉庫
広間
ライフ
##了
繩
光子
狂言
妨害
衰退
貨
##つしやる
憶
大層
手続き
御殿
売れ
##采
報酬
##ゼル
れい
##no
エドワード
##ace
忙しい
さぞ
通用
##奈子
##ジュール
##つとも
予測
殻
認知
運ぶ
中年
pl
黄色い
全集
ライバル
レスラー
火の
配慮
負う
西方
脂肪
朝倉
モンスター
岡崎
##ヷ
容量
##休み
##きり
##アリ
狂人
スタンド
##亀
##芽
##欠
懷
終盤
見出さ
新鮮
ed
公国
ヴォル
譬
光明
##如
国有
##診
##宴
抄
悩み
主宰
売上
##債
##苦しい
貰ひ
##捕
ワル
wil
堅く
蘆
急激
実証
八百
トイ
開館
淋し
同級
接吻
とかく
本堂
圧縮
生前
折々
庶民
投じ
贅沢
往々
##しめる
豫
cor
music
真相
牡丹
一揆
相模
果実
競輪
却つて
##キリ
鳳
導い
##い出し
大夫
##シル
##澄
仏蘭西
##テーション
在位
彌
屏風
審判
皆んな
受け取っ
神々
##寛
壇
窪
斗
卓子
恒星
ブログ
悪かっ
泊っ
大家
##どい
##票
庸
あえて
プール
ウルトラ
##覺
ヶ所
##羊
迎へ
大師
##って
##残り
娯楽
救援
翔
島津
##っこ
暫らく
倒し
パナ
義塾
ヴァイ
ハハ
##りこん
死人
ウイルス
こく
起点
##ory
抜き
はっ
全般
ヒト
ショップ
悲しく
蟻
トレーニング
##るる
##son
官吏
下ろし
##ざん
下旬
##廊
長編
マスター
きつと
土産
同等
はっと
大概
持ち出し
四角
##壌
##ッセ
##なき
緩和
鉛
呑ん
石井
ヒョ
貧困
応募
##ナ・
##卵
臺
惚れ
叢
上院
年寄
赤ん坊
##潤
##充
ショート
大韓
バレーボール
止める
中途
不在
##脱
蔓
話さ
後藤
浜松
百貨
動かさ
事實
容子
##リイ
ガル
イル
著しい
##對
ジン
苦しめ
リチャード
##だて
プラン
タル
若き
##割
栄え
制服
秀子
迫る
無邪気
##閣
プロテ
燒
化石
風流
##二郎
外科
淫
歩行
he
極度
##なかっ
出産
慶応
駐屯
とある
淺
直観
ドライブ
リアル
魅
径
阻止
煙突
立ち上っ
掠
居士
uefa
ござんす
ひそめ
##ックリ
斜め
あっし
濃度
未亡人
コップ
這入つ
##鞋
##胞
##ウィン
##環
フレーム
みなさ
リスク
偉い
感傷
嘗て
斷
將
軌
イエス
##ü
タワー
あした
出よう
他国
梯子
置け
pr
瞑
##朗
宰
禍
参詣
依っ
楽屋
なさら
##ビュ
##レオ
##ティス
盗ん
##停
窒
##廻り
宿泊
父子
写生
足る
##スティー
集会
田村
##ずき
走ら
籍
フロリダ
搭乗
謝罪
命中
なあに
通貨
内戦
濃く
先日
揚げ
あはれ
船体
崇拝
前回
一段
ズボン
しだい
##臭
文政
##ところ
掘り
領地
大變
手掛け
陶器
眼前
崎
##ジラ
総長
レール
##睡
##壮
咄
恐る
ジャーナリスト
浄土
川上
運輸
##障
半数
国籍
パートナー
##過ぎ
白状
門下
蚊帳
##楼
まつたく
所得
楯
突如
置き換え
##狭
福音
管区
修士
あず
駿河
間接
賞金
小笠原
サンフランシスコ
##まわし
休日
##激
着陸
##及
調達
長らく
pre
かならず
見まわし
謡
立ち上げ
##やっ
どなた
##否
海賊
軽量
##op
従業
##鴨
乏しい
ヘッ
大宮
ダービー
##懐
繊維
バレエ
本気
つた
##だん
宗助
パウ
コミ
遭遇
ミュージカル
『"
燈火
##タリー
##藻
さか
ウラ
めで
相応
卑怯
花火
孤立
ケイ
促し
##払う
成つ
救い
##さめ
おとなしく
安い
ベルト
高価
##避
金庫
ディレクター
粗末
##起し
##摺
##ノール
コミックス
いっそ
横町
広域
##マリ
たがい
技巧
湧き
親爺
妊娠
北陸
播磨
調理
展覧
##竟
進める
造作
むす
外見
事項
吉原
分散
分れ
沁
催し
##訂
マイク
技法
トレー
フィル
逞
背負っ
飜
姪
居間
𢌞
落下
##仲
出家
トラブル
手伝い
説教
伏見
##脂
##つり
衰弱
身體
##灰
レジ
群衆
ゴル
##サウ
ボーナス
真赤
植木
人力
幻想
髭
チリ
招か
空虚
みどり
一団
最古
##ts
##嶋
利か
小判
オフィス
##メンタリー
ミッド
思い出す
山の
コンク
罷
変わり
高野
ウェブ
te
"（
冷静
衰え
##az
エンタ
##（
歓迎
揮
##ry
鯨
つま
鞄
金額
##からう
認可
##ヶ原
##もん
インターナショナル
つくづく
早々
川口
##とん
名目
半蔵
ミラ
ブルガリア
奉仕
思い切っ
主役
"、
止まっ
反動
##哉
##つた
センチ
洗濯
##踊
遺憾
来れ
基督
プレミア
##汗
ひろ子
而して
但
材木
木造
テープ
茶の間
あわれ
スパイ
##ational
##れこれ
新吉
炊
秩
マスク
回収
所蔵
周期
##ストロ
##いっ
甲州
缶
紋章
fifa
仕度
起さ
哉
##昼
##グス
##涼
##サス
##モノ
重力
運賃
陽気
##哀
かたち
撲
##返る
詣
小声
土蔵
臨ん
見舞
武蔵野
上人
コメディ
##かかる
まだまだ
ボス
寄付
併設
一足
一二
願ひ
片隅
返っ
検察
配属
テロ
ステップ
総会
ジャーナ
威力
氣持
想い
##ール・
解け
あさ
喬
大津
col
葬式
指さし
覗き
されど
ニヤ
追求
##乏
##ツィア
同国
種目
クロアチア
植え
わかれ
天子
藏
次ぎ
開ける
##堅
何十
##のう
##ださ
邊
##だっ
##狩
拭い
最小
右門
タバ
沈没
##審
煤
照らし
金五郎
コマ
##聲
正成
ヤード
遼
##承
財務
宮本
エミ
##モー
引き継い
湧い
小松
自家
後退
ヘリコプター
溢れ
曖昧
##され
##回っ
おめえ
パネル
##めて
気質
##付か
ヤク
兇
たまに
##暑
兼任
一門
通勤
タイヤ
##フェン
治安
立体
頭巾
フォーク
ニュージーランド
ほっと
嶺
有難い
法廷
姫路
琵琶
豊臣
辞職
市立
##ワイ
もたらす
漁師
地質
抗争
消化
萎
##倣
見込み
ただちに
ルーマニア
悠々
wh
すこぶる
ファンタジー
木綿
大根
こりゃ
寒く
正に
衰
木の葉
疑惑
干渉
騰
修復
キャプ
##たた
会津
容れ
やらう
上品
佐渡
權
慶應
##ギス
##塩
たがる
牽引
ディーゼル
延び
##バード
敷設
##み出し
靜か
妻子
アテ
one
イエ
##ary
##冷
兎も角
##なから
##渡さ
葬儀
晝
冴え
ふるえ
つづき
痩
愕
總
‐
車輪
##ニス
インドネシア
令嬢
然る
近づき
ブック
クイ
歌い
mon
損失
本種
達者
捜
##尚
##ったい
ふだん
収穫
筆頭
##リーズ
##ネイ
木下
順次
詳しい
衣装
音源
文學
尾根
争っ
△
渇
エリザベス
寛政
驚か
勲
キャッチ
goo
堕落
##ゲー
##齢
##アニア
財布
陣地
##おっ
湛
ウェイ
叩く
##搬
富ん
下院
哨戒
颯
輿
##行き
盡
スイッチ
浅い
不便
ツイ
視点
##−
きもの
困つ
探す
集める
学位
スイ
解雇
配布
至つ
繪
倦
精力
##わしく
内外
なくなり
侮辱
信玄
イェ
賑やか
##り上げ
子爵
有料
込
屹度
粟
ser
なされ
貪
中毒
##いて
嗜
見詰め
題し
落選
出品
可哀そう
過剰
原田
枢
##バッハ
おくれ
烈しい
夥
納得
##イング
警告
揃え
洩れ
##申
大砲
見付け
変数
##ペーン
ヵ
罹
##旧
天候
南アフリカ
プロモーション
鉛筆
減っ
木曾
默つ
氷河
ベートーヴェン
抱く
誇張
引き上げ
講座
さびしい
##えれ
関節
##贈
変わる
加わり
##ズ・
コール
租
愚か
カメ
vi
配列
とく
新作
左膳
化し
途上
##礁
救済
在来
リバ
野生
##あがり
五千
##去り
対岸
医薬
合点
オイ
自在
石田
愛好
喪失
qu
##アリング
##ガラ
ラム
##ロット
##っぱり
##広い
バイエルン
険
##むり
およ
道楽
対面
ショック
風情
進ま
利害
遣っ
志願
##芝
コンテンツ
箪笥
乾い
絶滅
鳥居
知らせ
洞窟
本物
アキ
餘り
ゆるし
草原
特典
天王
ウェスト
##ment
疋
##宵
##アリー
重複
説話
##万
ヒン
醜い
目録
α
##傘
病室
##坐
患
予約
##菊
おま
明り
斬っ
邸宅
劇中
ダウンロード
弱く
##伏し
##残っ
重賞
##ぶれ
品質
1000
",
##犯
##いる
そと
ニッポン
運び
行かう
許す
##着き
往く
理学
ぎり
岡本
まじめ
民俗
瓦斯
っけ
##構え
##ハラ
喜劇
拒絶
フォル
終日
露出
楽しむ
孟
睨ん
上述
任期
シンガー
ツール
##詩
払い
斬り
長老
分別
##純
##トリック
のばし
きち
急ぎ
聡
寂し
寅
##舷
##リアル
溢
鶯
器械
緋
##之介
##ク・
考古
亘
ボイ
ドラム
##ca
広がる
むかっ
怯
ペー
ロール
グロ
チェコ
##長い
じみ
諭
##潜
チェンジ
索
陛
永く
##ゾン
##強い
かま
##砕
スカイ
##〻
争う
送つ
留まっ
lb
写し
##愁
##うち
現し
テキ
##しっ
メス
撰
賣
##猟
ナイフ
育つ
##渡す
折っ
##売り
##かが
サイン
##当たり
逢う
エキ
##びと
醤
渡す
##寂
##千代
##療
##むけ
##扇
##創
##署
##赤
退け
榛
マア
招き
##ずく
厳しく
##初
##憐
挺
薩
肢
エディ
まへ
違ふ
津軽
ナル
##験
ver
けれ
鞘
##リード
ざま
ウー
##醐
ちが
##下り
しらべ
日野
ストラ
##蝶
##いと
佐野
##取つ
撒
恥ず
姑
きわ
##なが
坐り
##誠
ウィリア
わら
加へ
##ぎり
づつ
##ケル
##拗
ぶん
醫
##ズル
##出で
##フィン
##裕
##優
##裟
##湾
yo
##じく
パイプ
##ati
##兵衞
##セロ
被っ
##ピン
アメ
##悦
##削
##到
フー
ママ
##抜い
やさ
落と
バランス
牙
かから
##拝
フィラ
##つぶ
カンパ
##氷
##れん
ッと
凹
マリー
うず
ペア
輝く
牽
瀧
ローズ
##嬌
##巧
おもし
郵
フィン
問屋
##槽
檜
モール
凱
ハート
失点
朽
##du
煎
隠す
##覚え
にく
##暖
いただ
歿
抹
鱗
##湖
はずれ
恰
きつ
ゴン
##越え
きび
仔
脆
ストーン
##戒
汎
##憎
bu
##プス
##gu
欣
##フォー
##赦
##宰
呶
ラブ
ぬれ
##るく
##尽
##スティック
##昭
##ノス
漱
リト
##貝
けさ
措
##九州
ミネ
竿
疲
提げ
##合ひ
膜
##恋
##ハイム
##ウォ
重吉
殉
峯
ライオン
チャイ
曲げ
とどまっ
アベ
##鷹
縋
##儘
蒔
##付く
っこ
##輝
靜
##四
購
匿
媚
##ロリ
##廓
詐
##小路
かえる
##ツト
##ポーター
調べる
培
##輯
##豊
かえり
成し
##ろしい
##動き
仮名
圖
##共
小路
っきり
饒
##ゆき
伜
##塀
広げ
ミー
かかえ
悶
##鉢
##がわ
##会う
##奨
傲
##乞
嫂
ネイ
##黒い
##ろん
##チェスター
##鏡
##顧
##肩
##阿
##ほん
##喰
##刃
おん
##へん
##見る
癪
ゅ
##肢
がわ
##祀
##ミック
##荘
菩
##払わ
##流し
冒
ミッション
##而
ダニ
７
スティ
##左
##胸
掩
ゴーリ
##諧
慄
凭
ing
##虎
唖
##かき
クロー
##樽
羞
くさい
##留め
##績
オペ
##バート
##促
##巾
ライター
トリック
飛ばし
##ガス
たたい
ツァ
サム
##炭
##麓
##ワール
蕭
臼
##趣
gu
惟
寵
##ho
苔
##壺
曽
破る
更け
##タウン
##エス
##ポリス
黎
憑
##墜
##わた
##どん
こぼれ
##簾
##よし
##崖
グラス
##クー
プラス
##ラリー
喘
應
込め
假
##窮
##牙
すえ
##オール
##谷川
咲き
##かわ
wit
起す
覇
##弓
ウッド
##直す
##んど
##ちょ
松原
##滑
##騒ぎ
峡
生ま
轉
アマ
詳
燭
##あん
曝
##ta
##ni
ブロ
##むき
##掃
##もし
##恨
ｏ
ほほ
##触
イスラ
##麿
キス
##俣
##アップ
##ふく
ds
##思い
##暮れ
刺し
デス
##ぺ
騙
ゾーン
##ヅ
##蕩
蕪
hi
賠
##急ぎ
ベッ
##たま
##庄
er
えっ
ガール
##禅
##杖
##のち
眸
６
##移
##餐
##騨
##ぶっ
ニュ
##イ・
忽
##の子
嘗
榎
##騒
##弧
姐
マックス
##やま
伍
##鼠
苦しく
カナ
エフ
彷
##疫
帶
##ひら
##イツ
ガード
儲け
泊り
けだし
##ビュー
駈
囃
すい
##槻
届い
腑
葦
##ポー
##だら
諫
##穏
##ばい
越える
##ベット
##裸
##轄
瞼
##去ら
##后
##吉郎
##ä
##忌
##洛
mu
##簿
櫻
##騎
逝
##sch
ゲート
上がる
##テク
##ふら
叡
##宇
##賢
##熊
シド
醒め
烟
##綻
##覆
##下ろし
##メートル
夷
顛
##集め
巷
##担
庶
粂
uni
コンサ
##醒
##ホン
回っ
##ok
らく
シリア
＆
##調べ
癌
##プレイ
##夢
鳶
##騰
弊
凄い
回り
##弄
較
錢
まわし
##恩
lin
##檎
##こく
##遣い
##帆
コレ
ru
##圃
叩
わた
過し
##いれ
##戻
ァ
高地
##コス
佃
##俵
##短
##鐘
肚
her
ザン
樋
##すけ
##こっ
そい
跫
貢
除け
##恥
##メイト
瓜
山内
暫
##潰
pa
艘
テー
谷川
##惚
韻
乏
##講
##tr
##韓
##斷
##擢
##栗
##イヤ
##起こす
##加え
盟
ド・
##こい
垢
イリ
ごま
##縄
##扱う
##おか
tu
ほと
##つる
ポート
はめ
##po
##づる
野田
##震
##執
##惟
##ぺん
##斐
楕
##〜
##觀
##唐
鴎
荻
俥
すご
寐
醉
##50
##きっ
廟
##畔
せき
fre
鵜
##握
ボリ
##よせ
##鬱
上がり
のぼる
ネク
搬
蛍
洪
##巳
##貢
孃
##ニックス
mor
フィー
##牌
##張つ
##また
##宋
##継
巴
##まわり
##週
たき
##まわっ
着き
##セー
##しろ
酢
離し
##くさ
紡
わる
亂
##盛り
フランシ
##拐
##ws
##個
gre
##爾
滞
ad
寫
昏
##がく
##とら
スコット
##寧
##あて
把
##ロフ
耶
##スリ
ストロ
こもっ
##傑
朴
##繕
肘
##チア
##デイ
ヴォー
稿
廻つ
##沙
條
屑
堕
##チー
##遜
##磐
##辰
＋
##飼
骸
こえ
##las
なみ
ミュ
##るゝ
##俊
##der
痴
##嶺
##for
##くみ
##やら
##寄る
##課
鍬
蓬
祠
##やあ
南米
祇
窃
寡
藝
炬
##募
##操
］
##ast
##sk
##エア
まね
##枠
胞
辷
##のけ
##go
隈
##廻っ
##映
##("
##詮
じゅ
ファミ
賄
喧
##ダ・
醒
譚
惑
舗
##ゆく
弔
##いい
ぐっ
９
兜
フェリー
戻し
##たけ
償
##広げ
きる
靄
御座
繊
慢
伽
##リラ
##ごく
##置き
gen
##釜
##ごし
##邊
酒屋
もり
##下し
嗣
##冊
アルプス
吏
##差し
##深い
##歩い
##韻
インタ
髷
督
ゲイ
##紗
覚め
##リオン
##por
粛
##王子
腺
##伽
鴉
##　　　　
##起き
##蕃
禮
##ブロ
やん
##縫
##ぼり
ラ・
##リアス
隼
八郎
帖
傭
##せえ
しよ
##ただ
肴
檀
仄
20
##回し
きん
##虐
割れ
##嵐
つかっ
拷
髮
##徹
##帰
のぼ
##呑
田原
##にこ
寄る
濱
荊
##墨
蒐
##鶏
卜
##嚢
盾
彗
##崩
##由
##ざり
der
##wit
##呆
モニ
ブレー
##イヤー
##まず
尿
##卓
采
##ろしく
##ぼけ
##鳴っ
##てえ
汽
あわ
##慄
##セス
詔
舊
##胤
ドリ
禄
##しかけ
クリス
##臥
わざ
ボード
掛ける
##臨
##撮
##隣
##鋭
##ちり
躯
葵
祟
##喚
##蓄
##グラス
##畳
挽
ゲン
##呈
##シック
のぼり
饗
##クロス
##ピック
ブリッジ
β
曙
托
##據
畔
脛
##á
pi
##切つ
##連れ
##斥
樫
##ホール
討ち
##強く
##靴
##椎
召し
##僕
っと
##耶
##択
舷
ゑ
fi
*
##きょう
払う
##張る
##あり
踵
蝉
##皿
８
妓
##圍
恍
##偶
##爭
ラリー
わり
癇
##遂
輔
##うつ
##屑
渾
濠
##伏せ
勃
##諭
##たち
##需
##杏
##棲
搾
##倒し
堰
##彫
##抱
謳
はな
##衰
ちよ
##嗟
##肌
##桜
鴻
硯
##ぐい
毀
屠
##コール
頤
##わせ
ループ
##みつけ
##おろし
##研
蛾
菱
渡さ
麹
##尿
##鍋
##もど
肱
##猛
缺
##巻き
##すて
はつ
コロン
［
ste
ビン
綜
湘
侮
##第
##伝え
##並み
##ほり
##。
嚢
愁
螺
##仰
##パール
碌
たず
逃し
##絹
##昧
董
愉
張る
ｄ
ボク
ヽ
pe
##泰
斧
蔦
窯
##gen
##ぁ
##シュタ
##背
##聘
喝
込み
##ヒト
##かかり
##鸞
觸
##だめ
ざら
九郎
挫
##入つ
##ポリ
飴
##荒
郁
ol
訂
##痺
##擦
##着く
##広く
##こと
串
##届け
##故
すが
楢
##うん
うっ
晒
こら
晃
##太夫
赦
テネ
##耗
蝙
##勞
ウム
##メージ
##受ける
##衝
min
##洗
##蝠
##綿
扁
抜く
##ベース
肯
##シッ
捨てる
まり
##惜
up
ht
##泥
あがる
狡
##かへ
々々
##やめ
##填
##ライター
##きら
##めえ
銚
##つぎ
稱
##かめ
朧
きゅう
│
っぽ
##宣
##かみ
##ーデン
勉
##グラム
##ファン
##グレ
儲
##せつ
てい
##讃
嚴
##柑
ぺん
よろこ
杭
祥
允
##あがつ
##應
播
のび
##を
##絶え
##撫
##袢
##ジニア
スリー
ペット
去ら
##陥
##帽
##we
諷
##だち
##倫
##昏
逗
拂
wor
##槌
##粋
##他
糧
岐
朔
##慕
##錬
トニー
やみ
契
##作り
##溝
##心地
##畠
捧
##傳
プレス
##シナ
諦
##諸
##残し
##裔
##シェル
りょう
逍
##vers
##遂げ
##アウト
mat
##パート
##やる
##だけ
おとな
しな
竪
##リュー
##ポル
##圖
##帰っ
gra
桔
##討ち
滋
sa
##とる
兵衞
##スペン
披
仆
倫
##燵
##られ
まつり
##梗
##スケ
れれ
臆
燻
sc
##團
灘
箕
##做
##パス
##オリ
##昔
##忙
##思
刊
##ノル
##9
刎
##召
##ルート
アイランド
オーディ
lu
蒋
錆
楚
黨
スターズ
##けさ
且
グラフ
##ヴィル
##奢
弛
恢
##瘍
##ö
##su
##漫
##ā
##つら
蝋
粥
フレー
##吟
##鋒
##梨
##スロ
##スコット
##一人
##喩
##さげ
##コレ
##fi
##ピュ
寄つ
##はっ
##斉
滲
すて
##苗
バード
齎
##ムシ
叛
##じみ
##(
##細い
##舍
##ハム
モスク
０
咽
##当ら
搜
##嗣
巳
im
##鋼
粋
襦
檻
嘴
コム
ターン
團
##點
##将軍
##惚れ
杏
継ぐ
##痕
##使い
##ぱい
##べつ
ろう
##ドール
##たつ
##裡
##覇
悄
##/
むず
##ネン
##柢
##董
榮
##帰り
##プレス
マーケット
##ジェクト
梯
囘
##姻
##惧
em
##ペット
my
##駆け
##戻す
##all
贔
揶
##茎
久保
哺
##ちや
##終
並み
厘
旺
##乎
梟
##ビス
##緬
##互
##pi
##膝
##迎え
拉
キット
ぐら
分ける
鯛
バッハ
せっ
##凄い
萱
##溜
##走り
##揄
##葛
##pl
##かな
ゼン
こっ
##沿い
##遽
サイクル
漲
##落とし
##往
娼
濫
袷
疵
##とれ
タム
##com
##じゅう
麺
##撰
##タム
ずる
##ヰ
靖
鋸
汐
隷
##憩
##漬
ステー
遲
択
##仕事
##隔
##酌
##タバ
ハネ
まき
やけ
##キット
倚
鷺
##鱈
遥
楓
##ちゅう
##肥
##尼
##ロール
##守っ
##ぬい
りん
##離し
爵
##悟
##刈
穀
簿
兒
じん
##悔
##離れ
##巻い
##勲
バーン
##悼
##喝
##泣き
あう
狹
##とど
##碁
##濃
##栖
挾
燦
鋏
乎
巾
鰻
##杯
##ジェン
##すん
##ランク
##序
昆
##癪
睦
抵
驅
ナー
##ローラ
嬰
ファル
凸
##畫
嗚
距
斃
尠
##關
イス
##支え
ぶつ
ab
ワード
鬢
##軟
##サラ
盜
##和田
壱
##かえる
##謬
払わ
攘
キョ
##鰭
懺
##飛ばし
邑
##プリン
##fc
##慌
##残さ
翳
木の
##キョ
噺
##ハネ
##兒
賦
倣
##くまで
消す
蔑
##捨
##聖
撥
##カム
##合わせる
##＊
チェン
馴染
ぐん
##坦
隋
ドライ
ナポ
##ヌー
壜
##届
##トム
##艶
磅
壬
勞
°
梵
##憤
##糖
##巴
ござん
抜ける
##誤
##ヘル
ソナ
繼
##竿
##深く
屯
##堤
むい
嵌
##にや
起こさ
##廠
ぬる
雫
##ロウ
##九
##ゆう
##翁
##まへ
##he
##瑠璃
##いま
##でん
胤
舵
ベリー
訛
批
厨
##錯
崔
##だつ
ピア
##gi
スマ
瀕
##垢
##のみ
##プト
##あれ
晶
##芳
コンピュー
##れれ
爛
離さ
##墓
##享
##靜
みつ
彰
ヴェー
舐
埴
擲
ローン
##焔
##でに
##押
##徨
##"）
##続き
はり
渉
ｘ
匕
##ウェル
すっ
##しから
凧
##輿
##てん
##柴
##トウ
ni
##直ぐ
##宜
椀
##槍
錬
藥
##内外
##歎
##押し
##ベリー
顰
##堵
##wa
湊
齢
慌
##腔
らあ
##醍
アール
##禮
##а
ょ
##垂
##墾
##分ける
渚
くらべ
##發
##確
##q
##踪
##完
##マット
##つぱり
亥
素晴
##絡
##覚め
##あけ
斥
##嶽
##ひる
##くろ
簾
竈
##帶
##酵
豐
##魏
贋
##辻
罠
##プール
##デュ
##逃
##緯
珈
ずれ
廓
##ちゃん
シュタ
くに
聊
ツェ
ル・
身の
爭
去つ
##扱っ
##依
わく
##そく
逼
ネズ
##スターズ
##あう
辱
##眞
##はい
##重ね
惚
##糧
ロウ
ag
##ぎる
ひる
緯
##とい
ｊ
##泌
##睦
##藍
蹲
##姉
ニッ
##鳴り
##殺さ
##篤
##でる
##哥
珊
##經
##ネズ
##モニ
靈
込む
##琲
##おる
誉
張つ
##廉
##開き
##兆
傑
換え
つぶし
嶽
奨
がかり
ドウ
臓
桓
ビュー
默
##ヴェル
啜
瓢
幌
##づくり
##几
##桃
##授
リュー
##ナム
##フィールド
バーグ
峻
##輌
##メイン
暢
##賣
##のび
姥
##ex
淑
蚕
##祭り
##ナリ
替え
痙
フト
##インド
イヤー
赫
嵩
##孔
婢
##しよ
##腎
##彙
##癌
##閲
臍
##石川
亢
##葺
塗り
##璧
##の毒
##—
##br
##真似
肋
##寸
##峨
##鯨
つぽ
##誦
##兼
棘
##猿
合わせる
##枕
##繍
##枢
いり
##開い
##直さ
##継ぐ
蟲
##耕
さく
##語り
ジェン
##釋
##ou
##止まっ
##李
##ほし
##誕
当ら
##パリ
榊
##欺
##まち
##攣
gi
##唇
いらっしゃ
##辛
むり
##紛
がす
號
釧
##sc
id
起こ
##峙
##鷲
##すぎ
##髮
##ちょう
鬚
直さ
鹽
ティン
箒
##向く
##ちが
畜
##八郎
ビジョン
##藉
##饉
負い
##屓
プロレ
##白く
##憶
##駐
シッ
##継い
##言葉
##アッ
##亡
##苑
合ひ
饅
##概
專
丙
##ウェー
##蒲
##о
さつ
##なれ
##ターン
蹄
クス
##禰
##泡
##弊
##カッ
##奉
##飾り
かえし
向く
##思議
狂い
##ハハハ
##およそ
##播
et
ひつ
くさ
##五
デ・
##パル
##リーグ
蛮
ミックス
##マッ
##ひろ
腎
##焼き
##迎
##桐
##レール
##痢
##頓
毫
##マンス
’
##希
疫
##ブリッジ
##とて
##滝
##坑
##爛
##生き
窟
##叫
慧
ぁ
##行く
ドール
##pre
##ファイ
レート
##沫
##硬
庚
組む
##励
##pg
##カーン
茨
妨
##顎
ber
はし
##耐
##婿
ニア
##ヴェー
維
##續
出そう
マット
絃
さり
##宕
辯
ビュ
倶
##慎
コメ
價
嶮
##アラ
辭
蔡
##ぇ
##藪
##バック
般
伏し
##散らし
##負い
##りん
隕
后
##わざ
##ひつ
盧
##マーク
ｉ
hy
##煮
；
##いわ
##苦しく
##濤
##しな
##顕
##螺
##hy
##暗く
##渓
##翔
繃
##hi
燐
##閤
##幣
##バーン
どり
區
小さ
##亮
##胎
ジェー
##sa
##net
﹆
##魄
##伍
##準
嶋
夙
齒
##ロード
ろく
戊
咬
##ショナル
##慈
##證
壽
##タイプ
壕
矮
##隠し
##ヴァイ
##折り
##何
##寄つ
諜
屹
オフィ
du
##詣
##フォン
栓
##ライダー
##すまし
##婢
娶
##豚
##ざら
軋
葺
##ネク
wa
##追
##賜
##しくは
##衞門
翅
ｐ
毅
むけ
瘤
##つぶし
²
##襟
##鎮
しかけ
##鞭
##亂
##尺
奢
##庸
##嚇
##爲
ほし
##纏
##酒屋
av
##つつ
##瑚
合つ
##惜しい
##蔑
##きん
##ベイ
##ランス
##漁
ヘリ
拜
抒
##歩き
##叙
齋
苫
##惡
##炊
##劫
諮
##鳳
##やけ
陪
ｇ
宥
アカデ
頽
##乱れ
##卷
糊
##邪
##マラ
##髯
##知り
于
矯
##涙
##憬
##焉
##溶
\
偲
age
ter
掟
##彌
##っしゃ
紗
螢
##遺
##たれ
慥
##誘
絆
##そこ
##ワーク
##至
朦
むき
##投げ
##イント
捏
##去つ
##シュー
##カット
ナリ
すけ
諒
##おれ
回る
##とこ
##兄弟
薙
廂
##袈
##戻り
##央
##狂い
ブルジョ
##ホーム
耀
継ぎ
##————
##コル
くろ
糾
##牢
晦
庖
##曇
ギュ
##少年
##添え
##懸
##濫
悉
##ミックス
僻
芒
冴
##ねん
散らし
俟
はれ
れん
##召し
##卑
##ぶつ
諺
膏
##患
擡
##起こさ
##棺
##凡
カーン
づける
##……
##しよう
倅
侘
靡
氾
撞
##試
##みち
廷
##í
##椒
尤
##晦
寓
##険
##吏
壓
##譯
##憂
える
ぼう
##あき
μ
##しきり
莞
##遙
浚
扨
##tu
ベルク
回し
づくり
翠
閏
嵯
錫
ヨーク
レオン
##臘
ムシ
せつ
膠
杵
ent
##勒
リーズ
##躯
##ゴール
##wor
帷
ハハハ
曠
##遊び
雉
##更け
##河内
##賓
梓
沒
##ハウス
沓
込ま
##非
##溌
##臭い
##捷
欽
襄
がく
##ネーム
##フリー
がけ
##えっ
##走っ
筐
##止める
##斬
##太刀
やく
ヌー
##茸
##癒
グラム
##陶
##叡
紹
##下っ
玲
ワーク
フィリ
##コース
##　　
赭
訝
##落と
##符
##秘
レコー
攫
##解け
フェン
##暗い
几
##磯
鍾
恁
##臼
##ser
鉤
デュー
##奔
##レント
ｑ
##あえ
##涯
por
クリスト
##嫌い
##模
鮒
##ファル
##取れ
##低
膚
##ジョー
ke
ディア
##拔
##燃
酋
泛
斤
##愕
##破っ
##マックス
熔
##だり
##イエ
##up
蕗
##欝
硝
赧
めし
舅
##苔
##覽
直す
務
驢
げん
net
##つぽ
薦
寶
##mon
##朧
幡
狗
##沌
##警
返さ
孕
##蛉
##玄
##墟
##祇
フォーム
##虔
んな
ｒ
刄
##貸
##將
##締め
睫
せえ
っしゃ
##しば
驕
絨
努
畝
##寮
##グロ
##くに
##ポール
##捉
##ó
##チュア
｟
##可
檢
##すみ
熾
かっ
##落ちる
##魁
誅
リース
##施
##オリン
##すく
掬
祕
##窟
##惰
##させ
##サイド
##ゲート
##はん
跟
誦
##輸
##まね
##棄て
##鹸
##オブ
虞
幇
##蔽
##班
賽
##補
匁
｠
##吐
##穀
戻す
聟
曜
##敦
##帽子
##須賀
稜
##愚
##組む
##ダウン
ｅ
~
##髷
##逢っ
甦
況
茄
癩
##и
蟇
##うむ
##怪
辨
すな
##維
僞
##俸
##レッジ
鼎
啄
埠
咸
##棟
##櫃
##紹
##造り
姦
##枯
##牟
マニア
嘔
ヱ
揷
埒
殷
ラス
##樺
##まく
##bu
pg
##続い
##離さ
##鼓
##是
##フェル
査
##桑
##ずら
奸
##めぐ
嗤
##わく
##代り
##イラ
##崗
##送る
ｗ
綽
袈
##舗
ci
##滴
馭
##旦
鸚
##姦
##蒼
屬
收
だち
侠
ニャ
尉
##瞥
##まき
嘱
游
縊
##黨
衞
＿
##撥
##ビット
イデ
##もつ
##錐
##ねえ
ギリ
ta
旬
溯
けっ
猴
わい
##のぼる
##グラフ
##宏
槌
豈
##センス
有難
##怠
##憫
のけ
##塗
##戚
慇
##並ん
##彬
橙
##嘉
##ストル
ぃ
##珍
##チェン
##ホル
##延び
裳
##con
孵
懶
##懃
##塾
##渠
遵
##消す
##塗り
##のぼ
灸
稻
##モール
歡
攀
##""
灼
##ヱ
とに
##じき
##ランダ
亙
搖
##min
##ジオ
##擲
シップ
##ソロ
諱
##曜
##е
##フラン
跪
##咲
##部屋
##軌
蛋
##「
##gra
##蜜
バート
##スポ
##三十
##おき
芯
##採
##祐
鑿
チア
シェル
タール
##ブランド
エピ
疼
##ペル
##挫
##イェ
曼
##ぬる
##凍
##浮べ
##鵡
{
##窪
##繰
##狐
驛
##マリア
##漑
迚
##うっ
礫
ウス
##form
＞
##くらべ
##アール
謁
蹂
##ネシア
聚
谿
惱
##れい
##仮名
##高く
##紐
##餓
繞
傀
##釣り
爬
##悸
佩
厄
##р
アレク
舳
センス
##肯
ハウ
##コム
いし
筵
跣
##扱わ
麥
##細く
づく
##フレー
瘠
##双
##腫
##鍮
諡
##儡
##с
くっ
トウ
ちり
##盆
##菓
##<
##屋根
栖
でん
跛
##パウ
##兎
プル
##ませ
##鉛
薨
芹
##持っ
廠
かめ
蕃
##いし
##禍
ミュー
##芋
わっ
汀
##酎
##稲
鮫
哄
嚇
魁
タク
##タイトル
##後日
蕾
蜻
##駁
##推
##らあ
##みつ
##レッド
##メール
ぶる
##彰
##洒
オリン
##靈
槇
ネン
##扉
ぐい
##こちら
##隠
溌
毘
飄
##yo
轢
##è
##メリ
縣
づい
頒
##鐵
##dv
惠
酬
涌
跋
##榴
匍
##顏
彈
##起す
棹
##ゲイ
##ローン
絲
吻
##ナイト
##拾
##変り
しゅう
##梱
##辣
づき
##榜
パール
誂
##箸
ブルク
ヅ
##戮
##せよ
##耆
瀑
##スプ
遽
艱
##筈
##般
##アシ
堯
##冑
カス
##處
蛸
茸
##しも
##桁
##栽
##馬鹿
##歩く
##ギャ
匈
##求め
剰
苑
##麟
濛
おな
斡
づれ
ハイム
ul
##髭
##ゴル
##入ら
スチ
媼
聾
##猾
##やすく
##my
##ユー
籐
##寥
ルター
##チス
##死に
##黒く
イベ
##っぽい
筏
モンド
イド
纒
##含
葱
##寞
リヤ
屆
襷
##スウェ
##きゅう
fc
搗
贅
敲
##ズン
柚
舞い
粕
煖
繻
##起さ
ウェル
アリー
吝
##旅
截
苅
##×
##mar
##埃
軈
##惠
##ギュ
ir
噤
##吻
##ミッション
##送ら
##ワル
簪
##錠
溪
##持つ
チーフ
廊
ばい
##助け
##勉
##蜂
##抜ける
妬
##カナ
##弦
叔
##フォル
奄
ec
##キャン
##ヴァル
##なお
##さす
胚
寨
ジル
##濁
##晋
##cc
猥
##轉
鼾
孰
蟠
レット
##渡り
##濶
##河原
##サム
##斑
##進め
澱
##馴染
ルス
葭
歐
モス
}
##据え
##墳
##浮
霽
へる
##昂
わか
蹈
##乙
エール
##浅
##叛
ばり
##帖
##徊
##当っ
##衷
喇
錨
苟
フランシスコ
〒
##よる
圍
霰
毬
##凄
##聞き
腋
啖
鍔
こし
脣
##險
##とき
##そい
俤
モア
憩
搦
##カロ
##行っ
鮨
##哲
##眠り
酉
碇
竝
##ショップ
盥
##賤
鉦
瑠璃
臀
ミュージ
##緻
ださ
巖
##ちがっ
髄
##はず
閻
##矩
##萩
鰭
##近い
醍
##マーケット
##くれる
##霜
##除け
劃
雍
莨
##アラビア
##ドア
蓑
##々々
##峯
牟
錐
##戰
哩
俸
##霞
##語っ
倹
賓
##ペー
＜
幣
##杵
糺
##崩れ
##ヒー
塁
はなは
##定め
##隙
犀
##こもっ
ごし
##語る
徽
陀
丼
##知れ
冗
##まあ
礎
##笑ひ
##克
潟
冨
##遍
##はずれ
橇
##机
##憑
##楠
##幻
##渋
匙
迸
##黙
●
##濟
##比べ
めき
捺
尹
ラク
##面目
験
##腑
菖
擴
##山田
##稜
芥
叮
##函
##н
畿
佗
##滸
涸
冀
##ブック
はう
##這
##きょ
##蹴
ｌ
##潟
##マネ
##逝
##朶
##おろ
##被
燗
菰
ビジ
椽
##擁
##アイランド
磔
##暁
誹
##食い
廢
##附け
##甲斐
##拳
##ヒョ
捷
逓
##パッ
##剌
##糞
媛
鄧
鋤
##シティ
@
##柔
##奕
ピュ
##キュー
##笹
##盃
駭
##打っ
##さへ
##徴
##嘗
##殘
ローラ
##のぼっ
諧
##よつ
##罵
##哨
##ポジ
凛
夭
##濠
祓
輸
##焼け
コフ
しっ
デジ
えん
##ムー
##ブー
##サイクル
##賂
##絆
嗄
鰹
##抗
##占
礁
椰
##雜
##遁
##莱
牌
##毫
##私
##揃
sk
##明り
##化し
淘
##裝
褪
匡
ic
淨
##タク
##屍
##埒
##スリー
ウェア
蚤
鞠
##駿
##躙
##剰
##融
ナス
くし
涯
##沓
まく
つり
耻
γ
みつけ
##ふた
##リンク
##別れ
##フォーク
芙
##混
嚥
##輛
##par
##ウォー
傅
##すご
##通っ
##珂
梗
##于
劍
##泣
弧
##噺
$
##廟
##おや
##漿
麽
##vol
ソフ
##秦
麟
麾
屁
甕
菫
##箪
笊
##芝居
##彼
儂
##息子
##鬪
##柿
##躅
##tra
##廻る
拱
鮭
##ストー
##曾
ネス
##トラン
##父母
蛭
##やが
##檀
眷
舘
ζ
##汚
##かぶ
##飲み
システ
##なん
##住ん
捌
宍
##野田
やき
##シリア
##パラ
馮
##ベス
怜
##晴れ
ずく
##燭
##蚕
##喜び
鰐
綺
涅
##佛
陋
玩
##薯
##晰
##竺
諾
##せき
鼈
絢
ディレ
##読み
莚
##戻っ
禹
殲
##まかせ
塹
##mat
##トニー
##真面目
##長く
掏
ぜん
讒
##放っ
こみ
蠢
##曳
##此方
##渇
##pa
黴
##侠
##瑜
欅
裝
##唾
ねる
襞
##エリ
姜
哥
##碍
稔
勸
貌
##寇
トス
##メス
##瀾
##外れ
かる
ヨン
##アメリカ
##妾
榴
篝
鉾
ファンタ
##叭
躑
惰
##甫
懿
##ß
ニック
撓
##貧
##訝
##破り
##靡
##稽
##縞
リック
悧
戲
##おら
虱
揖
レンジ
##娼
あえ
幟
##飲
##捨てる
##疹
囀
##送つ
##單
##蹄
リイ
##ダニ
##踊り
呵
返る
##壞
##りょう
##まとめ
##ずか
っぱ
##禦
ツィ
苻
##倒れ
瞠
鈎
舁
彭
##葵
##ヒル
##氈
亨
##々木
閾
舶
鰯
##膏
箭
┼
隧
饑
##汰
##昇
##こち
##笑っ
##啓
賈
禽
ログ
剪
こむ
##ゐる
ぐれ
躰
##レース
##漏
ばし
▲
##ヨー
##久保
オロ
##ふり
##超
##凶
##又
樅
##退い
櫂
##隘
スペン
ポリス
##カード
罐
##独
慮
##剥
##狸
##植物
ラグ
##挺
肇
##頸
##フリ
哭
##街
繕
##はめ
渤
##濱
##car
##老い
汪
##クラブ
##頬
讓
緻
粧
矩
皐
##儲け
##ウー
穗
禰
凋
##跳
繭
##壕
◎
##肘
擽
恃
##her
龜
##翠
淮
劫
##葱
##燥
##聯
##次ぎ
##湊
鍼
##プター
##變
##鳴る
稲田
##逃し
徘
##はや
##湿
##ゾーン
##沃
蕨
##嘱
嫉
##殺す
##ソニー
ロット
##ī
##儒
矜
杓
vers
##きもの
##餌
スポー
##嬢
##変わり
##槃
las
##すま
こり
##拓
##外し
舜
浙
##キス
ラント
##イングランド
##疎
##汐
##リバ
ak
##ヴォー
##海軍
畦
嬌
##当る
##アド
##まつり
アニメー
##廷
##ほか
##ste
##相撲
##のっ
返り
##とつ
##刺し
##嚀
什
##倆
##粹
##│
##lin
闊
##爽
##初め
##こら
ほり
畸
##胡
##鈍
##テロ
籾
糠
ばた
忰
睜
##ずから
轍
ストン
ランス
づる
##澹
衡
##毅
##蔦
##苦し
##ロボ
##秤
販
ィ
##pr
惧
##アルプス
##負う
雞
##斯
##鞍
莊
win
厠
窶
##拙
##かも
##開け
鵞
##ん坊
##ボス
##ウイルス
僭
##逃げ
————
疳
躓
##すが
##改
弗
あがつ
茜
##准
##内儀
##馴れ
##かえり
懼
##鱗
##ガリ
ビア
##厭
ピュー
すます
##抹
髑
怎
##あと
##礫
##幼
綬
襤
##ニッ
##ラッ
##着け
##跋
澁
##ミス
##グラン
##淀
##髏
弐
##アート
##к
##やん
犇
啣
捩
##うら
悼
##アレ
##爪
顯
スティック
鱒
偃
##囚
##アウ
##バッ
##ジャック
·
##ا
凉
##オイ
##翰
##誼
##枯れ
##つね
##ごま
##褸
##□
##いく
##朋
陷
##稼
##無し
辟
##藁
##賦
##註
阮
##やれ
##スマ
##橘
##蝕
覘
es
旱
##錦
##輕
窕
##暈
##拭
贖
##探
桝
##禽
##т
痘
##折っ
筍
##争
稗
褌
##綴
##コード
朕
##鑿
##逢
児島
##駕
罎
釋
イズ
##:
##權
##出来
##刹
鷄
にこ
曉
##誓
##専
冪
##あら
釦
##きい
攪
##款
##乘
##つぱ
くみ
つち
甫
##躁
鼬
##寒い
遑
##っけ
吼
冤
鳰
欝
##邑
##こそ
##瑞
##mor
##ステークス
##榮
##摯
がれ
戎
册
剽
痺
##待ち
渥
泪
凜
##マスター
##渕
蛤
圃
##餉
##負け
##決め
ｕ
邂
猜
##咲き
偸
脹
蓆
紳
##テネ
ノール
##マイル
■
##嬪
##亞
##詠
##藥
##ブラン
##バリ
##黍
##鳴らし
##繁
唆
##匿
##カール
##撲
##謁
δ
##ニヤ
リオン
##くわ
##シテ
啻
佑
##モデル
爐
##折れ
穎
##10
鶉
##art
##とく
##pro
##gre
##くだ
##逅
##届い
##破る
堡
煌
碓
蓼
閨
ぼり
箏
##抜く
##ダンス
##育て
##劾
##怖
弩
##オロ
龐
##愍
凪
##登り
褄
##トップ
##咤
柘
碩
樟
##特
棧
##こっち
僚
##虚
##ｏ
栃
パーソナ
據
##憺
恣
ⅱ
龕
##毯
砧
拿
##翅
輌
麿
蝮
##ジット
ur
シング
##遠い
##箔
肖
琢
笠原
迦
##闊
##きつ
##リカン
##鵬
埼
##寡
衷
##両
##肴
痒
酪
娑
濾
棕
苞
モーション
##>
##瘡
柑
##盲
##腿
爰
⁉
ガリア
〆
##まだ
##涜
亞
##職員
##в
虜
##恐る
めく
##ヴォル
##晃
##眉
##逐
竦
##チリ
キイ
ザー
##スー
##濘
##吹き
##繩
され
蟄
##篠
ずき
##鳩
旦
##坪
ut
##おと
##つきり
##套
é
##秒
##泄
楡
##闍
ω
##アテ
##楊
##哭
##盟
どき
##峡
##汽
馨
宦
もや
##桂
デザ
##フェリー
##まじ
##杓
##行わ
##違っ
俘
怺
##いで
##鷺
##へい
ジュール
##嫌
玻
##獨
##稚
##皆
棠
##蛙
鹵
シュタイン
##極め
壯
縺
##企
慨
懊
珪
縹
擔
##舵
##蓉
##紺
##来る
枳
##梯
髣
##こぼ
##除く
##蝉
ベス
禪
擾
##増し
艤
穆
伎
ドルフ
濶
荏
エジ
廬
やし
##髴
##知っ
##彿
輻
憫
##バンド
##絨
##窩
##過ぎる
猩
##ひょ
##辭
##失っ
##擾
##某
##垂れ
##縋
##勅
##静か
##シントン
##瞞
倖
##撒
##おち
##謗
萼
##滿
##浩
##この
##ａ
椋
鎗
##col
絣
イト
##並ぶ
##讀
梃
荀
##踏み
##『
鬪
##瞼
銜
##諱
とし
##峻
ティア
##ラリア
韮
趨
##五十
##続け
##加へ
##きわ
##梓
詭
讚
韋
プス
##さわ
##いり
炸
脩
##風景
##框
##挽
臂
##廻つ
##麭
炒
プロダ
聰
砥
るい
遜
##マグ
##イベ
濕
##址
##会っ
##ل
##成り
めん
躾
エリザ
##祝
碎
il
##ネタ
歌舞
んと
艫
喩
##掻
ヤー
##ジェー
##グラフィ
效
##拂
##痒
衒
さと
##嶼
##從
##おく
藉
##搏
疏
齊
##エク
##齡
##勝手
##以
踰
范
##フー
驟
鋪
瞞
秤
獅
慘
##リース
##菩薩
##弐
##ケイ
##ポイント
##ボクシング
ぼけ
##悧
##ある
##汎
##懣
矛
##毘
鯖
##ランプ
ran
旁
膿
あに
##焦
熙
##向う
##ショー
##ここ
らい
##柵
ナム
モリ
##摸
##蚓
樵
涎
##負っ
ニス
##置い
##彅
##糾
茹
##暢
##脹
櫃
##違う
糟
##擧
ロフ
拗
##知る
##凹
##きみ
麒
##暮らし
##ボリ
##アフ
##ビデ
##足り
##號
摸
##叢
##すい
##斧
##稱
##そば
##染め
籬
柩
##多摩
靭
ギー
##流さ
蚯
滔
該
##アダ
◇
紊
鵠
鯰
釉
##金色
##新しい
檣
##帰る
戌
漣
##逵
雙
鑵
##生え
抉
##かくし
卅
裴
ブス
##攻め
鰓
##囃
##濡れ
##抱え
槽
##引い
##錢
##л
頌
腱
λ
殆
叉
蝕
##梢
杢
##借り
##妊
槙
##消え
濤
##悍
##ひび
棍
矣
ェ
##フロ
ロッパ
薊
##のぼり
##触れ
##ウイ
匠
##隠れ
##裾
巽
鄙
##咽
##汲
##着陸
##衙
姚
##進ん
##縣
##傭
##倖
##アンド
##薇
ⅰ
忿
##工業
##ソース
##飛ん
闕
##樫
ベット
##飛び
##檻
##守る
禊
##じゅ
メイト
##ジェット
##寫
##掻き
##けり
焉
陝
##中島
##メディア
##＝
ぐり
##洩
##わたし
拇
##備え
##べく
穩
##ç
痣
舍
餞
營
##膽
##竈
##鬘
轡
##たかっ
##佳
なう
##ヴェン
##屬
♪
插
##尋
##光り
継が
##綬
搏
需
##畿
##ベッ
慟
梳
あきら
獰
##囲ま
##馴
##迭
##侶
##慣れ
蕩
##拜
抓
##ふん
##酬
##烏
薔
瀟
##兼ね
##浮か
##守り
##未
##アント
囮
##徽
##任せ
鎭
##カテ
纔
##こえ
エラ
##狼
ジオ
m/
##")
バレ
##シリーズ
##チーム
##肆
##牒
潘
##劃
##絃
##メキシコ
σ
##割れ
##弼
##うた
##整
##ū
201
##泣く
##懸け
蝸
リラ
##ハル
リアス
##謔
滾
歇
##綜
##にゃ
##捗
•
憾
##放つ
##ウラ
閘
##ボーイ
##慳
ぱい
##説い
##凰
##擬
恟
海道
##グループ
じり
捗
##アミ
貶
##璋
##描
虻
并
祷
##そら
##齋
ast
狛
趾
黝
ひど
讐
##トイ
##チャイ
閔
訃
##緩
##菅
瑕
綸
泌
##埋め
##參
楔
鈔
##＿
##ú
##移っ
スウェ
##卿
##掲
疱
肛
##暮し
梧
##ティスト
シカ
駱
##兩
##蜀
靱
鏑
##良く
##突き
笞
##羹
##剛
顆
鬨
做
づか
##鉾
##田原
##嘲
咒
##蟲
##鵞
##並び
##浸
##灌
琥
##嚴
##ジル
##かか
##しらえ
##嗚
崋
##打た
ダ・
ア・
##催
がい
##訣
##シーン
##枚
鑛
徃
##站
撚
輛
ぶれ
##厄
##蔓
##曲げ
娯
鬘
嬶
##飩
##繹
饂
##厥
##ｑ
##ヘー
褥
##渉
##亥
##耽
##蠅
##贄
##あつ
##をり
驀
抔
##寵
##珀
##ゆえ
リカ
せう
##愴
##遥
##靄
##迅
form
##残る
苺
##向かう
##價
謬
蹌
##崇
バラエ
##譽
##おこ
蟋
##蟀
##いそ
##訛
婉
##箇
##あわ
磊
腦
籤
##蕊
##でき
##コア
##竦
##ガード
◯
##溢
##すき
##暑い
坡
##ن
オースト
##淫
嘸
##ほら
##うご
##ｓ
##熙
##ばかり
薯
##嵌
栞
##次い
##鮮
##六十
逡
##袴
忝
すこ
##卦
碗
レム
##ゼルス
##ヤマ
喊
##恐
##飽
##参り
##蜴
##のん
膽
ずり
##代わり
愧
##簀
##つづき
##写し
闖
##セリ
ヰ
##麺
##旛
##大阪
##麥
##ひき
漉
址
##淑
##乾
レギュ
##騷
##悲
##疆
##南米
簇
牀
##砦
咀
##住み
##近く
##靭
##ガール
墺
樓
##溺
栽
##醜
##マク
##惱
##栄え
冶
##偵
##默
酵
##ヘッド
##モーター
‼
##冲
腿
咆
##蠣
φ
##西部
郃
##肱
匐
##翳
##駝
##芥
滯
##会い
##モル
|-||
##山内
ぼん
恬
##厚い
橿
└
##營
ポーター
##逢う
##かね
##すえ
禎
洵
##与え
##誇
茉
##早い
##らしかっ
篆
鋲
匪
紆
勵
ソード
踞
輯
綻
嘯
崑
蜥
##ディスク
##疲れ
##欒
##欄
##賄
##ルイ
##ヤード
〽
##下部
##ula
##鄙
##そん
槐
ソヴェ
擱
##豹
脾
##劍
##通る
##租
サス
##アク
##クライ
櫟
##凸
##嘯
玖
鴫
##酊
##風呂
##戲
##寓
##満ち
##——
箋
なわ
##姥
鴈
##くさい
妊
儚
なから
##幟
##イギ
##隷
ぇ
##à
##喪
##袍
縱
焙
##忽
慚
##植え
##謨
##褪
##妄
彳
##碧
##臟
##アカ
卦
##40
##燼
##托
##固め
##刷
##襴
##据
蛆
##此
餡
薛
##褄
##杭
##四十
晁
##糊
##釘
瞻
ｚ
##剋
##シャツ
##尖
##粟
跼
##串
##腺
##侮
ざし
姙
##聚
萠
##瀧
鄴
##ي
ずみ
刳
犧
緞
##包み
##ステー
轄
##肖
哨
##牲
##甚
##蘭西
怕
虔
##文字
ハラ
##允
##歓
##圏
樊
壞
##薩
##示し
鵬
哈
二、
劒
##蝋
##ビエ
ok
##š
##詛
姻
燧
##侈
##○
屏
窘
##鑼
拮
醇
##玩
##嗇
##縦
坤
##莽
渭
##はなし
噫
##描き
繍
##衍
##ヒン
##ボート
##轢
渕
##捜
坦
僥
##あたっ
嚆
閂
##'
瀋
##設け
##竄
迹
緘
‘
酩
##fre
##伎
眇
##登っ
襯
##きめ
狎
乖
##燕
##煕
##引く
##爐
桿
┌
夾
##闢
##戴
邁
##オーバー
##ステージ
ミック
##筑
##そろ
##帛
錘
帥
##莫
##荻
##の中
祁
##慘
テッド
塑
##プラス
ビス
諌
##span
渺
暈
##疾
##煎
誼
##ø
##スタイル
俎
瞶
どい
帛
##杷
##クロー
ニックス
##レンズ
獸
##ふう
杞
##呵
艀
##鞄
##オフ
π
##楚
##かぶっ
衾
##鳶
ポジ
##行い
##ｒ
##ちこち
##おかみ
獻
##ツール
##"（
瑣
呀
##流れ
瞰
##オペ
央
##و
##下る
##ｃ
##鍵
##退け
墮
餃
##寅
窩
める
簑
茗
枇
##足ら
##迫っ
##容れ
##眸
篭
齧
こち
竟
##翫
##璽
##ヸ
##躰
##ر
##伸び
##巌
叟
款
愍
掉
黍
##匙
est
谺
##おん
##すべ
##除い
##打つ
##缶
##梧
##結び
##辯
##ひとり
##曝
##總
##マリー
颱
瞭
##働き
喀
##鞘
##祷
##ジム
嘶
犢
涵
髻
譃
袍
##褐
〃
##幌
##win
##fa
##走る
スポン
だて
##無い
##日向
##瞰
##絞
膵
潛
##蟇
##トラック
樗
##勝ち
痰
箔
##酉
##淆
##殊
##臂
##言っ
鉈
##嵩
セロ
##ｍ
燁
##クリー
##カップ
##噛
##イリ
喃
棭
鏃
##昨日
砒
##貸し
##現代
##あたる
##兜
滄
鰊
##釣
##距
##エレ
甞
##棠
儼
##幾
##琳
##嘴
蟒
##セプト
##シド
隴
闌
##清水
廼
##魃
##椿
##廣
厶
##圀
冉
蠣
譽
誡
洟
鉋
##脛
##栓
##ケース
##籃
糎
##憊
潭
##愧
竊
ｖ
塲
ا
##なかつ
蜿
##屏
嫩
##較
##莢
たし
##淳
憔
筥
柊
チェスター
##招き
檄
##ひらい
##ふさ
##祠
##幀
鮓
##â
劈
##先ず
昵
##野原
癸
勁
##猪
##鑽
##マジ
貂
##屆
##厩
##gp
兀
##さあ
恕
謄
墻
翰
##郊
贄
銑
##ちゃっ
##諜
##凱
沮
##饒
淹
##占め
がき
##邇
炳
##無く
##ながら
##リスク
##アマ
##甕
##č
##スポー
##櫚
##ｉ
##広島
##拭い
框
歟
たう
##譚
##婁
沛
▼
##グロー
∞
睥
##椀
##詳
塙
##ｅ
′
##遼
##かま
##おそ
莢
笈
霙
蜃
翡
栂
##邱
##きち
##忘れ
##耀
##ても
##つくし
##恒
##鍬
##侃
##5000
##懇
##懼
駛
棗
##まと
##サイン
竇
紘
##靖
##餘
##ｔ
##デュー
##mu
##д
衿
瑪
##偉
躁
##インター
##並べ
##田舎
##押え
##盞
俚
鮑
キシ
##與
辮
マガ
с
##フライ
##ちよ
##冒
##過し
##恭
尨
##チーフ
##レオン
##北東
擂
##觸
##繋
##はた
##厨
##置か
##籤
##変わっ
蝗
##頽
##動かし
笄
嗟
##灸
##絣
鱷
##鬚
##寨
すつ
##啼
アプリ
##揃え
##聡
𤢖
##縷
##怨
##拡
甍
##高地
##姑
##魅
##おも
イ・
±
##虜
扈
篁
##慧
古屋
##死ん
##かあ
##探し
##…
##齊
諄
縷
褐
噪
##掴
縒
晉
##プレー
##やむ
鮪
裔
##諦
##ガリー
蠱
##ō
##ライブ
┤
𫝹
##えき
鬣
##遣っ
##始め
ブン
盈
##柏
韃
##摘
##趙
##丕
##多い
##みよう
##埓
瘡
##そそ
##閃
##ホイ
##どれ
填
##筵
慊
##蒡
鋒
愼
##繪
##すこ
##謙
##pla
##オリンピック
##||
##漕
##嫡
##娩
瞋
齟
##齬
##おぼえ
##ロッパ
皎
盂
遣い
##おくれ
├
##ループ
##皺
##わたり
裃
##平次
駁
##悴
##盾
##クラス
##迎へ
##醉
しかっ
岱
##聊
奎
鏤
そも
##腦
##錘
噸
##扈
##坤
##繞
##舘
##陳
タリ
##凪
##uni
ie
蔚
##猥
偈
##收
##萸
##システム
##膚
豕
峨
ⅲ
鱸
彎
茱
##荼
##じつ
##叔
獵
ν
##わき
晏
##醒め
##丼
##争い
喞
##晝
⁈
##戔
シス
决
ff
##アメ
楷
ゾン
##莉
##ο
##ñ
##蒻
皓
##咀
##控え
麁
##摂
眦
##北西
##都合
腔
羌
##漉
в
腮
##卜
##進む
ü
燿
##咲い
伃
##า
##けだし
聘
##煉
##沸
##ざる
茣
惇
罩
顋
##こぼれ
##送っ
ずん
晨
烙
##隱
⁂
##キャラ
##ヿ
##慙
##好み
##茫
##越える
斟
##云
芬
##育っ
##箋
毮
毆
菓
##受信
瓊
輜
##趾
詛
##カタ
##蒔
沃
##詈
##かわり
咏
笙
##逢い
呎
絽
##疵
##化学
糜
##牘
塘
炙
腥
##指し
##思ひ
##よろ
瑤
##ささ
##ひろげ
##度い
臙
煬
##求める
##鞠
ワール
##sic
##瀝
##姉妹
##よら
##三百
##泊り
##示す
綏
ig
巍
艪
筧
らう
##毀
##踉
苧
##衞
ロボ
##й
##馬場
沐
##ｂ
狆
靠
##たって
咥
##見え
踠
##うる
##檣
楮
##蟻
尸
呷
##鑵
##pc
譫
蜆
ふし
耄
##愾
翫
コンテン
囂
鴛
##うか
##蓙
慷
##錮
澪
兗
##シーズン
槻
仍
冲
蜷
##ギリ
ずい
じく
びと
セス
ピック
まう
篩
##乗っ
ウェー
簀
鵯
##戸口
剋
##源氏
##テキ
ティック
##灘
紬
##働い
##纒
醗
##迹
##邁
##ええ
##寶
##過ごし
##向かい
##叩き
##樵
##仰い
躊
笏
##痘
##御飯
##樋
嬲
##アキ
##jo
##莊
##いよ
##盧
辣
##徑
##楯
クト
須賀
リーン
簒
##ร
##説く
##住む
##ヮ
##悩み
##ユニ
##ビデオ
枉
##土産
タス
##礙
艸
朶
覧
蘊
卍
##もた
##獪
フリードリ
莟
##やらう
窖
##戌
寥
##匐
##看
##加える
##盥
戟
##薔薇
##リーダー
##粂
殼
筮
芍
##僑
##萌
##阪神
吉郎
パフォー
禾
偕
輦
##確か
鰌
##靼
エネル
##勝つ
##ハリ
磧
##殼
ぷり
蕈
##粕
##卯
甜
##窄
##粥
釵
蔀
##檜
##搖
##言い
##答え
##ヘッ
ゥ
姨
黛
鞆
##媚
##烹
邵
##禎
##﨟
##鮎
##ノート
キア
髙
諍
##聞い
##蜘蛛
##冥
##蹠
##疏
徂
##辨
##堰
##魯
睾
膀
##胱
##オレ
枡
##つま
蔬
ε
ビエ
パク
##滓
瞥
杣
##響い
穹
頚
м
##敷い
頗
訥
鰍
##エンタ
嚊
##ぬれ
##逞
##忘
溥
勺
##搾
##痍
攝
##吊
##｜
##狽
繙
##膿
##咎
##萬
##娠
##ô
##うえ
##高田
吩
##踞
##胴
##漆
鍍
##きき
囈
粍
##育ち
俣
蓉
##ユニット
##吠
鯱
榻
衍
##鯉
瑛
疣
悚
az
##マガ
##パーク
瀞
##タイヤ
じめ
蝿
闡
##ブレー
蹟
舒
癲
##尹
##駕籠
##瓏
##ｄ
##娜
寳
##蹊
##霖
##狄
イツ
リチャ
##問屋
##笑う
##睨
##躇
##やすい
浬
ベト
##轍
藺
##奘
敍
##とどまっ
澹
##委
##洪
橄
##匂
##燒
##ê
##祿
霍
##截
顳
驃
##訶
鱶
##欖
##祚
稠
##來る
##松原
##出力
##櫛
##歸
##及び
豌
##かかえ
稟
匆
##イデ
鐙
旌
##ぃ
##帷
##塑
鑄
恪
к
##寢
##亨
##顬
##攀
##煌
##わかり
リート
##踐
##ι
##у
##あそ
##溢れ
##荒れ
埓
荼
轎
閩
##戟
##倹
##さて
メキシ
臧
##仕掛け
##人事
##棘
##哮
嚮
琳
##麩
##えば
壷
耿
##枷
à
##拍
⇒
ビデ
ずら
##稻
蒟
##述べ
##コマ
##ｋ
楫
##累
柾
扼
がし
##盡
##スイ
ディズ
罫
憮
徑
##喫
##若い
##よろこび
##毬
##及ば
##ぐらい
##誅
##!
##ć
##どおり
##澱
杳
ズル
##悲しい
櫨
##烟
姶
蜩
##綸
##薙
つし
##パク
壻
##α
♥
莉
蹤
##眄
##かたち
譴
践
##移り
##慰
##附い
##曼
歆
擒
曩
ヨタ
躬
##鯛
##いよう
媽
##叫び
##揮
##運び
##先き
##ただし
ツト
ぎれ
##移る
##たど
煥
##傾
灣
##シカ
##うれ
og
｛
｝
##م
##毎
褞
岨
鉞
誣
##はやく
穉
##稟
##鎚
##弗
##提げ
オーケ
##箭
トロール
ˈ
麝
##憚
##庶
##菟
##硝
##祕
##媛
スタッ
##中学
スタント
##言ひ
##弱い
##芒
##徠
蕉
菴
##履
##勃
##響き
鞏
≪
##海道
##ミラ
##ा
##しれ
##寒く
雹
蘿
薗
酣
##懷
®
劬
秣
魘
惘
##奧
##あた
##すむ
##檗
匀
彬
懈
##坡
##輝く
##肺
##轡
鹹
##獸
┐
ポルト
##鏃
##篭
κ
##瑙
竭
##変っ
奚
##ああ
侏
##コミ
##疸
##井戸
##リト
##聟
##м
##ブレイ
##スペース
##簪
螫
##よれ
蹙
袢
##なけれ
綯
##罐
##斂
シック
##ピッ
##カレッジ
蹉
##緊
わせ
檐
熨
塒
贊
##ｐ
##クイ
琅
##遅れ
##出入
##の毛
##惣
冑
##邃
乍
涕
寔
##捲
##沈ん
##納言
##穢
θ
##津軽
##ベスト
##雇
譏
霹
##褻
牒
痔
##嚼
≫
##穣
蛹
##開か
##フィリ
##齒
五、
η
欹
燥
##冽
厖
罅
罌
祗
##偏
##錨
##瘤
##靂
##ブライ
轅
##穽
滓
##うず
##佑
閭
悴
閥
四、
##掠
##卸
挘
##焚
畷
##僞
┘
煕
##堺
悍
##尽し
袱
##勝っ
##茅
##買い
##置く
窻
蛟
##矯
##変え
##褚
##筮
箆
##陋
##萱
##やさしい
##得る
##バレ
瑾
##怙
##溂
##ゴーリ
貉
煑
｜
##犀
涜
##叫ぶ
析
##梠
弑
##獻
##拵え
薮
##ジャパン
##د
餉
榾
##隣り
##がち
##姜
暉
剖
顱
##鉄砲
掾
##ドラマ
斛
##フィル
^
##遠く
##飾っ
巓
琉
循
蹶
鄒
ヷ
尭
##トレー
##ς
##むず
梭
窄
舂
賺
驍
##赤い
韶
瀉
##排
##鰌
銷
儕
##残つ
遉
##雛
##及ん
##窯
##プラン
##コミック
##耄
瞽
棉
##はなれ
噎
##招
##鵑
ルト
##恕
纂
怡
諳
##開く
##櫻
##淨
葢
##日野
um
㎞
馘
##婪
##猴
##改め
##雁
##鴦
##躾
嫋
鶺
##鴒
##侵
統領
##瓊
##アベ
覽
##梶
##鈿
漾
##しの
##田村
悽
##堊
##窿
##しかる
ゼル
瑜
##菱
燄
エスト
ション
イング
##カンパ
≤
##迄
##撼
##軽く
##諛
##幽
鱈
##カメ
##にくい
かしく
##邨
##今日
##起こっ
##コート
廆
##"、
##撻
歔
##定める
##つまり
誕
宸
喙
##集まっ
##孃
##圓
婀
##蠻
##邉
##岱
##я
##蜒
##出よう
篏
鎚
##饌
##沖
##峠
##攘
##ν
##ステーション
##咐
##揃っ
##記し
匇
##妁
##煩
兌
##讚
艮
凩
##ｎ
桧
兪
##巨
##進める
粲
##巓
惶
##頗
##肝
騾
膃
轆
##まづ
##б
##公立
##ユース
##佐野
##鬢
澎
##廢
##泣い
##腥
鰺
##僂
膾
炯
##佻
盞
##肭
##法師
麩
##畷
##謐
寇
翹
##敲
阜
匣
##碌
##慚
##重吉
##渫
彪
①
##丞
##ダービー
##鞜
##納め
##青い
##来り
##行か
侑
##麼
##螂
##咜
險
##蜻
##ファイル
幔
##沒
錺
ロリ
##向かっ
梱
𤍠
##バンク
##of
č
##|-
##豫
##戻る
##鎌
岑
##訥
##瑣
佞
##狗
謠
つかり
##好く
##分かれ
劔
##20
##会津
##がっこう
邪気
烱
##慣
ォ
瘧
籃
籔
邯
媾
##聽
壹
……
##轤
銛
##秋田
##น
##撓
##瑁
##搗
誑
厲
璃
##輝い
榧
##アブ
﨟
##ｈ
##謠
##衰え
##南部
##マド
②
##桓
##壓
##欷
恙
##つづい
##たたい
瓚
##みな
##砥
##殴
##進み
葡
##綾
簗
ミア
砺
##積り
##辜
奕
##茲
沾
莖
##欅
錚
##薪
##掾
§
##乗せ
##ビジ
##﨑
##モスクワ
痲
##失う
##はあ
霖
##紳
##朱
##捌
鐚
廖
##テーブル
##スタジアム
##]
##庇
疚
悸
##かから
##いけ
##ジャイ
嫣
##ブロー
##ストーン
##茄
撹
##祢
»
##渺
馥
##瀉
##嗽
牲
##稈
##梃
颶
諏
猗
##ь
##誨
##畝
嫗
贏
##不
##叫ん
鎔
##匪
##七十
##システ
##テープ
##+
##集める
悌
臘
灑
砌
畚
##いに
##むずかしい
##とおり
##肅
##スミス
##河岸
##即
鰈
乂
璽
##г
##タリア
##エンター
##つづけ
鞦
##ヤク
##癇
##先づ
##淮
##酪
齡
##藷
橡
##壯
鵙
##温泉
##ゼロ
##”
##松山
##ジュニア
##くせ
##鮭
##スクール
豁
##斜
##猷
##羞
隘
##契
婬
##コラ
##わが
##箚
÷
##ч
##失点
##3000
##けど
摧
蒜
竣
蟷
##匹
##驤
魍
蜘
銕
峙
##芻
##盜
ρ
##ł
肆
##籟
オリジ
ウント
##危
簷
##蒸
鵲
弼
##俳
躱
鰡
##戍
♂
##्
##圳
##鳥居
##湍
かせ
##靱
犠
##苞
##紘
橈
##稷
稙
##レコード
##ハード
##理学
纜
##新しく
##残す
烽
イデオロ
##壜
##巷
##悉
##ツイ
##棋
##作る
##叔父
##編曲
##ı
##ずつ
##すす
##奠
績
##炙
詑
##糠
##わかっ
　　　　
##渾
##軛
##変わる
##釉
##あや
##丑
祺
##弉
##ホテル
##媼
##拌
##魎
蜈
##把
om
楳
##オプ
##メーカー
##横浜
ː
羲
##おの
秉
##循
熄
蕙
##蓑
獺
##楓
##作ら
顒
##[
##恚
襁
##諏訪
趁
##塘
蓙
慴
##詔
##マニア
†
←
##逓
##みえ
##含め
菟
莱
##卉
暹
##屁
##飴
##難い
斐
##覲
##樓
レンス
##迎える
##引か
ö
苹
昴
##おど
##噴
##錫
バスケ
∈
km/
鞣
##咳
鎬
疝
艾
##桟
##喜劇
##のぞ
##癬
##盪
伶
##擇
蠍
##神田
##エミ
##攫
##すすめ
##へえ
##しまっ
##梯子
##褓
##韆
悖
##儕
##灣
フィア
##グリーン
##太い
##ぼんやり
艷
孜
戈
##趨
擇
##むす
##ミシ
##邏
##られる
##ヾ
##鐸
##懦
帚
å
##醸
ギス
##ы
##र
##作っ
##錆
##兀
##帰ら
##郁
##棹
##伸ばし
##崙
##ウィル
##ミュン
##ドーム
##ue
«
ケット
##安い
##なま
##酢
濺
##茨
##蚣
##ちがう
弴
郝
##ワイト
膣
≒
##ルール
п
##ã
##",
##縊
昧
##顛
##黄色
##蕪
嚔
掣
##歿
澳
吋
##勵
##ペア
##八幡
攸
##鉉
##臾
##萃
槓
##使わ
漿
雋
沽
孺
##陷
##黙っ
##まで
鄰
瓔
##仕え
軛
##起っ
忖
邀
##まじめ
ヹ
##当たっ
##除き
##鴎
泗
汾
##バレー
##ファイナル
##懲
##擔
##揖
##抱き
##よき
沂
羯
駢
甃
##廬
潁
##訌
##群れ
##にく
##壽
##ゲーム
##富士
腓
澗
皷
ⅳ
沫
嬬
テス
狷
##姆
##挟
##ë
##ラジオ
祿
š
㎝
##跌
##褥
嗽
蹠
##たず
##珞
##ひと
##徐
##埼
逖
##衾
##動く
傚
##控
##怪しい
鐸
郊
##且
##まさか
##易い
##嬰
◆
##レジ
##醫
姊
粁
鑓
##鍛
##幇
##イナー
а
##中央
##槿
輾
##やさ
牆
惻
##箒
##措
##蹙
##蕎
##わか
裲
##ｕ
τ
##ジェイ
ピング
⇔
##失わ
崗
瑩
頴
睿
諚
##調べる
##妖
о
祚
##朔
蕊
##馳
墾
##宛
黯
癡
##鮒
##躪
樒
蠕
##礦
擅
羚
##拉
##ほほ
美子
##複
##ミュージ
赳
メッセ
##ē
ワイト
垪
##י
## 
恆
愬
##瓢
##死ぬ
##あざ
つしやる
##行つ
##繰り
##瑾
##アンナ
　　
##前方
##ï
眤
##mm
##彧
##次ぐ
##覗
##弱く
覿
##多く
ざん
陞
##已
##鄲
偖
##眺め
##涌
##さび
##唖
##鏑
廚
狒
✓
ct
##ب
##アレク
##語ら
##諺
##晒
諂
##おけ
##罩
##動い
##坐り
##襠
##突い
##レーダー
##彈
##伏見
臟
リアン
##スポン
р
##太田
##続く
##娑
禦
##笏
鮠
滕
氈
##皙
##田中
ジア
③
##スーパー
##矧
♡
##バージョン
駝
覊
韜
##貶
##鼾
レーション
われる
悒
箝
殯
##胥
ターミ
##ラブ
##ガラス
##『"
##》
捥
##きび
坩
妍
飫
邢
輓
##歇
稷
羈
ばす
##鬨
##フランス
##鷄
鶫
个
##ラグ
##珊
拼
㎡
##プロダクション
蹣
咫
恫
##副
泄
##凉
怏
##惶
稽
##はな
##ｌ
##蘆
##恣
黐
鐺
χ
##囘
##エンジン
㎏
##粮
##此処
##仗
箴
裹
##樸
氐
##悠
裙
##スタッ
##洟
##限り
##新田
##カウン
♭
##跚
##古屋
徙
##デモ
鈕
##穹
##ひどく
鞴
靺
##髓
褶
##蟹
↑
ノス
##杜
##街道
##ş
##悲し
##蚊
冢
躄
##於
##旭
碼
罕
魄
##木戸
##行う
ψ
б
##ピュー
##及ぶ
嚏
##赤く
ムズ
瀰
擢
##潭
##抄
奠
##鶯
##注い
##寂しい
##動かさ
##艙
斌
##南東
チル
槿
##失い
##穩
##册
ぅ
葯
##ソフト
##戻つ
##阻
##堝
鬮
##扶
剌
##成し
##均
兔
##蟆
##渡っ
叺
##起きる
##飛ぶ
##至っ
##頻
##戀
##利根
##舜
窈
##煥
##ρ
##レーベル
##ی
瞿
挂
甄
##讎
癈
##岨
齷
##粱
##くらい
##疽
##鴉
魑
##鞨
釀
翩
戛
##そっと
##有る
##隨
##救
##→
##å
ɛ
##ิ
##ง
踝
閊
##向っ
##游
篦
孚
鏖
##襦
蝟
骰
##すぎる
##癲
##悲しく
じる
##汚れ
圈
##／
##おお
癆
##誤っ
ぉ
##コメ
##腋
##ボク
##リダ
##ý
##頼み
僊
覓
##きく
擯
匝
##吉田
##なに
##哇
ロサン
##つかん
栴
##当たる
##建て
##眠っ
瘋
##禪
卻
##衒
##ストリート
##仔
レスト
##のばし
##勘
榜
蟾
##詁
僑
##献
##齪
##南西
蜒
颪
##唆
##咫
豺
孩
##テム
##龜
勳
##暸
滬
##τ
##纈
##謖
‾
霸
##jap
##fm
##疋
##晁
莎
霎
庾
郢
驥
褚
寤
##知つ
##登る
##巒
##セレ
##æ
##傅
##捐
##析
##※
纐
涿
##ั
##従っ
##漓
鸞
##祓
##臆
衙
舛
##掴ん
こえる
##脊
##塲
##叔母
嬪
##;
站
##box
##λ
洮
禧
##屯
##フィラ
## 
##これ
蜚
狄
##襄
躋
璧
##佩
峭
##麽
稈
拈
齣
アイル
##コロン
н
##ו
##撫で
誨
##穫
嗾
##現れ
##焙
スン
絳
嶼
桎
##碩
渝
##霆
邏
##かしら
##欲し
ソビエ
##向こう
##望ん
##眩
##留まっ
鏝
粹
##擒
##筅
咋
##ボイ
豎
##咋
德
##駭
##寐
##窃
雕
##━
蠻
竺
##笊
葎
悋
##限っ
##起る
##ｇ
眗
じっ
##醇
##愼
##碎
##з
マンス
≠
##コレクション
甑
##ă
箍
靨
謗
##ばか
##争っ
噉
榕
鏘
穫
兢
##がたい
##梏
##蒜
##葦
##ママ
髱
旃
##シート
‰
##貪
霑
##運ん
##動かす
##硯
##其
##畏
##蝦
瀾
瘢
##聞く
##鋳
##イオン
##こだ
椙
##オフィ
##埼玉
д
oo
戍
瀝
淙
斫
佚
迪
##噪
檞
##萎
##痣
獏
戞
##遭
##＼
##效
欒
##大野
##ة
##えらい
鑢
姝
まら
淪
##再
##牀
##喙
頣
##隠す
崕
##ぞれ
蠶
##紡
峽
##ござ
##翻
##八十
##モード
##ヺ
##傕
##カバー
∀
##琨
黌
籌
倩
##あわて
竃
傴
ざめ
##祖母
##鬧
##痛い
##茶屋
##ざれ
##中野
埔
##カラー
##マッチ
濮
##センター
鄆
##高原
##ก
##☆
瓌
邇
楸
僵
噬
﨑
ばっ
閼
かも
##秣
旒
緬
##裳
##詡
##アカデミー
##world
##ق
##日曜
刮
霏
##嵯
毗
##嘘
##賑
##蘂
熬
##諫
##喘
廐
##湎
##彪
##ε
##タイム
##茨城
＃
##ì
##スタジオ
ب
ž
##ミュニ
羹
樸
洽
趺
##褌
饐
いて
##凧
##伊豆
##敷地
##蛾
鈞
##赭
鮟
##檠
##繼
咡
婁
##菫
柹
嶷
т
##繇
##新宿
##س
##=
##′
##}
##鵄
##招い
りこん
眶
晌
粤
##漸
燎
##獺
##振っ
##インチ
茴
##倭
鐶
鞅
##ヒュー
##係
譙
＠
儁
##長野
涪
##アルコール
###
##単
##膨
慫
##凝
穣
侶
翟
##半ば
碾
屎
枷
##靨
##鱇
##起こる
##ù
##ソフ
廳
蕁
賎
ik
##堯
##ย
皝
##廳
犒
##鋸
##表し
鞋
烹
慙
昶
##ニュース
ズン
##嶮
##ライオン
撿
##鮫
咢
##鯱
##舫
##醤
##バランス
ə
##虱
##ワールド
##ม
##ž
##コーチ
羸
##かくれ
##宸
##衢
湮
耗
鬻
##居る
哮
鷓
##尽き
膓
ャ
ξ
##虞
靉
##オート
##矛
##ジョージ
##σ
á
##ี
##淋
##薹
濯
##悛
##稀
矗
勒
##戈
##升
##表す
驪
##韋
##袷
##鴣
##狹
筬
##狙
杙
鐡
皈
##п
レント
靳
##咲く
邨
##ld
##tv
##渡る
##奸
##跣
##挙げ
##マア
##公園
##与える
焜
##淋しい
##ラウンド
##甸
##攬
琮
ヿ
##青山
##砺
剔
##恐ろしい
蛞
##蝓
怱
螽
柯
蜑
##叟
##櫨
##î
##向ふ
##玕
##鈷
##辛い
##よそ
##芯
粽
窗
珸
##尤
廈
##比べる
套
##傲
##描い
##皰
##翹
椒
##菰
僮
吁
##椋
##婉
裨
旻
##臈
##喊
纖
##驅
##入口
邱
##起こ
##呉
膺
##萄
雰
##岬
##近江
##デジ
##ドラゴン
##フィルム
##ك
##ว
▪
##慂
櫺
栢
##緘
##鰯
僣
##たろう
##通つ
##菖
イギ
##アレクサン
##且つ
##ヒロ
и
ヴェン
##フォルニア
##汜
##ت
##認可
霄
俛
瘴
##遅
##痰
##冴え
鵺
##づつ
##呪
##羲
壘
邈
£
摚
##躬
莽
啀
餐
##小松
繚
耆
##皓
##蜍
鴇
吒
詈
##誡
##柩
羆
##はいり
娵
檳
##峽
袿
##騫
##‾
##硫
##琦
µ
##：
##コミュニ
​
鑒
壑
踉
鶸
礒
醋
##曄
菲
##降る
##抑
寃
##食っ
佶
##汞
##もら
##竝
奬
##隔て
龔
##フロント
##エリザ
„
##瀞
ā
##ノース
##コンピュータ
ˌ
頠
逵
##三島
##違つ
本橋
##燗
扣
##仇
藷
慍
##倶
棊
##顫
##けっ
##汀
##the
驗
潼
棣
鯔
##■
咯
琛
##ר
##อ
炮
##湃
渙
##覯
蘚
##脩
##晏
##袂
##襖
縅
##現われ
##┌
茵
##輳
鵝
懦
儉
##インテ
蒯
##溪
г
##なぞ
萇
##1000
蛯
م
##்
##なかろう
##聞かさ
##苦しん
舫
##堪
宕
##槨
##品川
##気質
##運ぶ
礦
槲
蒴
##ｙ
爻
##縅
##嗾
紂
##ひどい
##左右
貳
衢
゚
ターズ
##蕋
##ビール
##2000
≥
##ع
##メンバー
##ð
##ल
忸
##悪く
疆
##鵠
愷
##肋
攷
##橇
吶
##すます
##胛
穽
##盒
蝎
##嚮
##篥
##サイズ
##包ん
##分り
##糟
④
餠
##└
鏨
##η
綝
褘
涇
##衛門
##瑳
dv
##但
##*
##馗
倨
粮
遐
萍
##行け
恂
炷
訶
##ガリア
##移し
哂
肅
呍
##ひい
##うす
##撞
篳
##籬
##疊
##縱
錣
槎
##仭
詢
##舊
##ぅ
##傚
痍
##鱒
##wil
##ｖ
##┤
##野村
輅
ι
##エディ
##レコー
##はじめ
逕
颸
冰
娜
漳
偵
猖
##捕え
駘
##û
##乗る
##鋏
##通う
##鰐
迭
##普
##結ん
琦
ⅵ
ョ
冏
##俅
##テレビ
##チャート
燠
瑟
リーナ
##鉞
闃
晟
##阜
鰥
麪
糶
鰤
##媽
##ｗ
僉
礑
##ライフ
椹
##榔
嘖
釐
##捜し
##巫
璋
饀
¥
##果て
##手前
##х
##扁
##パイプ
##ز
##長期
麴
磬
##苺
##羈
##佼
##痾
舸
##閙
帙
侃
##喬
##谿
佯
犍
##糺
##歐
##觴
##覗い
胯
##好い
銹
##狙っ
##違ふ
##玖
##明るく
盔
##村上
紇
剱
##戎
##絲
##澁
冐
##‥
ɔ
ガリー
##フジ
##ò
ⅴ
##蔘
##喉
##空軍
##帰つ
悵
##淪
##菁
佝
碍
##粧
颺
##滌
鱚
##紅葉
椴
##聞け
弖
##不足
##讓
汰
盖
##ファミ
綰
##ハート
##κ
##ě
滎
洙
鞮
タリー
ice
〝
##キャスト
##ه
##メダル
##ุ
##揉
##走ら
##啖
藜
澆
欷
##襞
##禿
##こんな
##キロ
讖
##埔
##余り
##吼
盎
踴
頡
槨
##ㇽ
噐
##鍔
鄂
##石田
オンズ
##ح
이
膂
柬
葩
貽
鉅
胼
茘
噯
##剃
##埋
饌
##後ろ
苜
##誤り
薑
##什
##すな
躙
堵
##皷
瓠
##抵
ベートー
##渦
つぱ
┬
拐
桀
蘂
┴
##稙
黔
埜
##津田
##レスト
##大津
##์
##クリスト
恤
ゎ
潯
猾
##覊
糯
揣
##獗
鰒
##そも
鄱
囓
##蓿
##蘋
蠑
##ござん
ヸ
羂
##マサ
##埵
眈
##謂
軫
##食う
昊
ä
##烙
##恥ず
裘
欵
##鷯
岫
塢
銓
蕋
崛
髠
况
凾
##若き
##使っ
檸
##檬
えよう
薹
##恃
齲
兎に
鮹
シンガ
##闕
##ウィーン
##エンド
雒
##邳
リーム
##ล
##ต
##達者
##跪
茝
誥
##鰹
##炮
剩
蔕
##苅
鯊
##開ける
##堅く
##沽
搆
##臍
翕
##牝
υ
л
я
##ל
巒
慓
##結ぶ
##働く
潺
掖
縉
##絮
狢
っぱり
滇
##厘
##浴び
##頻り
鶻
##鵝
##鹽
##沱
琬
##紜
##斬っ
迯
##曙
##ストライ
##山崎
##ドライ
##ц
cod
##インターナショナル
駸
##侘
兮
薺
鷦
##勁
訟
蒿
##陬
##蹤
##難しい
壟
##小屋
睹
##厳しい
械
##喧
##假
梔
##メロ
##さか
##籔
##ゆか
##エド
##想い
##坏
臑
闥
##ヘリ
##滋
##ばあ
√
洸
凮
闓
##ف
##份
##ส
郞
##燁
##檢
##缺
##薦
##瞳
##伯母
瓩
刪
愜
浣
鏽
##胃
##親王
しかつ
毟
迥
汕
鉗
たす
顴
##女子
ラル
簸
##磋
##佚
##賎
蛛
##おば
##捻
岷
▽
闞
皖
##ː
##ミュージック
##壙
́
##殆
謫
佼
##瀑
彙
##蘊
鉉
拯
簔
逮
鋩
##咄
##うるさい
椚
刹
##嘛
##みどり
##蛛
濹
↓
翊
ヾ
##艸
##訟
##アルバ
詹
濬
##ぉ
##่
##เ
##ी
##ि
##明るい
##睫
髢
##黛
踪
##娥
藹
孑
##櫓
殪
##ならび
##醺
##びっくり
贓
##湘
禀
##ナショナル
##渣
膩
##伯父
##膊
ぎる
隗
鱧
##競
##雞
##υ
##ワイン
##見える
##エリア
𠮷
##レギュラー
##仙台
##挾
慳
##少ない
斂
##慌て
##笥
##葭
纓
葷
##厦
醵
輟
##纜
槃
##久しく
捫
蓴
嶄
##厳しく
逭
##誇る
##拒
##穗
##よん
##跏
##涎
##ｆ
攣
娥
##區
罔
琺
##瑯
##恨み
荅
苾
##ヨタ
劑
##詢
##篋
##鎬
敖
ç
ミュニ
〟
楙
閖
##齦
ぎっ
##杆
葌
蒹
戚
##胝
蹇
皚
##笑つ
##笨
敝
##蝎
##彊
##至る
##滯
##恤
##済み
##廼
##恐れ
咨
甌
譔
##ソナ
##下手
##灼
##僊
葫
##アイス
##スポーツ
ο
タリア
##ř
##コンピュー
##ج
琿
##?
##斛
##迫る
愴
##哈
##倪
##併
撼
搭
##まして
ウト
##儺
謨
礪
鎹
##クリス
##ツアー
##鐐
##cm
##ḥ
##大宮
虧
燬
璞
薇
輙
猷
筠
繹
琰
##袒
##来れ
げる
##むかし
腭
盒
##瓣
##五百
奐
妣
##淞
##堪え
##撈
淤
##筰
鵰
##熹
##エキ
##兇
毋
`
プロデュー
ill
##芦
##昱
嶌
ø
燮
##大和
擣
痼
忻
牴
迨
敞
埿
滊
磚
丰
##貰い
讎
窠
##揺れ
##さがし
鷽
滂
##″
##泛
蟆
脉
蓊
##カント
##俯
##湛
##涛
##龕
繆
潅
杼
##疱
靫
##琉
##ה
##้
##集っ
##陟
##苛
##贋
##睛
蝴
##圭
##いひ
##閨
疥
##鮨
##よかっ
##インタ
##しまう
##愎
##はて
恠
鸛
##いふ
わさ
##窕
##蝿
##責め
##践
楞
戮
仂
##ダイヤ
##潴
##茹
##埜
##欽
##碕
##タワー
≡
ส
­
##ห
##ページ
筺
塋
墟
熈
鳧
覩
瓣
##峭
##頡
##運ば
鯡
幢
##輦
##悲しみ
##すがた
汴
##仄
##鈞
##起つ
##ソード
##ж
##起こり
##颯
##虹
##ポルト
##琮
##甑
ت
##་
嵜
##衿
嫖
潸
熒
##歔
萵
##好ん
絮
鶩
惺
##蛄
瘻
##胄
鑽
##およ
##靆
##恐ろしく
##堡
鷭
##被っ
##孟
鑁
萃
厦
ℓ
##エドワード
##繊
##ショッ
##ु
א
##プレイヤー
##ะ
暐
##デザイン
##描く
##孚
##仞
疇
甸
##冰
嫦
##一日
竄
揆
##礬
##叩い
##住居
倏
犁
吭
##限ら
##のぞい
##叩
燼
彝
##鼎
羔
##ヨーク
慵
##巖
##ω
х
凰
##勳
##搜
##周り
⊂
##後期
##バトル
ace
鷗
##ダブル
篋
##倚
觚
捐
玫
輒
珂
##靜か
髓
##言つ
##槐
##薑
##風邪
##嫗
鰕
訖
釆
##獵
##劔
劭
孱
卞
渟
##見れ
駙
##鼬
##バレエ
##篁
##幄
##罕
糀
##cod
##ш
☞
##이
##数字
##メッセージ
##ա
##ด
##腱
##ś
##ถ
김
拊
##賈
##浮ん
##超え
遶
笥
賁
##墅
##軻
疹
吽
汶
##羮
##鬆
##知らせ
##襷
鏈
##笄
##擅
##辟
徜
##使う
滉
##ウィリア
##フランシ
##大島
windo
##早稲田
##フレーム
##ช
##พ
毓
ベニア
##粘
##財政
㈱
瓘
贛
##青く
##鑰
##しまつ
##述べる
柝
蓐
泓
潦
滌
嗔
薀
##絽
##伝える
菎
眴
##飮
##記す
##雫
##かゝつ
諢
硅
##孤
##有つ
かしい
##徉
啾
瀘
ell
##モーション
##ふっ
##長崎
##μ
##育つ
##貯
##なほ
你
##攸
##プロイ
杮
##न
曺
㎜
##·
スタジ
##ட
##インターチェンジ
##詐
##蛸
抂
韈
厥
圜
##ひど
##メタル
##冨
溷
##見せ
##繭
##箕
橅
椈
瑶
箙
æ
##轟
##どこ
##饅
罨
緡
##降っ
喨
##覡
羣
⑤
嵬
レル
##蕗
##バカ
マンド
バレー
##ベルリン
ה
##ش
━
##只
##म
##トンネル
痞
煦
##凭
謔
##なろう
榑
##燹
##琢
碣
籙
彊
##窶
昕
渫
##吹く
桛
睛
螻
##霰
硼
##うな
##悌
##娟
##稔
鴿
磋
##讐
誄
鄯
##廈
仗
閤
##壤
##駈け
##ほと
##舒
##欠け
##変える
##歸つ
菁
##鞅
##餡
##シンガ
##山梨
淝
##礎
##潛
##沂
祢
##漁業
##ά
##ό
##プロジェクト
##ท
##プロモーション
オープ
##ค
##俠
##ウェスト
皸
##嗜
##珍しく
##伴れ
聿
牕
犂
麤
鑰
擺
諛
##軽い
##牡
媳
燔
簫
##涸
##持た
##ヹ
猨
##遊ぶ
##まいり
爼
##鎧
筌
##颪
僖
鴆
絖
##鑚
⦿
##ブルー
蛎
パソ
柞
â
##壷
##茗
##醂
ⓐ
##タンク
郿
邽
##ń
##ב
##​
匯
ʻ
##コーナー
##ソフトウェア
##怩
矍
冱
##到る
藕
觴
羮
溟
黠
倪
##邕
杲
##匝
栲
##聴き
鐃
##珍しい
えれ
##至ら
##明日
剿
##歡
##筌
欞
薤
##佞
##みえる
幀
テム
##隍
##鑛
##従う
##ほとり
樞
##出來
##inter
蕚
##縒
##顯
嶠
##コップ
ペーン
##筏
##奈良
##イスラ
##岑
髥
##ㇷ
珏
虢
##娃
##ṭ
##บ
##翊
瑋
帕
##帰れ
闔
衲
胖
淇
撩
臻
褫
##昨夜
##觚
##們
蝨
##駈
黥
##俎
##遏
##浚
##たの
##蔗
##籾
嬋
##噬
##いただ
##紬
##ナイフ
##蹕
##杼
##掬
##艱
裟
##どの
##たがい
##淋し
##蹈
##閇
妲
##œ
##臚
朏
##エジ
枹
##甞
尓
##市場
##スタジ
##ί
##スタッフ
##；
 
##丐
##恙
拆
##埴
##溟
儔
眥
##良い
##穿
跑
##骼
##疇
##呀
##韜
##島田
##鞆
##案じ
虬
鬩
纎
##纂
艙
##未だ
##蕷
盌
僂
##娶
稾
##咩
ュ
##既
琪
##挿
霓
蚩
勗
魴
##紇
##テイン
##俘
磾
##アルバム
##ソング
##祁
خ
##व
##ガンダム
##ť
##貼
##軋
##鑠
菘
冕
糝
估
无
醞
逈
##掖
矧
羗
褻
鱠
椅
怫
##呆れ
##緞
##しずか
驤
皹
##苣
憬
##向つ
蛼
鴾
礬
##集まり
ラリ
##しかた
##袿
##刄
##吉野
##筐
瀏
ʃ
减
伱
ランダ
篶
##ベト
##デザ
ج
##त
##フィギュ
##パワー
ɒ
ن
##クリア
##web
福
##抉
##鋲
かろう
##ポジション
びる
珉
##蓐
坎
##跖
冽
##癘
懴
##仮
##蜓
壒
##涕
驩
橢
##熄
郤
ⅹ
##邪気
##鋩
##’
箜
坏
##蔡
##椅
芮
##π
蠹
呱
##光明
ヘリコ
##γ
邴
##薗
##エース
クライナ
##陁
##スペシャル
##="
##チェンジ
##オフィス
##莞
##トーナメント
毳
黜
##脆
蚋
墩
##碓
##鉤
葆
##珪
寰
迢
##艫
##弋
##顰
卬
##遮
嚼
##争う
##二人
##燐
倡
儞
##蘿
##躓
开
##つな
##残ら
##及ぼ
##耻
##わかれ
##従い
##闐
枸
##示さ
##忍び
囹
仝
##陸軍
##〆
##馨
檮
##劑
##熕
嶂
##杙
竑
獎
##薮
峴
ング
##澳
岔
##‘
##玘
##े
︎
ó
##क
杰
##ो
##エリザベス
##ד
##チャンピ
##蜊
##あらわれ
蠧
##邈
侗
##膺
郛
饜
肜
闢
歙
鐫
##蓼
##破れ
繖
##罌
##舖
##スタンド
##珍らしい
鯣
##減っ
胝
##粗
臠
##媧
##望む
##輝き
##雉
鈿
##造ら
涛
##篌
##さびしい
##挟ん
##湧
蠡
泯
俑
##幢
∴
﹅
鐉
##楢
劵
##遵
з
##瑛
##傪
≧
##주
##ן
##ステップ
##後半
##ファンタ
##도
##리
菽
##閊
嚠
綫
##箆
丕
軼
##瑰
裒
邃
##宥
廩
礴
##痩
昉
##マスク
##めで
##耨
##藐
##ほしい
綟
##倦
##起り
##しらべ
##罅
##みせ
摯
髀
##瘁
沔
##急い
鵄
##諒
##苦しみ
##謫
##ㇵ
瞹
##屠
辜
##δ
薏
##ゲスト
濂
熹
苓
綦
璉
##マシン
靇
##א
##^
##{
##ṣ
ق
##窒
##ր
э
##द
♀
##啜
##銑
##ő
##ת
##사
##蹐
玳
##喨
湫
駑
礙
##妨
晡
##瀚
躡
謐
##揺
##嬉
##諦め
鰮
##宙
⊿
旛
轂
ッタ
𧘕
##𧘔
弋
惲
##蠶
隸
##ながめ
##圄
碕
##逃れ
舩
‖
嬴
ジラ
鶲
邕
##鞮
##顗
е
##ふと
##匯
ع
##スタート
##プロダ
เ
س
º
‎
##デビュー
##ط
##舅
寞
##やっと
##袤
##流れる
磴
痿
銖
痢
徧
鴦
##預
聨
##むかっ
鞺
縡
##至り
錻
##つくる
##山城
##置け
##鋪
##抱い
##秩
##汝
訐
鴬
桙
邾
##誣
##猩
##甘
遏
鯵
炫
潞
##三千
郅
聶
⑥
##蜩
瑁
##ǎ
##ą
##チェコ
##～
彽
##寂し
譎
盪
##軾
##睹
暘
售
杪
##旱
##孑
曷
##昨
##言ふ
##せう
荐
粳
##囂
憊
##いたし
灝
剳
##ロシア
##癡
##クラシック
勛
##湲
##滔
獼
##峅
憖
悝
颷
##倅
##沛
゜
##“
ŋ
ī
蝠
##ф
у
##ю
閬
耙
##掩
##懿
##県道
ジェクト
##지
##ğ
∠
##バイエルン
##ა
赛
糢
##羽織
瞪
懵
騶
##行は
燾
煜
殃
┃
##跨
##鯖
##あさ
蜉
##蝣
##歪
迴
奈川
尅
##八百
##諍
##有り
½
謚
##礪
簓
蛔
##晟
##ホワイト
##脣
##帕
貘
##wh
##記さ
檝
莒
夔
暠
㦸
##„
銈
覃
##サービス
##ローマ
▶
##य
##ע
##\
##活用
♯
د
遹
##파
璇
##柯
##竊
壌
圉
扭
##麝
##舶
##嵬
##瞬
垜
##必
皋
##翦
爨
扛
##諚
##ロング
荵
樾
竢
壤
籰
##答へ
##美濃
##耘
##鏝
鎰
##アイルランド
##頌
楣
##霓
醴
◉
##解い
##緲
##帰し
##私立
ue
##仆
闍
##樞
##聵
湣
鶚
籖
厓
##菩
##愈
##苡
##隋
ⅶ
##出雲
´
##洙
鑠
##パナ
ɡ
砿
##賁
##匡
##苓
淏
##サウンド
##篆
##ŭ
ナ・
î
##塢
##沮
𣱿
椛
##オープ
و
##מ
##ǐ
ers
##コンサート
禕
##嚥
##ファミリー
##music
##і
##イベント
靑
##羨
ーン
遒
粢
痊
聢
胥
鬆
逶
牋
楝
##貂
##穆
##です
##伊達
笘
##ことば
##足る
##さっき
倔
##膠
螈
巉
##盂
##生まれ
熖
捍
##赧
##曉
##鉦
##淺
##●
鷙
##姙
醢
彧
##芹
騏
啊
猊
鯤
炕
愿
##椏
汜
茯
##マガジン
##△
悳
##ナメント
##旁
朐
박
조
ū
##ŋ
##ป
ş
##禺
##ி
##의
##洱
卡
餒
##読ん
擎
晷
##簽
跌
##刪
##塋
##慰め
鈸
##籙
##簇
##はじ
##┃
儋
袒
湍
槭
嘻
##ブラウン
##旆
##筍
##忙しい
襠
##瑠
##綮
##顥
莵
##福島
亳
##墺
摶
##優しい
##儲
鑚
鈷
##代わっ
##弔
##夜間
##剩
##皐
##金沢
蝌
崙
##錕
襴
゛
è
∩
矚
隂
##奎
縯
虓
閒
##玲
##ָ
##ह
##盈
##아
đ
詧
##賠
##원
##ं
釗
##lb
™
##ம
翜
曵
槧
緇
##禧
牖
暎
鬂
俶
##与へ
疽
懋
狃
沅
駟
##廂
袞
囑
##枋
ッチ
##葡
##褒
毯
##磴
齅
##蔀
惆
抬
鑼
##坐っ
桴
韛
##噲
##黎
磽
##渟
##ふい
們
宇都
##敍
‡
徇
##袱
グルス
##犠
瀛
ф
ч
プロイ
##木綿
熏
##閭
##挍
种
クロア
##エピ
##菴
म
##珥
ש
¬
##栩
賾
##ู
##汾
##ำ
##غ
##«
##ż
##オーディション
##埠
##匣
椶
柁
閧
騫
##覈
攅
縵
忤
懌
踣
##雌
撈
##鰻
##蔔
彔
怛
##ぼく
##蓬
##冉
##勧め
繽
##考え
##鈑
##しだい
覉
唵
##杞
挌
凴
瑯
##照らし
龗
##遊ん
鈑
鼯
鷸
##小野
薈
弌
幮
漚
垓
螇
##蚸
##沿
##蚪
珧
珙
絁
##斤
##餘り
##培
##ブロック
祅
##伊勢
##鄭
諶
##〔
##支店
##エルン
³
##スペイン
##다
##ى
##จ
毖
##া
##प
##グランプリ
##ா
##̈
##ș
##đ
ú
##성
##アイル
沭
##叩く
裄
孀
芟
##その
藐
##兮
泝
彤
睢
崧
孥
箪
緝
##渋谷
癰
愆
曁
隲
艴
##生ま
鰆
##ナチス
##唼
鼹
輭
##あの
蟀
痂
皙
瀦
##収め
皀
痳
潢
厮
##眠る
懽
酈
衫
##加わっ
##棉
縕
むる
##濯
杁
撻
##いは
##癩
踐
㏄
##見よ
思議
邙
##至つ
禺
##佾
##膸
##唹
##０
ς
ό
釿
##碣
##馥
##丹波
##コンサ
嬀
廙
秭
⑦
畤
أ
##ネットワーク
##ग
##ศ
##ი
##ש
##þ
蔣
##℃
鴟
##つまら
賚
##霄
##芬
##渥
竅
昺
壅
醪
堙
楨
##鵲
倐
##櫂
癢
膸
褊
蛻
糒
##棧
##儉
##捺
##俄
耒
##かゝ
瓮
瑚
煨
##グランド
鏗
##濛
鍜
晳
呌
##盻
秕
挨
濊
勦
ê
##昉
##饗
剡
œ
郗
##鯰
##蕨
㒵
##ё
鬭
##决
藎
跗
##紮
侫
##衲
淞
##アカデ
##黌
##炒
暲
##臏
##ロケット
##課長
##1人
##ポスト
∅
##ไ
≦
ح
琨
亶
##ज
##स
##ストーリー
围
##э
鼡
繇
誚
籟
蹊
暄
旄
陂
汨
竽
##姪
蒨
遯
閹
##奬
曖
##問い
脯
##シンガー
轣
滸
㓐
霾
臈
##蛭
##いたる
瑳
##きれい
噌
耘
遞
ⅷ
嫻
祉
クション
##若く
樏
##歌舞伎
##淄
##确
枋
饋
##驛
璆
鯀
挹
##枉
掙
##肓
##ブラック
##僻
罸
憇
##吽
嵓
##前田
í
##蝗
##キャプ
##原田
豳
##凋
##彭
##ディレ
##福岡
##諡
ś
י
ㅇ
ʔ
מ
क
昱
ɑ
จ
##선
裵
##ு
瑭
##釗
繫
##ή
##동
##ர
ƒ
##έ
ɣ
糅
啗
躪
摹
氛
歛
篷
烘
##亦
僦
瘞
礮
##兌
##しゃべ
耦
惝
##いう
##暉
朸
ツク
アナウン
弭
蹋
ⅸ
##オーディ
槁
顓
庠
煞
##畧
芭
##餠
槊
陜
陬
駻
なた
##竇
翺
##厓
##黐
瑰
##顱
玠
鬍
##ワシントン
梛
##魋
廏
ʒ
##眛
##黙つ
##ルイス
##＋
##インディ
##θ
##穎
##酘
罃
ʿ
##ט
##נ
€
##麹
゠
郴
ḥ
芷
淸
枓
##민
##ドライバー
##ข
아
##기
恚
謦
##瑟
巵
祜
踢
##浙
##苒
腊
𣠽
溼
##つもり
##楨
##瀛
孽
##なあ
##たと
騅
##渚
憍
峩
喟
##瞋
踟
##吸
##羯
芻
##ｚ
##だまっ
扯
##毟
##悵
##怳
##譎
##籐
##やろう
##騙
##贊
鯒
莠
籏
晧
艣
繧
伉
寬
##豁
奝
##橙
瀚
##ディズ
##哺
虵
##オペラ
袙
璝
粰
##種子
##徧
##細かい
##マイケル
ㄷ
ش
##バラエティ
##改札
##戛
##暎
內
##名古屋
##한
##フットボール
##オープン
þ
##ฟ
∂
炅
##碗
尫
##祗
##隲
秧
##躑
聒
艨
##艟
廡
羿
謾
从
##璞
##薫
いに
##寰
韵
仿
癯
攬
##迤
##梔
扞
轗
##唳
##舁
##籌
##じや
襪
##昵
溲
韁
アルゼン
##縻
##むこう
灤
仭
淦
##熨
##かゝる
奈子
酛
##是れ
嬖
刁
##とに
ス・
##および
洌
##うまい
##黴
##携
##甥
墉
##萍
##っとも
##漂
##丰
鸕
纍
澍
夤
##苧
##莖
##五千
##遲
##繝
##蟖
##決める
鑷
##韶
籘
##χ
◦
璿
淼
##毖
儛
##艷
菠
##哀れ
呴
鵡
##壹
##フィリップ
宓
##陘
酎
##φ
##岡山
貿
##プロテ
蕤
##전
##ּ
ɪ
##アラブ
##ナポ
贇
##영
한
##자
정
##201
##壱
##ブレーキ
ज
俱
##キャンパス
ر
##스
ک
##ص
华
硤
＄
##鷗
邛
##綽
##♀
##痩せ
拶
##永く
袗
##簣
晤
##鴻
囿
嚶
##鈔
殽
陟
##匱
##うしろ
榲
啌
##闥
奩
##驢
##許し
縑
簟
ゃあ
##蹰
##怯
殞
衂
##譴
𥥔
##斜め
皴
##コメディ
褰
剜
##鈕
澧
雯
涓
扠
##作つ
##燧
丿
##抱く
褓
幄
##離れる
珣
嗷
##孁
##侭
##痎
##家族
挊
譟
##巧み
曄
濳
昀
鱏
##３
檉
絎
##薊
##あに
##薐
徼
##粲
劾
岌
ï
凖
##イラン
𤏋
##土佐
ί
##棖
≈
摠
∧
膻
##翩
##蠡
##零
䙝
圀
濵
莭
##罡
##ष
##ק
ㄱ
##나
頊
##jr
##ն
∇
##越前
##モンゴル
勣
∽
##餞
र
##ธ
##خ
##コミックス
##ţ
##溥
##オーケストラ
##ė
##ミサイル
##은
霅
螭
ジット
##亙
##斃
沍
##どんどん
縈
##跎
匏
怙
貲
哦
##黜
綵
璘
##髦
##楡
甎
##輊
澡
##いえ
##衫
##だろう
琵
渣
##轆
##売っ
懾
鼕
##蠖
蔗
汞
餝
##廩
唏
##鹵
##縢
筝
穰
枴
##頏
##馭
##昕
##漪
娟
##矣
膈
蒭
噲
##死な
##披
##冕
繒
癋
##虬
##閉め
##搆
##能く
胷
ティスト
##婬
擠
##蜥
##アクション
笋
##聾
##况
##ｊ
ト・
##秉
##ナポレオン
梦
##栂
ō
蕺
##珎
##７
刲
ἀ
##舸
鍪
謌
勱
烝
##マネー
濞
⑧
##蒋
ット
##َ
∪
ي
##어
प
黃
##해
##〈
##キャラクター
ه
##love
द
##학
##甜
##ث
##ň
チュア
匱
瘥
擿
扎
挈
##朮
鑊
麼
眄
婷
哆
飈
##蕈
鶇
##小川
##戦い
##棊
蚶
##璉
##桝
襀
##訊
覬
##たらう
##あまり
##おさ
##燻
##云い
##苫
簣
洶
##べき
##禊
盱
##誇り
##鍼
##裙
##繰り返し
縢
##劒
葮
陲
##蚊帳
##望み
澀
閎
##桿
##唯
##晷
##釵
##瘻
##隸
勖
##クリストフ
##弩
##絅
##吹い
蚺
##鞳
##罔
ズム
朮
鑾
##攝
##モスク
阯
夐
##犁
##ロンドン
##鋺
##ちやん
䬸
葶
ц
ati
楽部
笨
##ヤング
##，
##耿
耨
##皇子
##本郷
##コンク
娃
##ट
##ターミナル
ㅎ
##ז
步
##ˈ
##ʃ
##ג
ك
##キャンプ
荃
##根本
澮
##ύ
逄
भ
##வ
##チャンネル
स
©
##ɡ
##ड
##ビジネス
##ドライブ
##ರ
##廨
어
 
乐
##ի
##수
‪
##洌
##したがっ
蘸
##賚
蒞
##牾
槖
匾
##蘗
紵
桷
嘈
隄
##笻
##佶
##擘
娓
##疲
##大小
齶
豬
臉
禳
##占める
##広がっ
##鴫
##なつか
煠
舖
##でしょう
##臑
##霑
叨
畧
##貅
俏
筭
##なけ
##かぎり
##抑え
蘋
##簑
縲
么
##燎
##もらい
##砧
##用い
##驩
##思わ
##轂
覲
搢
羇
綉
##武蔵
##儷
##堆
ή
##生れ
##ジャーナ
蚫
##旻
杆
蹰
##結ば
##蕭
亟
靚
##浣
##眙
蚌
##尭
##you
##スケート
袘
##億
##中村
##寳
笻
##べし
琇
佟
##変わら
##謌
瓫
##坂本
囎
莆
鄜
##菲
##オリジ
##咬
邲
毌
##ئ
##德
ㄹ
##고
##ण
##כ
##ח
##ณ
##ե
อ
##ษ
##200
##県立
##高野
|-
##ོ
##滄
㎥
##〉
##ک
##ランキング
##フリードリ
璜
##昆
ż
##皋
##진
ㆍ
##로
厙
姬
##정
弢
軑
㢸
##郞
##♂
##₳
##あッ
狽
紈
##釐
滁
##棗
##二三
戡
楩
##晤
##猶
##裘
拏
##眷
牘
拄
逾
埤
##覩
餽
凞
豢
##進ま
##辷
萋
擘
濘
棰
##笑わ
##呍
##昨年
##ちなみ
##断っ
淅
欛
##覦
##ポケット
鼷
忉
##囉
##ガラッ
##壑
##糜
##ｘ
##繰返し
##劵
貮
瀲
##など
##黠
㊞
##枳
胄
##琅
虺
垠
楤
濰
##牁
##行なわ
##おじ
嵎
##楫
蹼
儺
##韃
##リチャ
敕
軻
鄞
##濂
覡
貊
猅
犛
踈
貛
騖
曦
##ボックス
兕
##コンパ
##トーク
##ㇰ
##磧
攔
坌
鑲
##木曾
❷
##掟
##カメラ
鉷
##昶
⑨
鰲
筱
##ू
穐
ف
ㅂ
##アフリカ
##ס
##コミュニティ
##–
##アジア
ก
ค
พ
##@
##화
萊
媯
##上野
ɲ
##goo
蓮
##エネルギー
##는
⁄
##ư
ل
서
##ظ
吳
##ე
##ლ
##ギター
ב
##ț
##ディレクター
ard
강
##상
하
##ን
##ễ
##罠
鋮
珞
##積ん
##賺
軾
##老人
絅
痾
囉
賡
攄
殂
楹
妝
##泗
薜
汙
盻
##ましょう
褂
淄
霆
齦
鯇
咩
##堪へ
##忰
##靛
諤
頥
##おそろしい
##估
旆
攲
弯
弇
櫪
逋
蘰
##各
##嶇
##闡
咖
##抛
##ひた
##鞴
##鉈
塼
##おかしい
莓
##諂
##橿
麋
##トーマス
嚳
##せっ
璩
##禹
膊
侭
蠟
惕
賴
##釧
##広がる
珥
ἰ
##芾
##指す
釁
##毗
牂
獾
樔
丶
狻
##少い
##洩れ
晄
棡
##伺
嬥
ē
##ㇶ
楉
萓
挍
##９
##２
##щ
##莪
##肛
郯
##繖
ю
##迪
##カトリック
嗹
##拏
獠
沱
埕
##瑤
逹
湓
##ַ
##ְ
夘
##대
##호
黑
##ブーム
##ṇ
##ワイド
️
چ
##گ
##滬
##우
त
ṣ
##ภ
##ল
##ヘンリー
##夛
##サッカー
箟
##ా
##アトラン
##ľ
अ
壢
ब
##რ
##ო
##曁
橫
##أ
##瑪
##ల
##瀬戸
ㅣ
##요
##ů
##্
##ĕ
崱
##ㇼ
##瀟
憺
㡡
##灑
蓍
䨇
陌
醺
溽
扃
##蕙
傖
##邙
##佗
蕣
呢
葇
澂
抃
璐
##匇
跂
邠
殤
讌
儆
檠
##申し
たさ
##鎗
瘟
鬟
##嫉
罽
顗
##閦
##篦
濼
爹
鯷
##遞
縟
辵
倆
嫜
##沁
膕
橐
瘰
##癧
##キリスト
迺
酥
玵
##驚き
##！
##崛
##爼
籀
氓
##幗
枘
檍
暾
奭
##啡
##其処
麞
侖
呿
毱
莅
##氓
##重く
拖
##圉
墀
##頊
##狎
##儔
##カナダ
㷀
戕
鑪
鬧
瀨
䑛
##檄
鹸
##聞か
##紂
##ジーランド
##咒
泫
蜓
##莚
豨
##膩
偐
豼
##猊
惴
##勸
##痙
##あはれ
##闔
楪
昃
##鮄
##ǔ
##ㇸ
##悳
ゔ
##かよう
##栲
窣
##罘
ж
帮
鬐
瑗
豸
##化け
ἐ
##賽
甯
氕
##瀆
緦
##儁
鏟
㧞
##こころ
##β
##捍
楇
##嬛
鄢
簱
##モンスター
##キャリア
ע
##バスケ
##õ
##시
##פ
コムー
∨
⊆
##委託
##スイッチ
騸
♠
ท
##โ
##謇
󠄁
##ื
แ
##태
ṭ
##データ
##ི
##श
##燮
鄄
##த
##แ
##현
##်
기
##ִ
##冢
##岻
##్
##麒
##라
珽
ì
문
##ę
厝
##邡
##シングル
蚡
陴
##재
甪
₳
嘀
##嘀
縝
##描か
倥
寘
覈
##晨
雩
遝
飇
仞
沉
闐
閴
酡
墅
翎
##逕
蝱
匄
##飭
##珉
贐
闈
##桲
紿
殭
陁
##窖
慝
纛
##報じ
##現し
##努
##見よう
顥
##稠
##骶
碪
##誥
澠
麑
衽
##読ま
腆
##筥
##囲気
##旄
##綺
錵
笭
##瀦
㷔
詒
##鐙
##壘
螳
##信濃
聱
丗
##薈
惓
襍
瑇
##燦
##簶
##鶫
藟
罣
##悪い
##燄
蘖
##主人
偊
虯
睚
韙
##妣
##〃
##流行
グス
##みなさ
ゟ
##恪
##鷀
臚
冩
榭
##罫
孛
ム・
氅
##陲
##鼈
澈
瑱
璟
##赫
乕
弃
##ǒ
##叱
έ
##ソヴェ
梼
##云ひ
畱
鉸
奶
慠
##ミッド
掎
ш
ン・
苣
夸
糕
鈇
##？
徭
忱
##琊
##珏
鞨
礱
##ジャズ
♩
戔
驊
⑩
##フィート
##蛋
##入学
##暠
峪
##見せる
灊
##群馬
∗
##ض
##ə
오
마
##하
ལ
פ
##事柄
##ソウル
บ
ป
№
پ
ह
##振る
嚈
##噠
騭
鼂
∘
‌
ck
##구
##ს
##ಾ
囊
珱
##協会
##ћ
##ப
ł
##부
‧
##柘
玘
##역
壩
灶
##장
##山下
陕
 
悃
蕳
卉
鷁
訒
槵
枌
蛺
屐
觥
詬
##かの
簧
##柝
蹕
綛
嫵
踽
##洳
##現れる
##戦っ
##伝わっ
##帑
鄔
駮
鈐
##穡
緌
##濕
##嗤
——
螟
##妍
##イタリア
鉏
鼇
焮
##勧
##殃
##荑
裀
##売る
##眺
韞
彖
醮
##少なく
##銜
帋
##艮
##鑒
纘
陘
##磔
糙
##佐賀
##頤
##ひそ
##たまら
冦
##盌
煢
##楂
輶
##認め
虁
狠
蘩
硲
##変ら
¢
听
##氳
##モチーフ
鱖
瘙
蚰
##舐
##悝
耜
##鮑
袵
##葩
眛
鱲
詡
鰾
##熳
菀
瓛
##瞻
溘
##拱
莿
呰
##コスト
##鞏
殄
潵
##柚
荳
碭
##蟄
##５
##６
鑞
菡
##萏
##コピー
##雎
##或
##貿
##鄰
杷
##釭
蘄
##コーヒー
##分れ
沌
玕
癬
憥
邉
##ِ
श
##ṃ
##비
ㄴ
ㅈ
##치
국
ɾ
##ם
##ḍ
##停車
사
ร
ว
##プラット
##़
麵
영
熲
圳
埈
##ジャンプ
##ɛ
##プログラム
ص
㎢
##‎
溫
ʰ
薰
##札幌
羕
娍
鈺
##奭
##남
##ە
##ध
न
##ذ
##ソビエト
##ญ
✕
嵊
ח
##צ
##$
魹
##회
##ब
##タンパク
##್
##ు
##국
##교
巿
喆
ㆁ
俠
##ヘビー
ம
여
##ピアノ
##ት
鑫
##인
##ジェームズ
##가
ث
##駮
##パフォーマンス
禔
##ـ
潽
浟
頍
##ু
栁
‬
##⊆
##吝
##礴
##葉子
##偬
敧
燵
䰗
詁
堞
曬
壚
畹
傔
罄
##贏
睽
梲
##曰
鵑
剉
譌
##丈夫
##徙
##杲
螯
攩
悛
瞎
噞
##喁
##瓈
盍
橛
##跛
##おぼ
##躡
獦
¼
##じゃあ
テナ
霉
搴
##瘠
弉
厰
陔
緱
婕
##妤
##おっしゃ
##かすか
鏁
##窬
##絏
壔
##箵
佾
黽
𣵀
幃
##ベッド
##頁
##呻
廁
¨
##嬉しい
##咸
##誂
##眺める
##楽しむ
##光っ
##凛
煆
紲
倘
剗
##行こう
饉
餬
侈
##ひっ
鍈
##含ん
##蔞
瘖
##閾
氤
##弛
蠋
##雙
ά
##親しみ
##鋤
絛
##冤
##晢
鞱
貍
謟
##蠱
##鎭
ô
##叶
吮
##辺り
##瑩
莘
蜊
湟
##莩
ク・
##擠
炆
藿
##ㇻ
##つなが
鄣
##笳
##箍
##〇
##卻
幺
嗇
棖
##綵
##８
⅔
##該
羡
𨜟
肸
##エネル
粔
##琪
##穉
奘
##婷
##鎰
##ターミ
迩
##閘
##顆
蚝
荑
##妒
剝
우
##에
ו
##胚
ز
##ṅ
գ
##だらけ
##パネル
ต
ศ
โ
##槓
暕
敎
##신
##ང
##দ
##ブラジル
灞
##∈
##군
대
##پ
##晞
신
##枇
##ẓ
##종
蓨
##ボディ
##ვ
##ར
##レベル
##ロイヤ
##プロデュース
유
##ъ
##க
鏢
나
##ɲ
##チャンピオン
##%
##ヨーロッパ
##哩
##ք
##양
##頫
##്
##ন
乭
∖
세
##ນ
∑
甬
洺
廞
ſ
噦
##挘
篙
圯
##聳
顙
晞
闋
檗
彜
澣
殫
凞
##噎
侔
黏
鏐
罟
##麪
疔
##鬟
##尋ね
媢
衄
##俐
癮
𣏾
靛
蹯
##鳴く
##耜
##おま
##拵
##雹
##愒
##搦
##嫋
睇
##狭い
鶍
餾
潚
贍
鮴
掀
ⅺ
璣
ナルド
巋
蛩
讙
憗
鞁
髞
鯁
##れど
踌
隰
繿
##憾
叭
淒
トリー
劓
抦
##堪ら
皪
いささ
毿
##螻
漑
##クロア
##怛
𩛰
瘣
壠
皁
韲
##漱
##女性
气
##紲
##椽
##いらっしゃ
丫
##けれど
##匆
##最
蝥
懣
蠎
ㇳ
##困
##絎
猯
窅
筩
耡
蘐
坭
##きっと
##瓷
砍
訢
薌
橚
溧
滹
适
羝
嘵
怳
栬
閇
邳
ὶ
##甘い
##のせ
瓷
##ふたり
##ドキュ
歹
栩
鐐
禘
##雍
ὸ
蓇
##葖
貓
ᾶ
臏
佰
鐔
##籹
##爻
##蕾
舉
珩
淯
##├
㔟
捄
メント
姞
褹
##闌
##枡
貙
##孽
洱
##新らしい
##贛
##鰺
权
##天気
##紵
##徭
##鈎
ı
顚
य
醬
菏
ㅅ
##미
##씨
만
ས
ד
⊃
##高速
ג
ל
##ώ
동
ð
##»
##恂
ล
व
珝
##頚
##강
##ས
俰
##アニメ
︰
##ర
ग
க
##ả
##ŏ
ʾ
##："
##島津
棱
##ʒ
འ
연
##アメリカン
͡
##鰓
愔
च
崁
ɸ
த
வ
ミサイ
가
̝
##ር
##ジャケット
##ブログ
##희
##ո
##インディアン
隶
##ị
##র
##ウクライナ
해
##계
##ⵉ
##니
남
鬥
奵
##奚
侁
诉
㝢
仉
柮
沜
筇
##槹
輞
##楷
閙
裊
剏
晢
##閏
湄
俾
愀
矼
##鏘
浹
鮞
鏞
痹
##横町
醃
##大久保
##俥
##短く
##韮
粃
揀
椏
缸
躇
駃
##騠
麕
棓
爍
莪
洎
##芙
瓏
##こしらえ
纈
##扼
##簫
##撚
閶
偓
飃
珮
##冷たい
##いただき
貔
##問う
剴
鰶
##喇
##愛し
##九十
絿
箚
鞫
##◉
廋
鞾
##重い
豔
佻
圻
##無かっ
璠
窼
##むしろ
##考へ
##惻
##頂き
瘍
嫰
##飜
##剳
##天下
辶
##狒
曚
##狡
癘
##悪かっ
糴
饕
##食わ
##梟
桵
耋
筲
鱣
##食べ
##睺
ύ
遄
亻
漪
##ふるえ
##襀
孳
##御前
##聞こえ
砬
##噌
##犢
簳
鰩
##ファースト
櫧
##梳
##舩
##圈
##囑
##孕
廸
槩
摭
汧
##旃
份
##弇
熅
##洽
##悖
蘗
##輓
##嶂
##導い
##釀
玢
ñ
蕓
飆
辦
澶
广
##続ける
##４
##イギリス
##敖
鄠
##琰
##亘
𥇥
綢
譁
##屎
慤
##オースト
痤
##コンテン
##鑄
祆
暝
ⅻ
##琬
滏
鼐
##篩
圦
##さも
徸
##プロデューサー
辧
❸
##綏
##ラテン
##レストラン
猇
##駙
##轅
##謹
##牆
ルド
##下流
##恬
##授け
##リチャード
##アイヌ
媓
崚
ɯ
车
##ⴰ
窴
##°
##경
##트
##ء
##イスラエル
##문
ད
བ
ַ
##ダヤ
##ّ
##յ
##만
##莘
##ゴム
##چ
ข
ช
ด
น
##ハンガリー
##승
ப
##็
##下院
##ख
##ः
巂
##བ
##ན
##ী
▷
產
##철
##ே
##杢
搔
嘏
##უ
##タクシー
원
##ნ
ת
##デジタル
ר
כ
##アニメーション
军
蹔
##을
¹
##ライセンス
##燾
ㅐ
##鉋
𥝱
##大夫
晚
##ÿ
##日本橋
##병
##パフォー
##萇
ß
##アーティスト
##灝
양
##崍
ա
##카
曻
嗶
ズ・
##飡
##일
##|-||
##ɑ
##ซ
##훈
윤
##ি
##プロレス
##ソビエ
ーズ
郟
刘
漯
##↓
##鎔
##્
##­
##徵
##울
##្
业
##້
##준
없
##斫
##ަ
##讼
琢
㮙
壙
洄
剞
##箏
崢
##嶸
##蘚
覔
##袗
屨
髏
憙
詼
筅
##榻
丐
##飄
穠
##胖
泮
翦
髹
蘅
##呼び
腴
劄
##試み
菑
黶
鬃
婺
##銖
##擴
##避け
##胳
騁
蓀
潴
徠
嶝
帘
搉
糓
##ちに
龝
孼
##廚
擄
蝲
##わたる
##筠
卺
##欏
柢
賂
煒
##械
##蓆
##偃
鎺
鍇
##沐
閽
隹
沆
##窻
庪
輳
牾
##偈
##スカイ
瘁
覰
鵆
##獅
鯎
齕
咿
絋
醂
##翟
##鯣
##儛
##禀
凳
萄
##分る
##勢い
嘎
##梖
##銛
阨
埀
##告げ
灾
##いづれ
悱
##貳
鵂
𩵩
鱘
鮐
##巍
##蛎
彘
姆
鯽
櫬
畆
##蹌
觳
ῖ
##驥
##偉い
魃
##わかつ
蜾
##諌
娠
##竭
獷
##勤め
##噐
豉
##膓
慂
##凖
鑣
##たしか
皦
##幘
##蛆
驁
殱
瑄
玷
噱
##鰈
##錡
矇
##扮
浞
洳
ὰ
##稗
##プロレ
餼
##派手
檽
䕃
##餮
厂
讕
琶
壼
惋
徉
##祜
飡
囗
堊
##南海
##繆
蘧
##璿
鱮
##犂
鄤
##蝮
麭
泅
##隗
眭
##嫂
##暹
粱
##嘖
##贇
欻
𧋬
鷂
##雋
𧏛
鞐
##レギュ
##パソ
穭
##ぼん
##アナウンサー
##墻
##テーマ
宬
帨
鈚
豻
麛
##洹
俐
襌
ÿ
珎
##クライナ
##槙
##_
##琶
##廃止
ミング
##제
ʲ
##ُ
ʊ
增
ถ
ม
ย
##ᠠ
##槎
수
##郢
##山口
侂
异
##ུ
##嶌
##च
##ད
##ų
##ে
##ম
吞
##∆
泠
##ག
珖
彥
##塡
婼
##羌
摑
##蠕
##ి
ľ
夂
##ச
##★
##＃
آ
##산
##관
##창
##ットボール
##ტ
媞
薭
##墉
##親子
ţ
##ץ
ط
黟
##ệ
萢
##명
##ன
❤
夛
##彼女
공
##ケーブル
愃
##ֹ
ù
湳
ルフ
瀆
그
ò
##덕
##コンテンツ
##보
##단
##당
##熏
##酛
团
##석
##上陸
մ
银
차
용
攴
##դ
¿
##빈
ক
##왕
䴥
∓
##禱
##杰
##ւ
磺
鄖
##煊
##贅
鞬
##タレント
极
##ầ
ルズ
##រ
##ṛ
##沭
蟳
羋
⟨
郕
ເ
咺
℉
##ާ
审
为
##蒐
##默つ
##欲しい
##瑕
##劂
堠
繅
廛
欸
鮧
牓
嶢
笆
軔
䖟
皤
磻
搨
猝
髦
蜡
覯
##鱸
篚
飭
沴
潙
儻
徊
##喜ん
搓
して
嶧
##あぶ
##┓
騨
鍮
抅
##瞶
哪
碰
氵
楆
蓁
曛
##弭
##眦
##何ん
鈹
ウルト
衵
痃
拽
¾
懍
##稹
蠖
紮
庤
噶
##楝
##耐え
簠
##簋
熳
滃
麸
焠
##囀
##許す
##剔
廝
嘷
笴
##蹂
##鑞
##鬩
##蚯
磈
##厲
##衽
鷟
亹
胙
蟪
##鯵
##蹇
蓚
##虧
##漾
綞
##軆
##穰
##兪
笯
釟
##何処
擐
##姒
幵
##加賀
##おとな
##櫞
##挙げる
##蔬
矻
鰱
詆
##おび
##恍
##許さ
##榛
翀
##わから
##驕
##鶲
##問わ
##奪っ
蹐
##肄
榔
幤
枻
##嬬
蚜
獐
##隼
##鮓
戩
莾
訾
濙
狖
鳬
鞞
麨
鬲
##疣
𪉩
筯
⅓
甓
##霽
##牽
##試合
フィギュ
嶙
柰
##ゎ
##奐
燉
##咏
##鱚
檫
##まア
樝
莧
##終り
寠
##読む
##簟
翥
##淛
熺
笟
唫
𣷓
ろん
##ひね
坫
聆
籜
瓤
##閩
ンズ
裱
##蘖
ὁ
##ξ
##┘
犭
##ドラム
衮
##贍
##洮
##孜
##瓮
匚
蔌
##朏
##贖
##載せ
##榊
錡
乢
觔
##蒂
##食料
##さよう
妼
弍
##芎
輫
姒
##滾
##澗
晙
𤾂
##【
䐿
滛
䢵
ὄ
##超える
鼙
##庚
⑪
豇
驫
酆
##砢
##渤
ㇰ
軹
##ْ
і
ⵜ
伋
##ɔ
ㅌ
바
살
구
##타
좋
ག
##연
∃
##＞
♣
##آ
##肇
塡
##ฒ
ภ
յ
##두
주
##법
##ロボット
ё
##垠
ห
ไ
崤
##শ
##アニメー
##踵
衜
##陂
##珣
##ウルトラ
战
眕
##鞬
##ద
##వ
མ
电
##嵜
غ
侊
##澈
฿
##ေ
##თ
##オリジナル
ར
##범
##მ
##령
##陝
##コンビ
錄
##鵜
##瑫
鄚
##アプリ
उ
级
비
鯯
##ゴルフ
##마
夲
##ミサイ
##塙
##밥
##과
ㅏ
ɴ
栫
##중
새
የ
##ብ
거
##弯
##순
##ショック
垈
##ስ
##萊
ს
綠
##スイス
栻
##タッグ
##ї
##ζ
##ņ
총
东
篮
##ĩ
##ս
龙
##용
צ
##ậ
경
##〱
儿
查
龢
簋
絇
际
##소
##위
⻑
倢
##伃
##ុ
##ី
⊕
##ອ
娛
リウス
ʽ
##환
ダヤ
辖
镇
##랑
转
砳
鱓
##万一
弆
䔵
泚
幞
袤
葅
屣
嶹
蕘
瀵
薷
枰
##昺
##羶
##郵
玦
髫
葳
攤
瘉
##乍
##豎
摻
##奈川
閫
觜
驎
娩
蚨
錙
緜
餲
##啾
紝
##帨
䗹
褲
##綯
鰑
##疔
鰉
殁
𡸴
##戦う
軏
剄
##学び
膄
渗
蛬
ンド
ℵ
帒
硨
很
ッド
##魍
##罷
##澂
倜
##儻
逅
臊
蝘
橦
##纓
涴
羶
擵
犎
##聃
㘞
鰰
くまで
##齧
##妝
鎛
##藺
##←
鰷
##榑
##優れ
##莵
##三吉
##灔
##脉
ヮ
裎
##孺
##黶
##蚌
##ハッキリ
滷
蒡
##崕
徨
嫺
##犧
愡
壳
踔
髴
##嗄
##啄
##鶹
##ふし
昤
##癢
畊
髩
##逑
##フランク
讜
翆
佈
蘘
蕞
莇
偁
澌
##〓
##聞え
靏
爀
絜
櫝
㦣
##蠃
錏
##冐
釼
佉
##豕
苳
##もらう
鵐
##炬
##踠
雎
儷
絓
賍
眊
##食べる
##煚
##勰
謖
𤿎
##虻
鱝
螂
錮
琯
翬
##旺
##并
妒
##事前
秌
##́
ǒ
##ㇳ
ジニア
㝫
##ゆるし
誾
##飲ん
##逼
牻
戢
##渭
鮏
訕
斅
##だらう
娉
##徜
##砌
##わかる
阡
##癸
坼
梣
##フランシスコ
##飲む
##袞
磑
芉
劊
##徃
賖
圞
𦼠
プト
ῦ
##繡
##坐つ
嫐
噇
磤
嬾
脬
瞍
仡
イア
##窠
##木下
##凾
馗
櫳
芊
##蛤
##蛍
##銹
##鮪
巘
##欹
諐
##隻
##豺
##垤
榁
暸
##稾
歃
鄮
##濡
朳
##オーケ
礀
棻
螘
ニング
##冀
##沅
##ボタン
##璜
埭
##少く
殀
##プロセス
##惕
ント
〼
##外国
##うろ
軺
ㇽ
枩
洼
犴
㧡
耬
蚦
##とび
熮
##ך
##ⵓ
##ĭ
##鏞
〈
##메
ㅋ
갑
굴
고
다
說
∼
##愷
##إ
琫
♦
հ
ե
##デザイナー
##瓠
##formula
##ል
щ
ɟ
釭
繦
坵
##嵋
평
##km
别
##ோ
㓛
̯
##ユーザー
노
忯
##鸚
丽
##ེ
茌
##廋
##ং
##য
##গ
⚫
焱
##阯
##ฤ
##ཁ
##バージニア
薁
##コンセプト
##ộ
두
郫
##ண
##घ
鏻
歲
社
##즈
##င
##း
眾
ན
㎎
안
ק
廴
齮
##ྱ
ș
송
##ジャーナリスト
关
軀
##서
礽
##ய
전
艋
##舺
倧
ʼ
亰
##崧
衑
ㅑ
リダ
ㅗ
##豉
##루
##응
##점
##천
尞
##²
##ழ
ㅿ
시
##ು
##ಿ
##オーストリア
扌
##ј
##ዝ
##ራ
홍
肓
餜
##サポート
擊
##㐌
##攷
##ϸ
##भ
##エンディング
##《
‏
##ነ
በ
እ
岵
##노
｀
¡
##დ
##ロサン
중
##ウェブ
弈
攵
##腮
〱
##ấ
##կ
##모
##బ
##న
##방
##ề
佘
į
##ষ
堈
↔
##여
##մ
杨
##ˌ
##ḫ
إ
褧
##게
##드
ムス
歷
##ै
##ङ
閿
对
##ृ
##മ
##网
##∂
제
##ស
ʷ
##讖
최
##∀
惒
擶
##詹
##န
##լ
자
있
포
联
##步
span
财
산
ս
##්
##ි
崀
내
协
##ދ
傉
##ಗ
执
则
柍
##분
##动
∶
晴
##海
##摶
##イデオロギー
##忿
洧
糈
賸
茛
##潢
嬭
呦
##筲
茀
蒓
##菔
##欵
玨
奫
##忻
摟
翛
愨
䘏
爇
賒
##鸝
嗝
泖
##卺
釱
鑱
##俚
簽
籒
##恰
圊
楂
婪
畡
##騁
##┛
孿
蓯
##蝨
##歌い
帉
蒄
ース
##すぐれ
簌
##赴
##行かう
##熱い
唎
##おな
轔
懃
忩
##磲
##喋
##孤独
##鰥
誐
##嚩
##思っ
篗
鶘
##枒
##櫪
##怒り
惛
湲
酙
瘂
襜
##茱
蛄
皃
驂
##玨
撾
浥
##嬉し
𦙾
廨
閟
嫄
苕
駉
獒
##鏤
##秧
##薄く
##畢
瘕
擫
##なさい
##吁
臾
##毮
垤
##とある
##竃
牣
##髫
##誑
##朦
##コロンビア
欬
狺
旡
蒾
疒
##楽しみ
嚀
##琛
鄽
揄
##揶
啐
##催し
##然う
啇
恊
##蜘
諠
##嗔
##姐
¶
麈
歒
ὑ
哇
##蠊
刖
##腴
チス
虗
鐖
靹
鋠
##醋
##移さ
##にて
鸇
抖
##觫
##髻
孖
##摧
〓
櫚
##マルクス
##光る
##蝪
暱
梆
##まする
鯥
##ハワイ
赩
𤞵
幘
鴃
賻
##ちゃんと
嚬
慬
##尸
弶
##脱い
##憇
娌
##酥
洹
鼉
綃
𤄃
##はげ
##遐
迤
蘼
##曠
綆
鱁
##鮧
涶
##慟
##少女
杅
剕
##遝
骼
鶵
莄
慼
##唔
嚙
##峋
穪
##躝
##爨
鰔
й
鉐
蜇
价
蓏
𡁱
##肚
幫
##西洋
剮
瘵
祊
寀
##姨
舼
漓
捬
##獎
##硅
鄹
##諶
ώ
荽
##飢
嶸
栭
隍
##峪
ὴ
ϑ
ἄ
酳
哱
瀹
磕
##蛻
##槁
瞢
茁
##若し
襃
缾
##刎
遖
硎
茆
##ズボン
##澣
媱
ce
##囿
##センチ
嘿
它
##悒
##挌
##諤
骭
琚
##鷦
蓓
鍰
吧
睟
##潦
茟
郄
##［
##凡そ
##蜙
##＜
甤
椄
竸
燋
##何時
##親父
罾
瀁
蓖
魥
𪤕
趕
泔
伷
##适
掚
笧
𫂙
靷
##凌
樴
##濮
##併せ
箬
塌
##涓
罡
⑫
⑬
磷
睼
挲
䓶
跖
鴒
##ㇱ
##辦
##ウィリアム
##璅
詵
㐧
灵
粡
稃
昞
##気配
##朸
˔
朖
##巽
##ⴳ
##ⴷ
##脾
##やや
簎
ㅊ
ㄲ
삼
넉
ㅀ
##코
##러
嗢
喻
##합
ħ
छ
ὀ
♢
ǰ
گ
ˆ
##∞
ʌ
կ
##綰
##イエス
##ɟ
ъ
＾
ฆ
ณ
ธ
ฟ
##ใ
蘢
嵆
ண
##མ
##吶
##圻
鯏
##པ
##澠
ব
##়
醱
##ব
##ལ
憕
ة
##ɨ
##糲
駰
淩
堨
农
##亟
황
俔
##།
禖
##ơ
##dvd
##荃
辽

ǁ
##麵
ʹ
桒
##クリスマス
##ც
##ხ
梻
##색
##ბ
진
##フィンランド
ディング
##ֶ
旼
##འ
##참
ț
̂
##水上
义
间
磡
έ
##喆
淶
ಶ
##ೀ
ಕ
##ಷ
##ಣ
##ಯ
ర
┳
##ロゴ
육
＂
##‐
##ビッグ
장
##ḻ
##訢
##嫩
##伶
##愿
ㅡ
ㆆ
鉚
야
히
⊗
##楽部
##ֵ
와
##內
宀
ɐ
̃
ந
曮
##ூ
##】
❳
馱
##ை
棼
##ׁ
垙
렬
##오
狀
崞
塬
##ạ
∵
##联
##ግ
##ች
ለ
##ና
은
ュー
қ
亚
长
盩
##厔
刕
##嵎
##チャールズ
##仝
생
鈀
##ọ
彑
褙
##프
라
##크
殳
మ
##ూ
匸
ɫ
樑
##ठ
##ヘリコプター
妮
ɨ
##扎
##를
##スウェーデン
##木造
ম
##ồ
玝
晫
민
溏
##テニス
瘦
赵
##鄂
汛
沘
더
##락
##것
红
ʁ
撝
##ũ
##생
스
杤
##東南
パッケ
##ポーランド
##술
霨
师
獬
陈
##オーストラリア
##ฎ
##霸
##龢
##음
岛
帾
⁻
##무
##ા
##야
##ത
孙
报
爱
##尔
⾯
##≥
聃
ć
##劭
##थ
汇
##ង
##ា
##ត
##ผ
간
##윤
프
##복
##익
㐂
##언
##❤
##赛
##ļ
##磊
ネマ
##ɣ
╋
달
动
##哆
##ď
##백
##າ
##ါ
##ု
穨
무
##득
珺
两
##형
상
##광
##ớ
##슨
##ာ
挵
##න
##ම
##∗
##͈
##ँ
##蹼
호
##ް
##ނ
##ެ
锦
##标
檦
緹
##헌
의
##말
##새
న
너
##ը
##։
##ә
##ಜ
##产
##カリフォルニア
##ន
##유
##ⵣ
##പ
肫
郪
偰
ȳ
⟩
##디
착
欢
##勻
##ຊ
䔥
蛉
菹
搶
侄
崐
##矚
蕑
㯉
鏜
槞
##霏
塏
爕
卌
哢
瑫
簦
##畦
𣑊
##煦
轝
芾
##翎
##蕤
坻
朞
糍
##糕
硜
獪
##挈
##暾
酲
殮
楛
梫
虀
##訾
┏
┗
爝
靶
鯢
騊
##駼
姣
驄
蔔
烤
糂
畎
𡽶
齁
##叺
魦
刧
##鰤
蟯
琊
##荳
##蔲
擤
嚩
酊
銍
刓
禑
嬈
##醯
##坩
㾱
儵
猬
笳
##拯
鋋
艏
##殂
𨗉
##よろこ
##騖
##機関
軆
蘞
##呉れ
##聿
##解ら
𩜙
儡
##鑢
秥
##かわい
##狃
洫
稭
磠
瘃
佔
##荊
帑
彴
##无
##按
##倔
##兢
##戞
##避ける
矒
𩻩
##岏
贜
##すば
鮃
鴞
##甌
汭
##韲
寖
菪
翮
##可笑
惮
麬
瓲
##擻
##陞
灔
嗒
##きか
袪
畛
眙
熕
詿
酖
##達し
搥
蝄
縻
魎
##𢌞
鋺
釃
哬
淆
孒
##冦
𢪸
##磑
##綫
炻
##葢
臝
##疳
##包ま
##ソヴェト
##鞣
##蹶
𤊹
瑒
炤
##耼
蚓
佽
嗉
樉
橞
犖
##袁
砉
縶
紉
噀
颼
璵
##詖
##縟
詎
遘
㴶
倛
狌
咤
玃
騂
##いざ
##你
羵
鱩
窂
綈
迠
##葎
秬
##碯
##滙
##隤
##勾
冡
ὐ
ἔ
萸
栰
桮
##驚い
##書い
##慝
##蒿
驆
##抦
拌
##小学
##癯
##篏
##栱
##動か
##うれしい
##羣
繾
蘯
荔
鬯
𡀗
蔲
歧
縐
澘
娚
綳
媵
掇
##膾
##堕
鱛
##池田
##滊
鮾
##眈
##おまえ
襅
##犖
##衄
鮀
奡
##勿
醯
##刧
##桛
韭
茖
##蔚
菉
㮈
衎
##磚
藧
𣑥
梠
慲
黼
##黻
穡
##ϑ
ὅ
ῆ
##ϵ
輗
ード
##嚔
坨
纚
圩
##幔
轘
##頑
蠃
嚕
##茘
##ψ
##鬯
牯
ῶ
ἕ
摳
##蜷
##嶢
##姚
##殍
鍎
##榎
##駸
髺
##爬
##椰
##槧
##蔌
##聰
鍫
洦
##ユダヤ
##阱
##蓴
枵
##図る
##氐
畯
螮
悕
##蹲
##メキシ
##伝わる
㟐
##耦
槶
##萢
柃
拑
撐
##抓
##頴
逑
ἑ
##驚く
峅
##汪
##欣
❹
瓿
寉
##拍子
睪
##浮い
嬙
##アパート
##妥
蜋
臁
璨
##熈
##歌っ
倀
##謎
缻
樛
撑
斳
𢇇
黫
##黫
##潸
廰
躅
##ニューヨーク
𨿸
焃
⑭
痀
##畤
娧
鱺
傱
唉
弣
櫁
舢
##舨
𧮾
蠲
儃
矠
##槩
##惡い
##皎
丏
猓
##玀
吨
杈
##なされ
鮗
魳
晰
鈦
##椇
##弖
妋
坳
矹
##歌う
㘅
釛
##忱
玀
愾
̈
∋
ⵏ
##ⵏ
##ⵙ
鉃
##함
苴
ά
ㄺ
ㄼ
ㅁ
ㅍ
옷
##께
ㄳ
ㅄ
ㄶ
지
많
굻
俀
##アプリケーション
戶
⊇
##粢
##終わり
◾
〠
일
㍍
ɖ
##ǰ
ˋ
髎
ը
վ
ւ
ձ
ն
埣
鍱
##唎
ě
##체
掫
##ተ
佬
阳
ง
ซ
ฝ
##スピード
##•
##〉
##≦
ーター
##オランダ
ă
##ள
ʀ
ए
嗩
仚
##ཆ
髁
##イメージ
##业
##蛹
##嚭
##≠
∆
##ত
##ฬ
翽
垍
卆
逯
忒
머
ŝ
##欧州
勐
##ཞ
ティング
⇆
皞
##宁
##ہ
##▲
緣
##驒
##腓
埇
##ṯ
##］
##글
##ۋ
ی
##ပ
##ွ
მ
베
선
##흥
##ფ
리
##アマチュア
##パッケージ
 
##洄
ཚ
##년
õ
㊙
务
员
监
‶
##¹
##ೃ
ದ
##ವ
##ే
##య
##ピストル
仟
##`
焯
竒
时
‒
##ɾ
##毋
##ポルトガル
綎
瑝
ㅔ
##효
アニア
##려
卽
礻
渊
##ファンタジー
##短期
盦
ㅜ
꼭
↗
ㅛ
##행
##シナリオ
婧
##エジプト
彡
으
##ೆ
##ಕ
##ಪ
##ಸ
허
￫
##笵
ő
##ያ
ý
##中山
ica
ָ
##庾
埗
률
열
##차
님
##行なっ
每
欉
า
伟
榨
##ல
##⋯
##ɒ
ህ
##ህ
##ኩ
##ቅ
ባ
መ
##ረ
##ለ
አ
##彡
##급
㋮
圷
##살
荖
##ქ
##ற
후
涉
석
##포
##터
##ắ
繡
禱
ﺣ
梅
烔
##տ
##トレーニング
ř
ὺ
##길
저
##梦
##హ
##癭
દ
અ
##ई
##パターン
희
##营
线
シントン
啤
䂮
豲
ック
##래
##람
##バラエ
##గ
മ
##ു
##ര
##ി
垳
##청
##ボーカル
俁
冾
≅
塨
启
##アナウン
##潼
##반
➡
##ղ
椵
##छ
韩
##梭
ז
##．
∝
##ǝ
러
##초
천
##ɪ
屓
憨
##ℓ
鄕
珀
尔
膅
샤
##屘
ﬁ
宧
##啞
ध
##军
ત
##淇
沇
통
榪
##たった
远
##ử
卲
##ಮ
##식
轑
##&
鵤
##ર
##괴
##담
##ാ
选
兰
张
도
##둑
㚟
虨
위
##º
##ప
##క
ẓ
ក
懂
##ボーナス
##战
问
ल
##ট
祔
窋
##ű
##〵
##珈
금
##发
❬
❭
##斌
##່
##ŵ
̩
达
廮
旿
⇄
璹
勔
场
傂
건
##⟩
鄀
##齕
##ຂ
##ຍ
##က
##ဆ
##개
歂
銙
盉
ა
##კ
##頒
##インドネシア
##张
##窗
椌
##속
북
##兗
태
##각
ɕ
备
##හ
终
##~
##등
˘
##璝
부
琕
竴
##ụ
##녀
##거
##ⵔ
##ީ
##ި
##ރ
##ހ
##耋
㚻
##물
鈁
够
昰
권
꽃
卢
완
##짓
##억
##른
##վ
լ
##ಟ
##ం
勰
##네
##목
##フィリピン
##达
调
强
规
资
##វ
##ម
##근
류
户
经
##笙
##マイナー
崴
絕
##ウルト
##ⵢ
##ⵍ
##仨
尟
禋
瘸
鄾
緖
̸
𠮭
##讯
邔
##သ
ນ
##ۇ
##謚
駚
蠨
脗
霤
溱
𣫔
琤
卭
##檐
餻
祲
##氛
褭
塍
##蕖
鸂
##誰
##躋
獘
懟
膴
虖
巠
僄
髐
秪
薾
瘳
肪
眎
悤
歉
酴
迻
稛
##凞
##齓
醐
隳
##汭
##歉
##柬
##今年
##硜
晛
葒
螙
##醨
廕
##仍
怔
##忡
儇
匜
##悚
##蓰
趦
##趄
鈆
##祈
踖
蛗
##螽
桅
##欬
闚
笮
蛁
##蟟
捶
鯪
杻
##騱
矦
秫
駏
##驉
厴
刔
骯
##髒
##廛
嗎
窑
##怎
##偕
㮶
䠖
##廿
轜
徬
##簍
鞢
溂
##なんて
跏
搐
硃
韆
璫
##唵
##癈
諼
湑
悾
エット
䇳
鎩
猳
墊
猧
鍤
##訖
梌
鍑
鷯
##窘
蚖
##ござる
##芨
##諄
##璣
䈥
##さらに
##觝
##籀
##佃
邶
##棣
坰
羃
騃
##坷
瘭
##おもし
テイン
槹
怩
黧
魣
囅
##莎
##譃
钁
衅
##跰
##図っ
鬖
##夫人
絺
嗡
㗲
喲
倰
##僜
蕕
檪
##襤
䦧
牿
絀
紱
夬
昜
ッケ
煗
##帙
##翮
##莨
揩
蠁
##聒
龠
櫔
滙
籧
##篨
##碟
##選ぶ
##迚
塚
##鬮
##薄い
巑
##怒っ
##あんな
囷
##なかなか
痎
##〕
瑲
蟵
##輾
蔴
##なくっ
ッサ
躶
##侫
##彘
悞
腠
枲
鴕
瘀
鷴
ἡ
髟
砭
櫲
##樟
##鮠
鍠
鯸
##煽
##癆
怍
雝
觝
##乖
ㇼ
桌
##あろう
螣
眳
##蟠
##ひそめ
##含ま
㸅
瞟
豭
嬝
頵
##炯
##捩
㟛
##桙
婾
紕
𪂬
舲
牁
##豐
##跟
嚚
胊
##蟵
繵
##淙
鈢
笇
##傾け
潡
芫
##燿
蚿
黿
蜴
跎
臬
苆
喿
慦
岠
惢
##捏
勑
箠
彀
礟
矟
詖
##豈
##廖
覦
猢
##猻
蜼
嗛
猱
##顙
姟
騮
禛
##賭
迕
蝹
媦
##いゝ
##思う
##蔟
##鱠
##＠
𡺸
焰
毉
靬
嵒
纊
螅
綘
矪
氳
##歛
##棬
𨶑
##皚
##聴く
嶒
##乍ら
蚢
##鹹
朿
##錚
罝
戽
##譏
蜣
毡
##砿
闉
荇
榷
蹻
##話し
##夤
耟
##萠
杇
##躊
##政府
躒
飱
喁
##蔕
##褂
埵
##矜
##踰
苽
##苴
曆
櫽
黷
聵
綣
偎
##孛
##媾
癭
掊
窳
##饋
##ボストン
##サンフランシスコ
##┯
##┷
擷
紒
##緜
##頎
丨
##梵
##嘶
玅
蜙
ンス
耑
媿
莝
##餒
冎
膛
胔
韂
猰
##㺄
##しまふ
##慴
趍
瓺
綮
##そりゃ
𫝼
ップ
桄
##岌
翃
僎
ὡ
𢈘
䴡
疂
藋
##亳
秔
孋
##暼
藊
栟
鸎
蘡
##薁
籮
孁
ⓑ
蚪
灃
䬻
𫠘
ἶ
ϵ
頎
##武者
洿
喈
##詭
蚱
圄
趄
##逡
眵
##筇
屩
庿
##醪
盼
悰
貺
##苦しめ
##昊
譖
畀
##１
##忩
睲
##蟾
##淖
躔
靮
靦
确
榼
繸
##稍
##暄
褸
##矮
擕
##久し
##待つ
雚
彿
謇
##ㇹ
𨫤
摛
##┐
鯘
蘝
裰
##笈
𠼫
离
##鈐
疴
𠺕
##冗
㹠
葊
臗
迱
鶬
##鶊
##挑
縧
##ㇲ
ーム
↘
┣
##成る
##鐡
㿺
罏
##摻
##羆
ッツ
##罸
憯
遬
##蠢
##煗
𨇤
蛦
𠹭
##仿
##鉗
##懈
##吃
##撕
脞
匳
棃
嵶
##なぜ
罇
繝
瓱
踄
𡄳
##嗹
窿
##戡
玈
##蚋
捂
𧿹
僩
漶
姧
涔
俅
汋
醁
##なれる
簁
##嚅
雱
##驂
乀
##敗れ
##怏
韉
鋹
堭
旂
##庭園
##檮
虒
哽
ῷ
##窺
##いくら
##吩
##痔
萁
##騮
蘓
##敝
欖
卝
朒
毧
扴
觱
⑮
⑯
⑰
⑱
鶡
##嫣
##藜
嫮
姈
⁇
㕞
謊
黮
𥉌
弽
##緡
崪
璀
櫱
䖝
##騃
叵
尢
齬
駔
##儈
鴝
##鵒
##鵯
##招か
##しかし
餕
穵
蟶
##ください
##◇
咜
##毱
##曩
##磈
岧
##蟜
漰
##莧
熢
##鶉
##つゞ
羑
媟
樷
𨣉
蝼
疷
𨋳
觧
𨫃
##頼む
##拇
饘
撅
苡
##拆
晻
##濬
##坶
##批
瑘
菷
怗
𡉕
𧵅
凵
榺
鵶
娬
昫
胛
##ㇺ
蔞
𠽰
蕷
魞
袮
##挨
##氎
##ḵ
垰
방
泙
##ⴻ
##禾
芎
丄
菇
〉
##쳐
코
언
ㄻ
ㄿ
ㅆ
밭
##테
밖
ㄾ
넓
널
##따
##버
삶
##ㅆ
넋
값
⌀
##ֿ
##僔
僔
##ˠ
##본
##♠
##♡
##♣
##♢
‹
›
竰
釤
##ḙ
##⏨
ⓣ
叻
菼
煇
ի
ք
ց
##畴
목
货
ḇ
##ḇ
↵
鹏
嵕
ʦ
ฉ
ฌ
ญ
ฎ
ฏ
ฐ
ฑ
ฒ
ผ
ษ
ฬ
ฮ
##ᠯ
晪
㭽
##獏
稅
袰
眜
鄗
ĕ
炘
廾
您
##엽
##ெ
##ཕ
⊥
##灃
##ɦ
ї
ј
আ
##鵟
##薺
营
润
㕎
##馺
飠
##󠄁
⽰
⺭
󠄀
庱
জ
দ
##膣
##沪
##⚫
##辧
紞
熜
獫
##狁
##薨
脰
峒
##북
##슴
병
##ỳ
捔
茈
☓
##☓
గ
##ో
##吞
옥
##저
薉
㌧
##リニュー
학
₨
##视
鱇
##綢
##ㇿ
##밭
ئ
##エピソード
##鰆
ḫ
廌
蓜
##茜
##ヴァイオリン
崆
##峒
##神
神
湔
##壩
鈩
颜
ھ
တ
##ထ
ཝ
ཨ
ཧ
ང
##ʼ
##インタビュー
ქ
დ
##열
##력
날
##표
##丙
##ナンバー
⋆
##ึ
̀
瑀
琙
ֱ
##־
נ
暻
ʕ
##乂
##◎
##ྩ
능
##처
旵
蟬
##फ
𩸽
##腟
##务
构
总
ή
濉
罒
勹
##パーソナ
靖
찾
##ೇ
##ీ
##ృ
##ష
##ణ
##ஷ
##さつき
##屛
鉥
##飲食
ֵ
煊
☿
##沘
백
练
##习
鸖
##侑
##÷
##๊
่
้
柤
ㅖ
ŏ
##マイク
囻
##ベンチ
##瀨
ғ
幷
㟢
ǧ
티
##淹
복
##빱
##김
嫥
फ
##ौ
ㅒ
ㅕ
ㅠ
##햏
##핻
˩
圣
##夭
乣
##ủ
##揀
鱼
##司令
敒
û
ĩ
##踢
綗
ë
##臧
##娀
충
##규
ʧ
鯿
昻
##ʊ
##̯
##벌
요
윽
읃
까
각
깍
ವ
##ಲ
##ಂ
##ಳ
##ೂ
畴
##❲
❲
##ミュージカル
ḳ
ச
##いちばん
##ሮ
##ሞ
##ክ
##ዊ
ድ
##ஞ
##예
ld
##芿
##m/
亿
ㅚ
ㄸ
율
임
워
##ㄹ
니
魋
昳
ḍ
☉
戝
##션
浠
##ờ
旉
綋
饃
##饃
##黔
##ǽ
ኢ
##ዮ
##ጵ
ፀ
##ቶ
##ባ
##ሰ
##ላ
##ም
##ፍ
##ቦ
ነ
##ድ
ያ
##ሻ
##ኖ
##ሪ
##ፈ
##ጥ
##키
초
##㋮
##플
ཞ
메
##달
##紆
##②
ე
გ
##ドラフト
ҳ
錕
##활
##ディーゼル
몰
##레
鉆
ヌス
蔘
娇
आ
##գ
##զ
嘓
ό
姤
ҧ
ҩ
##ジャンル
♮
㈲
銳
ӡ
哔
##キャッチ
ӝ
##љ
ט
##택
అ
亠
##મ
##ન
##ે
##ી
运
##倻
ӯ
##リリース
ŕ
鐧
카
瑍
ň
 
罗
碟
鰂
ذ
##スコットランド
##ヒット
##鶿
##ங
##ങ
##廆
##熬
̣
##ক
##パーソナリティ
##メッセ
☮
龑
靍
鄡
##鈺
##맹
##鰲
##亚
论
##뽕
勷
##windows
鋕
僙
秊
蔿
玹
##别
媖
≃
##≌
≢
腌
##龗
¤
##屭
枦
濩
##қ
陦
##պ
##թ
##拿
##軀
심
玥
ĳ
##蓂
鉇
畬
晓
譩
##운
郜
##ファッション
##∼
絙
傈
##僳
皕
啦
철
낫
붓
##팔
许
倬
ⵉ
视
피
璈
栒
隃
##麋
✳
颐
璥
##웅
##혜
##๋
鮁
观
책
치
흥
##더
##祖父
ـ
リティ
월
##월
棐
愰
榆
惤
𝔉
諲
脘
暨
ક
##ષ
જ
##ત
##페
##豸
嵫
অ
##ঙ
##いえる
##筝
榘
##嘩
##ポンド
粵
##拼
##篝
鴜
##セルビア
관
##ฐ
##アクセス
##ự
##ứ
レッジ
煅
鎊
摋
##ў
ิ
ⁿ
队
##粤
##ユーロ
##匀
##メジャー
##ന
##ദ
##곤
##ً
##≤
ड
స
汊
##ប
击
##题
ស
##ិ
##័
ফ
범
璢
ὔ
‍
䴚
睴
⼼
⽤
俞
미
눈
##별
##커
젊
##젝
인
##ㆍ
##애
겨
溠
术
籥
##봉
霫
##テキサス
##ັ
##ດ
尙
蠘
ู
##バイパス
悅
##ǘ
璦
##琿
##オープニング
##୍
##ଲ
##ର
##アイドル
##＾
##জ
##ৰ
軣
圪
##坨
慜
鄫
##很
##インターネット
犕
犨
##ဲ
အ
##့
##ခ
체
##육
桥
栘
艜
ት
##デンマーク
##‪
##늘
개
䙥
##건
##으
风
✝
飞
##鴞
속
##锡
##スポンサー
##ჭ
##ؤ
历
湞
栱
##ノルウェー
##刕
烺
釡
##擄
형
##トヨタ
緃
书
##电
##세
档
##壡
삭
십
झ
##집
##ɫ
##ɴ
##英語
애
冂
灨
##ං
##ර
##ා
鉀
脑
ṓ
ɢ
ஐ
↦
徯
##§
소
헬
##‬
귀
##투
##볼
##변
##축
##隊長
판
##촌
㎛
##围
进
환
ⴰ
광
އ
ޚ
##ޖ
ރ
##嘔
迵
话
##হ
巛
⁵
##ྤ
ール
##詵
釒
##アイテム
훤
창
セプト
##∑
梺
yst
##ಚ
匤
ס
复
ʉ
齾
##란
푸
##հ
է
玟
ர
식
蜱
బ
##린
골
키
##ಡ
##풍
검
##데
함
추
##ᓀ
##规
##结
简
认
##ં
##⊈
র
橳
##〳
ਕ
##ਲ
##ਾ
樁
မ
इ
⋅
##权
케
##숙
妘
손
##암
##간
鰪
##プレミア
##론
##ǚ
棵
##ྫ
##醬
腾
##ⵜ
왕
##율
卨
##アルゼン
##면
##ె
##막
청
𪉖
##ച
##ұ
￼
##ӄ
##불
瞫
큰
##브
圡
##購
攖
ą
ę
ė
ų
ㇹ
현
##风
##济
ɱ
##荅
##レンタル
##빌
##洁
计
글
柗
##ো
##遒
ᵻ
##칸
##완
##ź
薳
埱


##劉
##刑事
賕
姸
养
##跂
虛
遴
乒
𤭯
ກ
##ຳ
##ື
##ຽ
##ɱ
##新聞
媆
##渙
##蕳
##茝
厜
##㕒
𡵧
##𡵧
濈
##濈
闤
摏
矸
艎
醅
痡
##鶒
鶗
##鴂
瀼
緗
楦
##殤
##纔
醲
鷖
##陪
瓟
##磎
##喃
蟫
##插
傞
##釄
旰
癉
嚲
壈
塤
##箎
𩅰
祱
𤗉
熇
迓
瓴
##撩
##娯
##嬈
篛
酹
刜
譍
顇
賵
菝
##葜
㕮
𩋡
韑
##帔
槄
楰
櫰
𪽶
齯
鍗
隖
蠙
##菀
擋
㗅
##徘
##何に
##〼
##啅
揵
騱
翑
踦
馵
驑
黈
𢤱
悷
𩗖
##嘷
驉
##辿
##跼
𪥶
##たくさん
##そして
##粏
楲
##轜
##とても
鱞
癃
㳽
𪶦
##濺
憟
##鉏
頫
##ちと
##ブルジョア
##蘯
##颶
懚
樿
憒
##鞦
##璫
儗
邌
搯
##儞
禴
##親爺
懆
##慥
磌
##鷂
##はなは
##牕
##踶
嵇
##萋
##分っ
蔎
荈
檟
毾
##㲪
罘
##罳
##甄
撇
##聴い
##鯢
𪘂
##誶
撙
餳
縠
##頂上
艅
椃
鄘
##泆
泆
##瀁
鋌
咈
淌
##ㇴ
##熖
飂
谽
##谺
##そんな
##発行
##匍
跉
##からだ
##狢
蚘
##かえって
##炸
##奄
郈
蓧
韔
𤗼
𤔩
箛
##柾
帟
檎
壗
##畬
嗑
頄
##錣
㹅
##貊
㲓
㊀
㊁
㊂
淂
蓰
檥
茭
##粽
##窈
唁
逸
巤
##懶
薼
叚
##獷
##譁
##↑
絏
##瀣
縗
𨍏
##嚏
##瘧
瘇
𡰷
##瘵
##眥
螓
憘
耊
芣
##苢
##鴛
##脅
爿
##被告
##湫
儹
咷
𥿻
麣
麏
鸅
##鸆
鷀
##痹
嫪
##毐
妗
窹
##忸
##泪
##彷
##蜿
ックリ
##悰
##罹
胳
妤
艗
篔
麎
##醼
##譖
癱
##瘓
##惔
㩅
儤
##恟
𧜎
𧞃
噙
𡥅
麌
滻
##軫
癤
豰
㾾
##猂
##思ふ
痬
鸒
##ちっとも
陡
畾
惂
餧
尩
躚
𬵩
㋜
##頷
##憔
揅
碔
##砆
喼
##喼
㩮
𤹪
鵇
鏇
杠
鷉
##彼方
唳
蹺
舨
醶
袺
鸊
##戕
柜
##楉
傒
##耟
##おめえ
蔊
##成つ
##俺
##薀
燩
盰
㿠
##どうぞ
##逗
猙
##獰
牃
蟭
##螟
㐌
婇
嗋
矰
菵
##鼉
##印度
罥
蚑
裼
蜐
##虵
##溼
洴
䱉
##䳇
蚣
𠗕
##鰊
篐
##雕
沕
鶽
錂
楧
桱
𣟗
湜
皡
幙
##攉
㷲
寗
蹀
熥
熞
𠧩
猋
泐
讟
##惘
寱
##璠
鞶
瀠
鯈
##詬
##孰
稌
𤧫
豦
獑
𪕱
貐
獱
##会員
##認める
槀
𩪼
榱
菻
##綟
##翆
餮
##饕
##させる
撕
##砭
裛
𧍑
稊
䟜
榠
##鯊
##如く
##鱷
##踝
宄
齝
蠆
𣜌
##譌
##嘎
栝
##殷
##巉
##さぞ
穅
##秕
##悋
灩
##昴
紓
##矻
涘
##斟
##頮
槳
盽
靂
𡃤
𩵝
##匂い
##なんか
##毳
疪
##¾
蹷
耎
##雖
##鶚
㤉
㠝
抾
##イデオロ
##ずいぶん
##陌
##蠧
𤎅
囫
##圇
儱
##侗
蛀
疢
炁
##溽
𤸇
黅
喍
##𡀗
##｝
鴣
┠
┨
##緝
籩
蟣
楺
##瀰
𤭖
呃
佺
梏
𧦅
##㷔
𣏓
葰
顖
餔
倮
抇
偫
槥
##櫝
㢧
娨
綁
羓
殣
搤
殍
韡
壂
獍
玭
捽
籲
粦
##痂
⊠
㋡
殕
忬
迍
##邅
纆
錑
##答える
芡
酤
貎
##匌
##有する
##やがる
##幸い
##刁
騧
赱
睺
蠐
##螬
䟽
疉
##禝
##觥
𨳯
蒚
##裊
茺
愓
麄
##飱
蒂
##鴿
瑙
靆
頳
##きこえ
呕
##┏
##┗
ἴ
耰
喭
匵
簃
祧
耂
##刖
##毆
##鷸
𦰌
##蕀
##颺
𥕐
##箝
##茁
##迢
𩳦
絰
鑕
罍
##專
籑
𢎥
𫟏
##庠
##鬖
跚
##漲
##燠
瞤
砢
隩
##竅
##盼
##尅
##裴
##抳
鰛
##反し
瞚
嚨
跬
ὖ
芼
𥶡
偪
##襯
咼
##詆
##麾
##嬖
礜
恾
##½
阼
狊
攜
##硃
襾
##酣
𤦭
崒
竕
蜛
鷧
##倞
摎
##墮
##橰
㯙
忡
𡘞
攉
##裨
埸
曈
##鷙
斕
嗆
箯
##迸
𪸵
聻
𩕳
靼
褝
衊
𣏕
脝
##2010
緂
##あした
##汒
𩍈
髗
膌
##岣
峛
諗
抮
##堞
蹩
##躄
𨀥
跙
##癃
##嘻
䶉
伹
##蜢
摽
堓
昿
##軼
##棃
##惆
柀
臰
飩
##悄
蹚
##楹
##蛩
┛
##縉
##蝀
䬒
##大人
##怜
脧
塜
##よほど
##懵
##竢
焄
##僵
##貎
唅
裑
##┴
狟
峚
##酡
##漚
璡
##茆
##掣
##曷
##ごとき
𦞈
崥
𡨥
䯻
鶊
哃
##蕕
##頼ま
##掲げ
##讒
𧲸
遨
犿
絍
撏
##事物
茰
##思つ
##掏
##瘃
##搽
霡
##霂
亖
##厠
𨈭
𫙠
崫
沚
槴
枙
䌤
龞
##飆
軃
##擡
婔
舄
##陛
##呑ん
蕀
旴
銼
嘹
##鞺
倻
𥱌
##萼
掦
##倨
##こゝ
##搐
##蟷
阬
##申さ
𠵅
##唏
耵
##聹
##癰
##楮
扆
帀
嵂
##みたい
##簗
𫑿
嘛
##廡
##喞
帔
##噦
##婭
##迥
##いささ
##あなた
𤥭
䟦
##ほとんど
##吐い
鵷
蛪
𪏆
嫏
弨
轒
##轀
胈
##蹻
##脞
##窣
##隕
嶐
##褙
縬
蒅
纃
癧
##鼕
攢
##ニッポン
##裼
蔟
檑
##まるで
澥
籊
丱
芿
切
餛
婲
犱
衠
##樊
膧
㋚
忞
からう
魵
##餃
𡻋
坷
蕖
瞧
𩬡
##揆
喏
俴
楘
輈
##鋈
##笰
鞹
##鞃
𢥫
##かねて
𢴇
##殯
𥑎
##寤
##檝
頯
㖭
𥦽
鷼
齆
甝
##䏰
㹀
讋
檡
䖘
##最後
痆
忓
鷇
䙜
剚
##懾
ὗ
ὂ
妸
##思は
颿
ⓒ
ⓓ
##篷
##娓
##諏
崿
帊
𩋠
鵼
##睿
##弃
穊
##㝵
膐
笶
𡚁
##湄
睌
##ほの
榿
橎
酺
蔤
芰
畮
箹
萆
##薢
浡
##橄
##蒴
##藶
##芷
##夔
##見ろ
##趁
莩
斲
殛
##萵
鱐
稑
##ごらん
##豌
捿
##襁
擥
蜎
怵
飧
齠
##齔
##睒
𥻘
韌
鶤
##齰
𠹤
焌
皛
愺
㩳
漐
颰
膁
袼
##憹
𠠇
粼
綷
懕
噋
鴑
鱵
鯑
卹
𭽸
鞸
唔
䇿
鐲
晈
𦬇
趫
##璨
蟼
##蠈
##鈦
##韛
##銕
##木村
蓂
##聨
憋
##懯
##汙
媲
##遶
脽
##礱
##佪
泬
##怗
##饀
𫾻
##用いる
𩺊
淬
捆
𦄂
##濾
##簸
##せめて
滆
##聞える
##撤
唧
㔇
##やっぱり
蜬
釯
雘
䒾
塟
##施し
歘
##笋
汒
脖
##縹
𠺗
##剽
##あず
𣅡
ョー
##わたっ
愎
睎
亓
𤠫
##吨
##駢
硉
嶻
##㠔
##湱
岝
##崿
𥔀
𩖼
颬
##漰
##縺
蝤
##蠐
𠼅
##墩
⅛
渧
𪌈
畋
##和歌
##蠍
##壼
牚
鶿
##傯
##呱
##はいる
桕
##种
𩚚
貅
旙
㑃
##牡丹
⑲
⑳
㉑
㉒
襻
竆
##含む
𠈓
𫝂
涷
##在り
囱
𠘐
䨮
剘
㰏
##紱
𩸀
釞
藳
##嘈
朙
㧓
緉
襽
𢮦
熯
甿
##鼂
桍
湼
椁
𨔆
##螿
𤶛
蛢
𧕇
##鉸
轤
##願い
𢙾
㊒
##翌
忮
##僩
𦥯
弰
噠
屼
逎
##瞑
蝯
踑
咐
𫃠
鴂
滮
乁
##跙
##いへ
##抒
孅
欤
楅
琹
##逃げる
榀
餈
饍
##ちょっと
##あらゆる
惸
𧤽
葙
渹
砡
##永い
胾
##子孫
##酲
墋
菐
蛘
堇
閡
##かなら
##豢
##ベートーヴェン
惞
撢
##榧
閠
攊
螠
跈
胠
##懆
鵈
##忠実
𦮯
墎
龓
跰
##䤲
挪
眂
鞌
螞
飀
蝓
謭
##剪
唶
𥳽
缼
漟
蜹
杌
##泫
榥
ם
̠
̜
̹
˕
##ᵝ
祐
ↀ
亅
##µ
剼
呐
鏺
##咥
ŭ
ation
凢
橪
캡
##틴
휴
鯆
艟
##ɚ
##✡
蠔
옫
받
ㄵ
ㄽ
##허
ꡂ
ꡊ
ꡙ
ꡎ
ꡛ
𐤀
𐤏
ㅸ
ㆄ
ㅹ
ㅱ
##拕
栅
畺
̪
𝒷
∫
椥
墲
##¬
甅
∉
##⌊
##⌈
␣
⏨
᛭
鳫
筴
槱
##堃
##鍾
##劻
՞
ո
ծ
㊅
군
물
觽
##耑
##욕
##탕
##농
ሾ
芃
诗
籵
粨
##粁
瓧
##瓸
瓰
##甅
竍
##竡
竏
##竕
##竓
煓
鰞
魷
ᠰ
##ᡥ
##ᡳ
##ᠶ
##ᠨ
ᡠ
ᠠ
##ᠩ
##ᡤ
ᡥ
##ᡩ
##もて
염
砾
盐
椪
##蒄
##ǃ
ǂ
##⇛
##⇢
##彎
冄
蕲
敔
陏
邗
唹
糗
ற
ன
##ொ
ཐ
莂
鵃
𠂢
亍
焗
빠
##畯
ª
ca
燏
##棻
##輅
炟
僬
##僥
柷
##ও
ল
##フリードリヒ
鹰
琠
##恠
垝
곶
쇠
##扢
豽
毼
剺
𩙿
戋
㦮
栈
䀹
﨤
⺬
啁
단
##릉
##トルコ
⑴
⑵
⑶
⑷
呫
䑞
湨
漼
할
##류
독
땅
##搔
##鬻
##鍑
蹛
##栃
乇
鯲
🇨
##🇳
隞
##격
##״
별
##날
棙
琲
ⰸ
##ฌ
##瘟
##ཚ
##ྔ
ү
ў
ϝ
##♉
ϒ
##ⓐ
楖
##독
##ㇾ
ď
㈼
₹
鰋
𩷑
𐤂
##ڵ
粭
¯
匋
##≪
##≫
ḏ
##侔
︒
##٫
煛
旣
ཀ
##ཏ
##ཟ
➖
##ې
ရ
##ှ
##ီ
##ǖ
ྭ
ྰ
ྱ
ཡ
ྲ
ླ
ི
ུ
ཱ
ེ
ོ
##황
冫
筿
##二千
ⓡ
##წ
##馱
朅
및
##통
ვ
##ყ
ⅼ
##醿
##東京
##材料
##̃
傣
##鹼
##설
##瑀
蒺
ә
㍄
犰
##狳
##ཎ
##ྜ
##ཀ
##ཤ
##ླ
##�
輺
₤
##ө
🍀
秢
笵
宪
##纲
检
门
齿
##轮
∸
烋
##ʎ
晜
శ
క
漻
鱅
##㊀
##コンクリート
秼
##鮐
鮊
岦
閆
𤇅
𤇥
熠
𣜬
꿈
##꾸
蚇
̍
啥
##咪
蝍
昖
##夲
##난
##런
烜
̥
海
##≡
岼
얘
걔
쟤
섀
##儼
潾
##ḷ
奯
塐
##樃
值
啟
吿
艹
艹
槗
𣘺
𩵋
灬
㒶
##懋
블
##윙
##鎏
##ढ
##읕
沪
淖
💋
搠
ㆀ
쌍
##们
네
종
𪗱
##𪘚
ך
ख
##읗
##탣
##ロバート
ꜜ
呬
ѵ
籁
##¡
##ỏ
##鳞
##獦
ĸ
˜
ã
ũ
叕
##錩
鵟
噹
##噹
۲
崦
ート
惔
鱢
##藦
##バレーボール
穄
𒄑
##𒂆
##𒈦
荸
##紞
협
淚
##윽
역
디
##읃
긑
끝
##읏
느
드
깋
ಗ
ಬ
##ದ
ㄒ
##´
鰵
##嬋
జ
##クロアチア
##吧
玆
##ኦ
ሕ
ዴ
##ቲ
##ጅ
垃
䓲
葂
鑴
廧
鏊
##亿
##˔
ஈ
䡄
☌
ㅘ
ㅙ
ㅉ
녈
뉼
륙
##렬
##ㄴ
계
게
암
##艘
##蕘
鳲
轞
乄
犲
ール・
##균
##吒
ϸ
##时
梉
##あきら
##嗎
##猜
ֶ
攙
ظ
##筱
##누
##ể
暤
鴲
##ீ
𦻙
##̀
##ニュージーランド
##ዜ
ክ
ታ
##የ
ዳ
##ከ
##ዳ
##ፃ
##እ
ቆ
##መ
ፅ
##ኑ
ሰ
##ዕ
ቅ
##ቤ
##ጋ
##ጀ
##ጠ
##ደ
ኑ
##ኛ
##ቺ
##።
##皇后
는
﹝
﹞
토
墹
닭
커
##☭
##ϻ
蠼
##螋
##鄕
##迴
##邐
颻
腟
塱
##쿠
##蟋
ージ
ルム
ʂ
鍚
ί
##률
##센
##잇
혼
##괜
##찮
ˤ
##琇
冯
##绍
ﺎ
标
睆
##ฝ
##高校
鹼
규
##슈
깃
##蜉
阝
##日中
##团
傻
##ծ
##桌
窨
ფ
ԥ
癜
鲨
##鱼
⺕
##曦
##頲
铿
##锵
##ằ
##ḡ
##コムーネ
ṯ
泱
##泱
##챔
##쩐
것
같
##녁
##그
ზ
კ
ძ
魲
##そち
垖
詀
ఖ
##耒
##ણ
##વ
औ
크
##ጽ
##ሐ
ሄ
欟
##망
##적
テーション
訇
##총
##찰
庙
##フィギュア
宫
鈖
クトル
𠀑
##𥢓
馰
灄
渲
##孌
ώ
##瑶
##들
ㅓ
##ギリシャ
##オスマン
㬎
ź
##雒
##本部
ọ
ἱ
## 
詃
墬
##후
鯃
##プロイセン
##勛
##鱮
ʤ
𠧋
##㶞
狔
奲
盘
仪
재
##조
鳌
##坛
##ȝ
嶗
阴
贼
秽
##ϊ
𣉙
##≔
##≜
##≝
##⟺
##⇌
섬
싶
珅
梄
畓
⚪
呤
甡
嶬
劼
屭
ầ
捃
특
##蓀
##鄉
##ց
🄬
笂
亊
夊
➂
##홍
##フロリダ
##؟
##髙
##ế
##鏢
曧
暶
柂
매
##듭
##パートナー
##妬
##飞
##继
##鸣
贺
举
轩
丛
##髀
菸
晗
##ŝ
##譆
譆
##縵
偍
##屚
##찬
ノフ
氂
𬍯
##ʧ
㟴
扒
耖
##菻
𥸯
畭
˙
⁒
ꆀ
##ꆿ
##ꆈ
##ꌠ
##ꊨ
##ꏦ
##ꏱ
##ꅉ
##ꑤ
##加わり
ㅟ
ㅢ
##펄
##퍼
숟
숫
ɚ
##ྒ
##ྲ
##ྡ
##ྗ
##ラグビー
跆
##麑
虦
##핀
##峴
##线
杂
岢
纕
##蘅
##纑
斄
₂
鎂
偣
鈮
ஊ
깨
##꽃
猕
##盦
㶚
橆
杦
頞
ㇺ
籕
##佬
㓼
##澜
탁
억
죽
ֲ
핑
##陔
##俌
ੴ
੯
##੦
##੬
顺
##권
鑅
炗
ь
ˁ
鶕
碚
##ञ
剎
奋
严
##谨
竞
跃
##շ
##歷
##뎅
##묵
##譔
澐
ӷ
##なくし
##脘
ӓ
陆
##ロサンゼルス
ષ
##ઞ
ઞ
홈
烨
郇
##単独
##汶
##彤
𨁂
낙
##イラスト
頲
啞
刚
扑
않
杋
棆
##戶
ӧ
囶
##惎
鞕
舰
僴
##鱝
##鱏
ಅ
##ನ
##¯
勍
떡
暆
##证
曂
##倩
۱
爁
鄲
鷚
鱪
鱰
儈
##ố
##배
ั
氘
氫
溳
##懌
碵
##蓓
济
马
##鄧
##િ
##લ
##હ
##ક
##ધ
シズム
ả
##棱
##번
##째
അ
##ൃ
##യ
获
##ฆ
##맞
못
皜
⾰
##벨
##宫
忧
霈
##ʀ
ٍ
##ٍ
紑
拋
##⛎
钜
##련
饭
##寔
##ॉ
##ధ
##់
##ដ
##ំ
##閔
邮
囪
緫
揔
##ោ
##ភ
##ណ
##ড
夋
邰
##芩
欗
##梼
胭
##璡
玼
〳
淥
##栢
鉎
⼭
⽭
⽌
⻄
⼑
⾨
⼈
##셜
싱
##와
솔
##걸
칼
##잡
불
##량
隝
㈜
참
揜
##豳
##阳
媄
尕
##鶻
緤
イナー
ہ
##잔
璪
##スマート
##沿っ
##ׂ
潑
览
##藹
ສ
##ີ
##ພ
##销
玜
䫻
##ʝ
##̩
餑
##餑
釻
濆
##綠
涑
##＄
##극
卐
##コムー
愽
语
##频
์
ะ
##菝
ウンド
##鷭
犹
崮
##ģ
丝
##緋
蒱
𒂗
##𒃶
##𒁺
##𒀭
##𒈾
騤
##そと
ସ
##ମ
##ବ
##ପ
##ୁ
ǝ
ৰ
উ
##∧
##∨
ʎ
怦
摄
##プロデュー
连
##职
##इ
##ྭ
##碇
##ף
##밤
##ȳ
##员
ڮ
ۇ
ۋ
ں
ژ
撦
湃
∙
旽
##隴
##圜
##榭
##蔣
⏎
郾
麃

踧
蟌
脷
鍉
##佺
踕
鬬
##酋
⊙
##ົ
##ສ
ခ
##ိ
乽
赢
##ɬ
##凜
##いっぱい
仨
弹
##軺
##妇
##厪
遫
倞
艃
碏
⊲
##ሬ
ኻ
##ሳ
輹
筷
氹
琭
诀
涬
##먼
瑊
籭
𠮟
##굴
##능
##帚
‛
##‧
殾
##까
##睢
秞
##沉
鐄
歼
踆
鐎
嬅
维
螃
忆
##录
##¢
რ
##პ
妈
##妈
潖
閞
탐
##鉐
湦
㏏
獳
斿
夆
##黒田
##돈
⒑
ㅬ
发
##记
胜
缆
袲
##上部
슈
접
##춘
﷽
啸
명
웅
##내
浿
패
교
##뚜
鄑
##甯
瑌
격
##瀘
萳
渢
##놀
##첨
덜
##머
##ŗ
##✕
攏
郳
##စ
##ြ
##ည
##ṵ
罂
##笼
##있
鰄
娫
鄺
බ
ල
##ග
##ො
##ඩ
##ආ
##ද
##ෛ
##ත
##ෙ
##ය
笱
##궁
##錄
兹
‟
##虯
##샤
##벳
봐
晼
##极
##淸
錛
ĭ
ɞ
碉
ᵕ
##˘
##ᵕ
➔
##≅
##≈
##악
१
##№
鱔
‑
##작
晣
鲁
鈥
凼
鞖
浤
エルン
狥
瀍
燊
砰
墌
𣰰
僐
##မ
##တ
##놈
💩
俪
곽
##晉
##ẫ
##高齢
##궤
##请
##ⴼ
##ⵖ
崟
##직
㎟
##〝
##އ
##ސ
##ު
##ލ
##ޠ
ސ
##ބ
މ
##ṟ
##甍
莲
鏵
ɤ
ɦ
瓯
##怕
鰙
##简
##њ
##顶
绿
姮
##념
##雯
##贝
##⁵
##³
##韬
兴
##シカゴ
冣
釩
孌
ˊ
##囊
‴
儐
挣
##イスラム
##しまい
尪
櫶
##є
菤
균
눌
순
##혁
익
ራ
ደ
##ሸ
☽
币
嫫
##혼
##찾
##꽂
舮
濚
鐕
##腳
见
அ
##너
溤
##爱
锜
##료
ರ
ഫ
##ഹ
怘
딱
잭
뱀
##뱀
##겸
耭
##갑
##జ
##మ
彅
##兴
##嶠
봤
##져
##온
본
적
##և
ռ
ṙ
թ
դ
ր
##슬
옛
활
##₹
##◆
筊
珓
摵
##ళ
##స
벡
翱
莹
##丿
㼀
屌
屄
肏
䳒
##windo
엠
##품
##祉
漴
##ొ
##ట
😆
ὦ
۞
姺
콜
##ẁ
퇴
##폐
##갈
##골
옐
출
##줌
ಜ
ಒ
멍
년
묘
폭
입
잎
롯
##워
鈅
涂
є
집
凤
网
##✳
##채
氧
ᑌ
##ᓱ
##ᒼ
##ᕄ
##则
组
##织
证
费
##认
##议
实
##现
请
##협
櫞
旀
##못
##둥
항
##공
ચ
##પ
ხ
행
##ƒ
ओ
錞
珌
##험
##심
##평
##€
##প
편
##パイロット
鉶
⻆
⭐
ભ
##ૂ
##ચ
码
##碼
ἁ
ẃ
젠
̞
##ੁ
##ਚ
##롱
◅
库
##√
ℍ
ખ
##ભ
##필
瑬
##៊
##ថ
##ៈ
##េ
##ឌ
##ឍ
һ
খ
𠘕
##擂
##处
##ں
##㊙
##珹
##납
##토
沧
礄
遗
园
##ဟ
##ベトナム
파
##할
##출
엘
##베
낀
##떻
되
##었
##ধ
##护
伙
##单
债
责
##冴
##喀
##俑
##티
镜
##璇
##ổ
##ਪ
##ੂ
##ਰ
##ਥ
실
歵
##㎢
禵
엑
##엑
娞
瓡
ティブ
崍
##骏
##賴
##滉
鄛
胶
씨
##엘
##셔
璮
ऋ
␎
␏
槪
##ⵯ
엿
악
##丫
##림
##박
ƛ
হ
ሙ
##ቱ
##ታ
##ቄ
##ḱ
##ខ
##ៅ
眘
면
䞭
␅
##쁜
ಮ
鞗
佖
팬
##텀
##겐
##ྷ
##향
##伟
##벽
보
##옴
짜
##곡
##ở
##ķ
##♪
녹
##둔
̚
﻿
트
⾚
⼊
닥
劳
ទ
##ឹ
##ក
ត
ⵡ
ക
##ൊ
പ
##െ
##ട
സ
##വ
##ൂ
##ം
设
##计
##剝
##アルゼンチン
嬁
##璐
ఏ
❝
❞
화
訷
##シンガポール
##깨
##님
嬛
椣
घ
##ʱ
##취
嫚
腳
ම
##ට
ව
##ක
ර
##ස
妭
漊
##惇
##敳
붕
欑
𥱲
테
##宍
##±
ɘ
疃
脫
獗
揫
齏
##ブルガリア
坯
媜
甾
##䀾
驌
섭
##挹
##沴
##靺
僿
훈
##త
藔
##瑄
瑮
##设
购
##儿
##앙
蕴
芈
##橫
##でし
땀
ⵎ
##祎
创
척
##漳
̌
##ⅿ
蚂
##蚁
##炡
纉
垵
##몰
溈
##르
##빛
##ೊ
̶
浐
##灞
##힐
##大隊
##試験
##ἅ
##咯
급
˚
皶
㚕
##听
약
승
##昝
## 
##馮
##ғ
涍
吴
铁
图
##レスラー
##례
##ৃ
##ণ
雏
##划
闻
##级
##실
##댁
婑
##代助
賨
멋
##뮤
##케
에
또
배
작
##된
##되
##습
맥
##荐
䐗
##ルーマニア
##송
##ҡ
嬃
##ⵎ
ⵍ
##ⵇ
##ⵕ
##ⵡ
訞
ɹ
櫥
这
##ʏ
##ೋ
𨨞
প
##স
য
ঘ
ବ
##ା
##ଙ
##ଗ
##ୀ
幛
##銷
褜
족
簉
˥
##ʔ
˦
##˨
##醴
暊
䚟
##ӏ
词
##엄
##결
##판
瀅
##卡
簞
瀇
##パッケ
##醢
##亢
ㆃ
##场
##₧
##।
##॥
☀
碻
##磝
蕆
분
淚
ɜ
##돌
듀
头
##马
优
༏
禶
찬
효
饔
鶙
噩
ń
鈰
##笘
##黃
##槵
昪
##灤
⤴
သ
##ဝ
##ံ
##လ
槢
썸
墘
##厝
պ
##ŷ
アリング
卩
埦
鼫
##红
泽
##强
##丽
贝
##类
统
应
态
肠
结
##构
棽
鲍
##흙
澇
络
檔
##チベット
##∃
酘
戏
险
玗
嵸
##乓
##ゴールデン
온
##搭
ʝ
宁
僰
막
枪
镭
🇯
##🇵
吕
##謦
炜
䜟
##ຫ
ຄ
##ູ
ໄ
##ຟ
ຟ
ປ
ແ
##ຕ
##ກ
##ເ
##ປ
##ໍ
虑
势
纸
导
‣
##扯
睍
##トレード
##涅
邓
##涵
馆
ῥ
##コメント
琡
길
##옥
⃓
̷
⃠
找
##瑗
ᕿ
##ᙵ
##ᐅ
##ᓐ
##츠
ὕ
𤋮
诚
