[PAD]
[UNK]
[CLS]
[SEP]
[MASK]
の
、
。
に
は
を
が
と
で
年
・
（
）
さ
して
した
いる
する
も
「
」
月
から
れた
日
こと
し
である
れて
や
２
１
いた
ある
『
』
れる
など
３
−
この
ない
ため
日本

人
”
より
４
れ
第
いう
者
その
なった
もの
へ
後
まで
また
市
なる
５
中
６
一
同
県
これ
１０
７
内
８
なって
おり
よる
９
大学
つ
大
国
よって
時
１２
であった
か
家
駅
ように
ら
現在
的な
本
１１
軍
上
：
化
であり
的に
なり
放送
名
性
ず
部
回
目
町
時代
それ
なかった
おいて
世界
代
線
間
戦
でも
られる
あり
会
場合
行わ
二
ついて
所
その後
東京
前
多く
州
だった
地
あった
なく
しかし
い
られた
号
数
できる
的
作品
彼
選手
他
｜
使用
機
昭和
語
られて
郡
位
研究
当時
存在
新
元
アメリカ
長
側
三
活動
映画
初
学校
社
等
１５
，
全
下
番組
呼ば
東
区
２０
会社
出身
および
／
車
約
のみ
代表
形
権
なお
テレビ
西
系
発売
型
以下
地域
法
開発
１４
歳
作
１３
１６
中心
チーム
たち
北
分
られ
館
鉄道
おける
時間
以降
３０
ドイツ
小
出場
一部
南
用
さらに
！
発表
度
試合
平成
＝
だ
高
学
賞
局
登場
大会
版
開始
（）
次
フランス
川
際
点
式
関係
曲
参加
記録
体
ような
所属
％
多い
利用
ｍ
でき
だけ
世
．
１８
１７
シリーズ
明治
以上
事
ゲーム
見
お
力
##な
な
音楽
せ
シーズン
開催
##子
リーグ
島
ともに
にて
各
級
国際
いった
監督
氏
イギリス
山
両
世紀
問題
村
２０１０
旧
対して
優勝
知ら
都市
１９
行う
金
場
道
一般
中国
物
出演
設置
ので
せる
持つ
地方
事業
社会
卒業
戦争
共に
官
委員
２５
位置
計画
同じ
Ｂ
プロ
２００９
変更
Ａ
２００８
省
教育
結果
中央
２０１１
大阪
２００７
王
影響
アルバム
２１
期
文化
きた
頃
政府
隊
役
ほか
番
そして
２０１２
特に
獲得
ながら
Ｃ
##に
派
一方
手
建設
２４
いく
通り
##ラ
##ａ
なら
とき
自身
担当
外
考え
２００６
当初
ｋｍ
##ク
うち
設立
方
バス
##ｓ
機関
円
及び
種
事件
##ナ
経済
２２
２０１３
現
年間
生
２０１４
ア
かけて
０
情報
選挙
水
女性
都
政治
主義
販売
それぞれ
２３
意味
城
以外
地区
不
攻撃
２０１５
科
デビュー
##ｅ
##の
Ｓ
子
調査
艦
構成
グループ
##で
Ｄ
高等
米
かつて
２０１６
再
発生
##タ
２００５
アメリカ合衆国
##し
受け
技術
##ノ
##山
##り
可能
自分
##ｉ
または
航空
就任
父
##ｙ
##ｅｒ
２０００
路線
状態
##ｏ
歴史
話
システム
行って
場所
##ス
勝
採用
２６
行った
決定
##田
契約
２８
Ｍ
神
２０１７
最も
台
せた
制作
人口
２７
施設
正
ただし
公
終了
製造
対する
##リ
船
部分
関する
Ｐ
高校
##ト
総
石
組織
公開
ほど
教授
収録
Ｆ
無
株式
生産
ロシア
２９
車両
必要
最
使わ
海軍
全国
列車
帝国
##コ
野球
用い
書
##川
大きな
全て
Ｔ
ラ
初めて
シングル
モデル
枚
Ｋ
Ｒ
##フ
##ダ
面
四
Ｇ
高い
２００４
議員
部隊
率
主に
受賞
メンバー
名称
企業
〜
目的
最終
##ド
道路
##ティ
勝利
##ン
##カ
そこ
機能
センター
京都
運動
受けた
末
員
活躍
店
１００
管理
党
独立
実施
移籍
取り
海
##い
人物
時期
ほとんど
##ム
Ｊ
生活
務めた
戦い
Ｌ
経て
入り
通常
製作
Ｈ
##ル
サッカー
構造
馬
クラブ
年度
対応
教会
カ
##ロ
朝
成功
デ
エンジン
量
ところ
イタリア
発見
例
基本
含む
江戸
重
戦闘
受けて
##レ
府
以前
##って
##シ
Ｎ
##ズ
##リー
##ア
設定
３１
実際
キャラクター
搭載
名前
##ニ
非
ここ
規模
対
協会
##ら
２００３
アニメ
ホーム
内容
設計
アル
##った
##イ
##野
Ｖ
漫画
編成
決勝
##ツ
指定
リ
人間
室
作曲
エ
評価
##サ
特徴
ドラマ
##ジ
女子
指揮
科学
交通
マ
異なる
再び
##る
出版
最初の
運行
##き
専門
副
ヨーロッパ
##マ
##チ
先
指導
連合
運営
制
み
五
予定
国家
イ
光
期間
大きく
表記
主
対し
彼女
品
結婚
向け
翌
’
バンド
リリース
##Ｓ
対象
団
連続
５０
経営
歌
廃止
色
多数
##く
タイトル
団体
##ガ
##キ
時点
２００２
当
すべて
しまう
##ｔ
あるいは
条
##ブ
様々な
程度
小説
記念
藩
製
院
英語
参照
理由
大戦
持ち
##ｉｎ
事務
提供
ド
導入
自動車
群
Ｅ
１９９０
ローマ
２０１８
オ
##テ
死去
４０
人気
##ー
たい
２００１
達
##ディ
労働
##島
生まれ
よう
展開
##バ
周辺
全体
ザ
デザイン
運転
基
方法
領
サービス
今
##ｅｎ
その他
サン
形式
コ
真
公園
##ネ
橋
以来
##ｏｎ
白
ラジオ
小学校
サ
しか
説
兵
結成
##一
議会
総合
同時に
大統領
##ａｌ
のち
##人
マン
##Ｌ
警察
舞台
環境
言わ
宇宙
支援
引退
##ｄ
娘
##グ
関連
中学校
最高
国民
由来
会議
初期
スーパー
持って
ほぼ
競技
自治
飛行
自ら
連邦
バ
スポーツ
##ｎ
完成
いずれ
含ま
夏
北海道
裁判
ドル
陸軍
##Ｔ
組
街
##Ｃ
ひと
行い
＿
カード
##ウ
ｃｍ
ル
変化
１９８０
巻
共同
特別
##か
寺
支配
花
士
スペイン
主張
大正
オリンピック
類
天
学者
##さ
アン
Ｗ
##み
対戦
とって
##ａｎ
妻
丁目
アジア
パ
文
校
個
##ｅｓ
建築
##Ｂ
頭
よく
整備
撮影
##ミ
形成
作戦
演奏
共和
##プ
レ
英
神社
移動
右
輸送
与え
##Ｏ
##Ｅ
制度
１９９９
ニューヨーク
法人
能力
発展
左
営業
レース
非常に
ハ
文字
登録
##マン
子供
状況
##木
伴い
準
ス
風
表現
母
##Ｄ
ファン
産業
韓国
まま
表示
イン
圏
企画
以後
試験
##ゴ
公式
着
得
##Ｆ
男
データ
発行
行政
##トン
誌
区間
##す
##ラー
##デ
##Ｇ
す
御
春
論
姿
合併
##Ｋ
距離
複数
心
##である
##ｕ
認め
新しい
方面
##ｍ
##スト
選出
分類
種類
広島
口
１９７０
ｍｍ
##オ
階
新聞
##リン
赤
シ
番号
##ｈ
成立
工業
##ｉｎｇ
##れ
なければ
工場
運用
言語
自由
##ｌ
##ｃ
南部
装置
##ｋ
付近
行動
人々
メートル
経験
物語
空港
祭
掲載
近く
義
成績
ロ
せて
サイト
##水
相手
動物
族
＆
１９９８
銀行
通信
美
死
大臣
電気
言葉
音
##本
強い
美術
男性
##した
##シュ
値
報告
##して
私
方式
庁
##エ
##Ａ
##Ｍ
翌年
清
木
出
会長
##ール
別
##Ｈ
トップ
写真
条件
現代
支持
##わ
部門
平均
復帰
##ヤ
イベント
多
事故
劇場
平
未
為
確認
批判
##Ｐ
息子
個人
ＪＲ
紹介
もと
敵
##ｂ
名古屋
##ター
港
ジョン
タ
##モ
王国
モ
文学
ぶり
##寺
入る
ライブ
しまった
よれば
１９９７
効果
愛
状
学生
女
後半
勝ち
ク
##Ｎ
保護
記述
##ット
楽曲
諸
同様に
##城
連載
司令
カー
１９９６
例えば
師
拡大
同じく
超
高速
政策
インド
福岡
##め
##ｏｒ
##こ
生まれた
##原
地元
##ａｒ
病院
##平
はじめ
##ック
##Ｒ
##道
艦隊
地球
得点
自然
Ｘ
進出
装備
１９９５
方向
##Ｗ
初代
八
##ｅｌ
枠
製品
何
限定
雑誌
黒
元年
編集
開業
政権
声
作ら
##ラン
最後の
受ける
##Ｉ
##ｇ
ＣＤ
##ニー
打
王座
ミ
ビル
史
示す
追加
座
Ｉ
工事
古
過去
##ケ
横浜
##ビ
スター
観光
重要な
##谷
増加
競馬
社長
取得
##Ｙ
朝鮮
星
言う
協力
##州
芸術
編
和
##だ
事実
１９９４
ダ
器
博士
##部
あ
途中
しよう
表
ロック
“
Ｏ
俳優
果たした
学部
##ｉｔ
安
北部
市立
ベ
国道
植物
唯一
あたる
ＦＣ
夜
##メ
##井
ｆｏｒｍｕｌａ
映像
##ｐ
##ｆ
項
##線
き
半
６０
近年
候補
００
近い
テーマ
作家
住民
##え
パリ
専用
信
選ば
ロンドン
軍事
１９６０
少年
##ｉｓ
仕事
いわ
こ
１９９２
属
客
ナ
コン
土地
秒
関して
##ｉｃ
クラス
いて
差
１９９３
最大
##ワ
ビ
##長
##町
##行
将軍
戦後
各地
家族
外国
##バー
##ｅｔ
セ
系統
足
従来
反対
よ
標準
隻
相
国立
統合
市民
ごと
##屋
分野
細胞
１９９１
配置
バー
##生
地上
付け
始めた
図書
##パ
条約
森
女優
台湾
定義
聖
##之
発
##セ
防衛
つつ
オープン
生物
直
##ａｔ
##Ｖ
メーカー
特定
１９８９
そのまま
直接
始め
規定
帯
秋
##ま
民族
千葉
ハイ
内閣
ボ
##地
業務
市場
派遣
六
店舗
タイ
##ｒ
##国
勢力
呼ぶ
字
説明
ガ
拠点
ん
原因
盤
描か
キ
敗
原作
ライン
低
##ダー
ウ
ＮＨＫ
付
所有
フリー
至る
※
革命
親
次の
反
出て
##ギ
弟
行為
できた
建物
障害
＋
主人公
もって
域
貢献
さん
丸
湖
創設
門
発電
層
職
ト
理論
天皇
破壊
成長
##カー
系列
##神
込み
##ナー
伝統
務める
##上
込ま
被害
ラン
所在
段
反応
兄
横
指摘
置か
##家
##村
電子
##ザ
##美
た
記載
##Ｕ
商品
したり
公演
紙
教
引き
ベース
１９８８
続く
##じ
ｓ
##レン
あって
法律
～
ノ
##ｚ
武
業
##大
湾
べき
界
ディ
##ｕｓ
関東
県立
くる
→
電話
最大の
##ヌ
実験
主演
配信
宗教
１９８７
ソ連
九州
購入
計
七
統一
作業
##物
太平洋
紀元
少ない
レコード
##リア
##文
メイン
実現
気
タイプ
名誉
どう
同盟
速度
自動
競走
集
有
２００
##イン
こう
カナダ
##沢
Ｕ
本社
上げ
ダム
##ハ
住宅
明
化学
##ッ
メ
達成
ツアー
ペ
設け
加入
行
すぐ
広く
##々
土
##シー
Ｔｈｅ
精神
のである
要素
直後
死亡
ニュース
空間
維持
挙げ
核
１９８６
生まれる
青
タイム
本部
実
##風
処理
スタジオ
１９８５
海外
ステージ
作成
ヒ
節
制御
入学
商業
集団
エル
広
料理
##王
屋
##明
##ボ
忠
民
ホール
プレー
ニュー
く
オリジナル
接続
千
流れ
参戦
？
裏
役割
単位
このような
ソ
欧州
##三
来
形態
別の
改正
思わ
カップ
##う
ホ
毎年
##名
加え
オランダ
減少
##っ
##見
もう
##ゲ
結ぶ
基地
ま
ポイント
刊行
新たな
米国
失敗
指す
書か
強
##が
身
原
選択
理事
流
かつ
取締
メダル
イングランド
##ｗ
移転
愛知
##口
自体
##クス
大陸
歌手
##ｌｅ
神戸
ブランド
古代
ビデオ
ｋｇ
管
高く
体制
安全
画
空
作り
本線
１９８４
いい
誕生
##光
アイ
波
感
ソフト
面積
##法
シュ
投票
記事
昇格
入って
##宮
要求
４５
郵便
連盟
沖縄
##ｅｄ
##石
医療
機構
違い
軌道
エネルギー
##ａｓ
得る
報道
３５
通称
ヒット
##ヴァ
１９５０
病
改革
短
男子
無い
ニ
現役
十
##手
首都
岩
主要
通
オーストラリア
継承
電車
大型
通じて
主な
改造
本名
##ベ
メディア
続いて
シャ
ベスト
神奈川
作用
プロジェクト
中継
新潟
組合
内部
##門
皇帝
仏
ポ
##ゼ
東北
制限
質
復活
新たに
う
しばしば
ポジション
ジ
予選
便
西部
用いる
##ソン
バック
ＤＶＤ
段階
##ヒ
基準
資料
##ーン
##津
用いて
##せ
向上
##ａｎｄ
幕府
大学院
##太郎
禁止
半島
ベル
博物
１９８３
ネット
##マー
出す
##橋
１９４５
原子
レギュラー
##ａｄ
##二
農業
おら
代わり
到着
性能
思い
可能な
３２
##中
観測
##高
ホテル
前後
史上
葉
ヘ
##ロン
１９８２
学園
建造
追い
##Ｘ
コーチ
仕様
自
##和
解散
経由
松
##む
見る
交換
ユダヤ
首相
##崎
指名
政
##元
相当
地下
熱
##夫
隣接
コンピュータ
メジャー
弾
書き
訓練
##吉
停止
近代
上記
分離
銀
アフリカ
惑星
路
限り
コーナー
入った
フル
##治
レベル
命令
##ｖ
更に
８０
オー
ポーランド
生徒
強化
対立
兄弟
責任
見て
長い
継続
スタート
投手
太陽
##ｏｌ
##ぎ
脚本
得た
##ソ
マル
続けて
##間
付き
リー
##ガー
述べて
判断
務めて
基礎
関西
安定
入
コース
打ち
鉄
ロー
##であった
ひ
倍
もしくは
Ｚ
会員
帰国
乗り
強く
記
１９７２
出さ
テ
属する
建て
絵
憲法
展示
##ルト
食
１９７９
##け
あまり
提案
アー
##と
使う
ｔ
夫
兼
少女
ピ
ブ
##目
宣言
通過
傾向
マーク
イメージ
フ
知事
父親
機体
延長
主催
田
ライト
機械
ｈ
本塁
駆逐
陣
##ｏｆ
##馬
入団
師団
自己
有する
完全
週
本来
判定
可能である
ミュージック
１９８１
ワールド
章
##た
合わせて
埼玉
任命
動き
比較的
１９７５
南北
操作
立ち
##江
グ
プログラム
##デン
呼び
明らかに
既に
著作
##海
静岡
シー
貨物
ヴィ
伊
オブ
注目
交流
防御
いわゆる
あたり
使って
酸
任務
ます
トラック
##心
連絡
##出
きっかけ
領域
発足
玉
同様の
当選
孫
マー
同様
シーン
宗
##ロー
１９７３
小さな
源
得て
ゴール
連
##ｃｈ
ヶ月
１９７８
##里
占領
野
改称
地震
席
陸上
本人
重要
スタイル
##書
ユニット
こうした
県道
治療
##彦
##ａｍ
ショー
供給
##だった
李
出した
仙台
まだ
行き
ご
確保
後継
##Ｊ
進学
東部
普通
置く
一種
ふ
保存
対策
海岸
開幕
温泉
加えて
逮捕
比較
意見
衆議院
##ート
##ポ
り
異なり
推進
##ん
アップ
トン
全く
カル
地名
計算
１９７６
山口
普及
範囲
読み
だが
長野
##ックス
詩
１９７４
終わった
週間
幅
マイ
Ｙ
部長
１９７１
起用
##Ｚ
##ヴ
ジャ
図
出来
１９６８
７０
１９６９
長崎
始める
地位
諸島
##ード
##であり
板
兵庫
##成
##ーム
レイ
すなわち
ガス
改良
４８
交差
##徳
残って
顔
声優
技
宮
機器
始まった
のだ
長官
案
オーストリア
周
軽
通算
概念
藩主
挑戦
資金
成
後期
犬
執筆
久
部屋
最後に
夢
思想
銃
天文
ケ
更新
車体
家庭
デジタル
ち
ストーリー
登板
学科
福島
##司
割
##堂
##ンド
制定
##頭
植民
価格
太
薬
林
演出
カリフォルニア
角
１９７７
ネ
すれば
##雄
長男
##南
命名
完全に
ム
冬
目標
##や
５００
周囲
##ち
一定
##アン
##リング
開設
勤務
悪
##ヴィ
周年
分布
豊
砲
旅客
なか
実行
チ
オール
立場
プレイ
ティ
エン
後述
##場
ワ
##スター
市街
##ｕｍ
続けた
期待
##ピ
出来る
プロデューサー
症
ＣＭ
ピアノ
インターネット
移行
市長
回転
乱
階級
パン
バージョン
##ビー
統治
##久
跡
マイル
哲学
ｎ
向かう
意識
課程
かなり
火
ヤ
##蔵
言い
##尾
九
##体
組み
そう
３６
コード
務め
シティ
欧
交渉
ランキング
学院
命
戦車
設備
９０
##セン
##音
ブラジル
機会
３３
１９６４
解説
民間
##ｉａ
園
プレイヤー
出力
資格
##信
区別
旅
##作
消費
##ｉｌ
軸
潜水
##び
##つ
１９６７
分割
取引
ゲスト
##６
物理
##ッチ
加盟
殺害
電力
##れる
物質
作詞
##代
前述
在籍
本格
連隊
除く
結局
##リス
定
##レー
撤退
対抗
３８
認定
込む
谷
やすい
##院
##４
まず
##んで
奈良
立
前作
今日
貴族
##える
##ジャ
##男
扱い
施行
年生
始まり
ジョージ
鹿児島
岡山
##９
ＩＣ
検討
##ｒｏ
ハー
##陽
民主党
##スタ
３００
##台
##５
ファ
##丸
徳川
前年
使い
ゴ
##レス
切り
文書
##ザー
保険
管轄
権利
##戸
像
大きい
財
］
沿い
##政
独自の
低い
多かった
出し
表す
１９４４
少なく
略称
編入
##波
再開
##れた
残り
合流
##ース
乗車
率いる
##３
かけ
スウェーデン
呼称
適用
中止
##ば
札幌
酒
行く
共通
方針
１９６５
視聴
モード
準備
##オン
球団
公共
ｐ
経
旅行
売り
合計
セット
地点
用いた
じ
列
児童
##太
逆
##年
先発
##ンズ
やがて
与える
１９４０
スタッフ
アナウンサー
民主
ね
ただ
コー
定期
武器
##ｉｄ
３４
すでに
１９６６
練習
最初に
##志
##ッツ
大半
続け
固定
歴任
金属
永
##ランド
##タン
費
##～
##ＥＲ
秀
ギ
ジュニア
形状
進行
国鉄
優秀
##サー
##分
信号
持た
熊本
南西
エリア
##エル
良い
描いた
伝説
塩
単
##内
語って
カン
作る
岐阜
処分
##重
##ホ
アイドル
兵器
背景
誰
推定
発言
主題
結合
##ルス
単独
北西
前半
鎌倉
入社
果たす
全員
 
##ｏｓ
発射
ブルー
アカデミー
回復
##ｏｔ
##れて
ルート
１９３０
比
３７
燃料
##所
崩壊
##ジー
始まる
ずつ
直前
##通
解放
停車
##ペ
##ーク
出る
与えた
ＴＢＳ
古い
ｄ
５５
諸国
収容
改善
医学
##流
良
生息
券
トンネル
##ろ
##会
日間
愛称
順
区域
伴う
##ｕｒ
ライ
集合
開通
拡張
##ｓｔ
友人
ネットワーク
ソフトウェア
理解
表明
求め
守
芸能
秋田
積極
素
本拠
現象
関数
深
許可
カトリック
チャート
##宗
ケース
##ｅｎｔ
１９６３
つまり
定め
会場
×
一般に
藤
シン
件
認識
平和
上位
ミニ
アンド
空軍
##万
急
##葉
伝え
好
剤
##アー
ユ
地帯
ブラック
京
ジャパン
##武
残さ
ウィ
学会
##パー
仲間
手法
議論
１９６２
##コン
吉
選
##ｏｍ
ラテン
低下
劇
世代
前身
移住
提出
否定
##事
##・
進め
金融
##士
規制
阪神
姓
ルー
詳細
##日
首
沖
論文
侵攻
分析
##瀬
わたって
在
王者
講師
新設
国勢
翻訳
##ｒｅ
罪
相互
##スク
堂
検査
##ファ
##東
##シン
押し
血
##次
##ベル
残した
１９４３
##安
つけ
産
池
カラー
ベルリン
酸化
証明
杯
尾
必要な
##義
用語
##天
奥
##て
審査
##方
パーク
元々
依頼
観
身長
共産党
１９４１
負け
ｂ
性格
利
え
１９６１
魚
東海
１９４７
１９４２
メキシコ
##ａｙ
朝日
##モン
解決
##ブル
分子
##こう
リン
合成
どちら
##テン
負傷
録音
百
各国
##伝
集落
弁護
##ａｃ
注意
３９
価値
キー
ほう
反乱
##ｒｉ
根
外交
##良
大き
##前
衛星
死後
若
抵抗
サイ
河
拒否
名義
貿易
なし
４４
ワールドカップ
鏡
異
新人
カール
##気
ソロ
統計
キリスト教
縁
買収
訳
網
万
フィ
##月
##２
コンサート
敗れた
政党
込んだ
余
サイズ
１０００
サー
ルール
##合
##下
逆に
考えて
雪
遺跡
確立
ワシントン
生成
調整
犯罪
##路
有名な
##坂
ウィリアム
母親
ハン
アーティスト
打率
考える
視
１９４８
##ント
壁
富
##んだ
東西
１９４６
##岡
プロレス
龍
判決
体育
披露
求める
##正
緑
##７
ブロック
##ング
草
中世
意
アイルランド
ダンス
上昇
現地
限ら
やや
フジテレビ
承認
戦略
不足
過程
ミサイル
##ａｔｉｏｎ
消滅
カメラ
急行
香港
プレ
張
脳
バン
記者
##ＡＮ
古墳
１９５８
茶
##式
北東
危機
##ップ
インター
ギリシャ
##色
転
自衛
富士
##エン
一覧
##林
初回
##ゲン
開か
戸
居住
特急
##チャ
##金
１９５９
チェンジ
雄
用意
福
ダン
##フィ
満
初頭
グランプリ
バル
せい
従事
陸
黄
発達
ゲ
##ヴェ
額
大使
##シャ
中間
記さ
特殊
医師
信仰
兵士
##める
執行
ソビエト
健康
強制
広告
軍人
##形
１９２０
表面
##ｘ
常
田中
##．
初め
迎えた
桜
英国
##ニア
投入
１９４９
早
##億
スタジアム
ぬ
１９５５
不明
関
中学
続いた
下記
４２
空気
規格
##花
合格
ジャン
挙げた
投資
開
巻き
ｃ
基づく
銅
ＴＶ
集中
１９５６
ページ
##立
終わり
機動
末期
輸入
さまざまな
毎週
神経
国王
フォン
小型
人民
従って
長く
##ｉｍ
残る
かかわら
塔
守備
正式に
雨
##松
４１
河川
わけで
郷
年齢
ダウン
同一
鈴木
難
フェ
収入
装甲
##ＩＮ
ギター
携帯
改名
護衛
冠
海上
##お
常に
側面
ヴァ
か月
##いた
＃
ハンガリー
立て
##座
スキー
財政
わ
サポート
ソング
ポール
見える
##ｒａ
数学
長期
スペース
バイ
料
遺産
昇進
窓
食品
竹
##トル
画面
幸
分け
１９５２
肉
伊勢
同士
知識
タウン
ファイル
走行
ツ
超える
事態
リスト
ＩＩ
ｘ
閉鎖
４３
##郎
ジュ
##８
伯
１９５４
タレント
##クト
留学
劉
##ロス
送り
##ｕｌ
一族
江
スペシャル
##いて
患者
キャ
グリーン
来た
保有
歩兵
##ジュ
議長
君
しん
…
オフ
カバー
創業
##者
##室
宮城
加
世帯
テスト
ホー
羽
##公
##西
出た
##型
##ラス
べく
沿岸
最後
続ける
レーベル
吸収
であって
再建
##性
##介
述べた
中部
##電
渡り
無料
希望
牛
４００
寺院
藤原
ハウス
箇所
変
##ッド
次第に
スイス
具体
境界
ボール
国境
漢
０．
イオン
ポルトガル
工学
主要な
通して
##ガン
##ｊ
つき
出して
栽培
しまい
解釈
エジプト
予備
危険
４６
駅舎
１９５３
佐
そのもの
１９５７
##ジェ
財団
サウンド
モン
北京
動作
##めて
様子
手段
教師
石川
##数
青年
インタビュー
臨時
チャ
スクール
中村
込んで
南東
話題
見た
比べて
文庫
大分
阿
妹
##バン
税
争い
向けて
傘下
個体
現場
武装
保守
資本
端
弟子
ブラ
きて
１９３９
標高
##ぐ
協議
衝突
育成
パー
もつ
トゥ
コミック
志
もっとも
リング
##ｕｎ
公立
国会
##えた
１９５１
流れる
出現
迎え
レッド
地下鉄
正式
##助
##ＡＲ
ユー
様式
要請
性質
悪化
Ｑ
##ＡＭ
康
深夜
５４
##命
学習
両者
ロサンゼルス
チャンピオン
骨
ベトナム
翼
アクセス
##語
近
進む
唐
引き続き
４７
徐々に
終戦
次元
再生
現存
吉田
改修
徳
ｋ
呉
富山
伝
##史
ロード
仕
爆発
仲
エピソード
調
現実
紀
サイド
構想
##ａｇ
大部分
各種
##市
善
判明
アクション
続き
最初
##チン
生命
剣
共演
服
およそ
片
だろう
##学
業界
チャンネル
戦隊
画家
自転車
め
職員
モスクワ
アリ
飛び
区分
令
トルコ
##めた
卵
実質
ドラフト
新宿
養子
歌詞
類似
指示
クリ
アメリカン
##車
こそ
キャリア
極めて
主力
ごろ
##ジン
１９３７
##リオ
的である
創立
ころ
ユーザー
##ず
捜査
古典
##保
孝
徳島
幾
振り
##ぶ
過
##する
佐藤
##サン
##ィ
パワー
合意
規則
わずか
##根
将来
人員
軍団
##キン
##北
実業
業者
##えて
上映
戦線
ビジネス
##機
ヘッド
ｉ
同時
遠征
街道
著書
##ＡＬ
免許
変換
中華人民共和国
的で
しかしながら
##状
マシン
ブレーキ
##ｕｔ
即位
る
湯
演劇
オル
ジョ
子会社
署
霊
重量
環
脱
廃
混乱
よい
##é
当たる
上陸
医
心理
保持
##キー
鳥
境
売却
クラ
票
ｆ
ＰＣ
戦国
場面
入れ
##角
感染
扱う
##ける
仏教
左右
毛
ガンダム
##レイ
協定
修
##軍
同日
##ｅｒｓ
戦死
姉妹
結び
ガン
転換
ｇ
##知
楽器
三重
重視
です
ロケット
天正
向かって
竜
楽団
自宅
墓
一番
ヨ
離脱
事情
興行
宿
##ディー
１９３８
一緒に
カラ
だい
青森
##勝
プ
１９３６
そのような
##ａｒｄ
ギリシア
プラ
文献
トリ
授与
使った
活用
とおり
若い
かん
１万
##越
歩
##ＩＣ
あと
こちら
##利
駅前
##ｏｐ
無線
##ＡＣ
クロ
被
人類
週刊
–
##ａｋ
作った
##世
##シア
保
無く
極
##倉
東洋
一致
補助
戦艦
##次郎
翌日
て
構築
住む
取る
輸出
川崎
単行本
##骨
家臣
##力
教徒
訪問
両方
##ａｌｌ
震災
##ｅｌｌ
体重
通って
投げ
修正
##デル
山本
示した
泉
頼
出走
創刊
ワン
扉
オペラ
##郷
〉
〈
コル
##かった
##カル
［
故障
起源
決め
様
交響
かい
球
##也
敗北
発着
##字
##ＡＴ
松本
料金
##化
##カン
放射
幕
大和
知
歴代
予算
電
##毛
描く
似て
権力
新幹線
しょう
ウクライナ
上げた
ちゃん
警備
イスラエル
ジェ
在学
項目
うえ
書籍
穴
味
奴隷
もともと
山形
模様
持った
宝
包囲
動画
描写
ブル
##船
##ンス
外部
敷地
茨城
##主
フォ
考慮
目指す
##ウス
参謀
単に
##女
##楽
学び
鬼
##ったり
放映
早稲田
解体
ルイ
休止
原則
体験
隆
ジャンプ
キング
称さ
##ｏｗ
艇
オーバー
含め
趣味
身体
##ｉｇ
替え
移り
マリ
解
午後
む
交代
応じて
主体
襲撃
爆撃
ほ
両親
司会
楽
##ＳＴ
残して
半分
離れた
浜
矢
記憶
##浦
称号
建
##用
信頼
フィルム
山脈
##ご
ダイヤ
おお
##ティー
機種
合
観客
##ｔｅｒ
夫人
##テル
何度
１９３３
##樹
学んだ
守護
##ドル
フィールド
##ＯＮ
殺人
##雲
##ーズ
##ｉｅ
費用
消防
インディアン
弁
６４
##そう
そんな
増
進み
ボー
高橋
刑事
測定
似た
知る
決めた
平安
気候
ヘンリー
恋
効率
追放
出馬
公表
けん
渡
シート
半ば
人工
温度
##朝
やま
短い
評論
大幅に
友
書いた
激しい
##ｉｒ
付属
宮崎
依存
印
背
コンビ
数字
##綱
大字
ロボット
締結
エア
##面
次いで
##仁
せん
ターミナル
象徴
関与
広場
姿勢
基づいて
可能に
トーナメント
１９３４
全長
プロデュース
##位
進化
手紙
##チェ
ｃｏｌｓｐａｎ
ダイ
マリア
局長
##紀
定着
再度
パイロット
子孫
次男
守る
午前
特
姉
スケート
しばらく
起こった
１９３２
１９３５
##定
##帝
小さい
１２０
仁
雲
分岐
専攻
##ゾ
案内
深い
完了
最近
資源
予想
補
アニメーション
５１
伊藤
##ｅｍ
貞
山田
生み
分解
モーター
領土
公認
##ど
##ｔｈ
ドア
ＧＰ
提携
５８
独
アラ
連結
言って
##ＡＳ
戦士
同期
##ｅｃ
チェ
ＦＩＦＡ
##実
Ｗｉｎｄｏｗｓ
電動
収め
士官
神話
画像
生涯
歯
プロダクション
イスラム
利益
##度
弱
許さ
##身
継いだ
石油
生じる
ロバート
ライター
ワイン
エイ
セント
かかる
たとえば
尚
##ａｂ
##守
下部
加工
議席
流行
大手
モー
仮
##キロ
トラ
劇団
##外
ど
##スカ
カット
治
男女
健
武田
働き
関心
示して
暗殺
ノー
##兵
含めて
ジャンル
モンゴル
フィリピン
興味
かも
聖書
ディスク
##県
経緯
##メン
打撃
スコットランド
##館
復興
音声
クレ
##よう
##トラ
コミュニティ
荒
グラ
家督
職業
負担
出発
見せ
帰還
名付け
学ぶ
がっこう
先行
##ニング
##民
##食
##スコ
どの
上げる
##直
シカゴ
亜
６５
降伏
流通
##記
##ａｐ
##球
フライ
遺伝子
教皇
整理
推薦
援助
戻る
血液型
遠
上海
いえる
##ミン
##ジャー
折
滞在
ロング
##ｉｎｅ
##トー
年代
際して
傷
１９３１
５２
中期
取材
意図
発揮
貴
戻り
先端
線路
旗
ファッション
１９２８
作者
少し
訴訟
福井
デュ
##トリ
商店
嘉
卒
甲
##スティ
静
措置
絵画
##ッシュ
１９２９
##バル
魔法
修了
##ね
##ネス
課
農
洋
##経
戻った
落ち
活性
譲渡
選抜
現れる
酵素
コメント
##一郎
##ｅｓｔ
残
##星
フォー
過ぎ
##賀
総督
露
手術
行なわ
##ＩＳ
アイテム
とう
福祉
印刷
弘
輪
隣
防止
精
##１
次々
群馬
移民
箱
油
ちなみに
病気
体系
部品
ベルギー
##氏
##社
未来
少将
起こる
商
コピー
５６
ソウル
占める
##ｏｄ
ＳＳ
功績
率いて
興
義務
－
郊外
平方
上部
セル
陳
４９
申請
ベン
##意
相続
砂
大賞
辞任
ジャック
分裂
##務
顧問
柔道
タッグ
一切
騎士
プリ
##ｉｐ
俊
四国
ヘル
住んで
里
栄
失わ
起きた
誘導
腕
##ろう
##春
操縦
筋
##園
純
デンマーク
##ヴァー
ミュージシャン
有して
コスト
幹部
キリスト
##歌
ジャズ
リーダー
イー
スト
ａ
記号
早く
優先
##べ
##三郎
北朝鮮
平日
ウェブ
言及
蒸気
材料
イラスト
需要
フラ
文学部
当主
突き
ラー
##ミー
少数
ビー
勃発
高度
順位
症状
ウィーン
修道院
##香
##スキー
結んだ
タン
後方
##かん
梅
連覇
##房
編曲
コムーネ
大名
収めた
香
毎
違反
自社
住居
柱
和歌山
近郊
##かい
℃
##ケン
連携
加藤
津
国防
１９２７
博
キャラ
到達
ペン
問わ
月刊
脱出
テキサス
成分
繁殖
西武
##足
退団
トー
後者
泰
##０
感じ
電鉄
言える
いき
地理
宝塚
暴力
入手
祖父
長年
上演
小林
１９２４
とり
魚雷
耳
ラグビー
既存
往復
師事
##都
ガラス
ステークス
該当
絶対
打点
屋根
##戦
##ドン
司法
エンディング
吹き
保障
オープニング
とる
リンク
##げ
したがって
##ヌス
又は
ビッグ
##質
以内
清水
直線
慶長
アナ
水素
程
方言
船団
茂
人生
##河
５７
##ルズ
巡洋艦
##シェ
総称
##ライ
配備
##泉
上下
バスケットボール
冊
一環
接触
下り
１．
示さ
区画
漢字
格
ユーロ
；
双方
テレ
##板
ストリート
発掘
証拠
伝承
一連の
１９２５
縦
きょう
##フェ
直通
ウル
収集
##まり
術
##よ
##量
どこ
通行
リード
つける
胸
引
##論
振興
##天皇
##興
ば
代理
確定
台車
基づき
失った
提唱
株
良く
ハル
ホワイト
属して
有効
##ｈｅ
退職
１９２３
山梨
資産
敗退
災害
破り
一家
##業
テニス
##けて
肩
##ユ
助教授
自殺
ビット
捕虜
ライセンス
進んで
岩手
ＦＭ
スポンサー
証券
フィンランド
ナイト
##ディング
マッ
司教
一帯
印象
##マル
華
氷
当たり
主流
脱退
コンセプト
相談
チャールズ
##之助
ブリ
用途
ベイ
ならば
広い
レコーディング
ウェ
ミス
えき
安打
立候補
１９１８
ジェームズ
試作
在住
##プロ
ゆう
##進
つく
グリ
##ＯＲ
撤去
処刑
##せる
ズ
逃げ
サル
含めた
巨人
喜
やって
##八
推測
バラエティ
遊
イラン
ドーム
策
メール
通る
毎日
ｓｔ
実績
社名
例外
クラシック
挙げる
帝
##ダン
であれば
優れた
銀河
##品
上野
可
損害
マク
クリア
減
##点
##ピー
##ＬＥ
侵入
球場
##しい
ローカル
うる
##ｏｕ
##イル
着用
フランク
##番
ドゥ
主導
ランク
差し
マイナー
軍隊
攻略
ヴェ
##せん
必要である
女王
今後
##六
ＳＦ
演じた
複合
東映
##ション
ジャケット
巡
競争
##ネル
マッチ
井
置いて
速
享年
当該
##幸
参考
インチ
監視
並行
堀
書記
##草
##ａｎｔ
解析
想定
ドライバー
置き
取って
合同
終わる
原題
観察
向かった
続編
##忠
支部
##清
##も
##ビル
ヴァン
##ッカー
陽
##白
訪れた
国土
##佐
解消
端末
修理
１９１９
圧力
##ｉａｎ
伴って
防
財産
ボクシング
１９２６
次ぐ
ばかり
抗議
ボル
代替
微
入力
聖堂
得意
十字
学術
クロス
##ヴォ
別名
##言
あらゆる
周波
戦う
デモ
実用
ボタン
圧倒
笑い
合い
走る
進んだ
従
有名
##華
##輪
##ニン
桂
及ぶ
##広
爆弾
近隣
なくて
１５０
参議院
差別
ついた
渋谷
挙げて
池田
##教
竣工
有力
宇
造船
##ブラ
こうして
そのうち
渡って
共有
##理
ライダー
トーク
アッ
目指して
敗れ
北条
大佐
雇用
渡辺
下位
座席
王朝
##ティング
１９２２
除き
棟
王子
井上
違う
##トゥ
ごう
駆動
ｌ
アニ
謎
峠
##ナン
スタ
Ｆ１
##章
受け入れ
進
全域
合戦
アク
滝
暦
５３
後任
短期
深く
炎
ジム
子ども
マイケル
扱わ
約束
ゆ
##チャー
果たし
##浜
栃木
ミッション
本体
足利
送ら
社員
文明
上流
気象
相撲
診断
最低
居
集め
根拠
姫
無かった
ゴー
やり
少なくとも
ハード
勢
動
このように
５９
事例
ＡＶ
アルゼンチン
##コー
見解
要因
積
日常
委託
##タル
ポンド
クレジット
成果
##ノー
ノルウェー
##動
離れて
フットボール
ナショナル
有限
オスマン
腹
小学
秘密
冷
ゴールデン
パラ
バイパス
言った
床
射撃
任じ
森林
殿
離婚
ゴルフ
跡地
密度
乗
求めて
中将
試み
前期
砦
軒
プロイセン
宣伝
##ルー
じょう
再編
武将
特性
緊急
中山
権限
バラ
ＰＳ
造
騎兵
セルビア
織田
祖
演技
クル
##付け
サブ
食べる
自民党
佐賀
ざる
ところが
##ｉｓｔ
開拓
攻め
##ｏｖ
最多
集めた
衆
相対
ボード
ました
高知
あい
ポスト
天然
##ワン
西洋
考えた
発音
ボディ
死刑
三菱
レー
詩人
##別
火山
図る
旨
書いて
火災
再現
流域
出席
大隊
さえ
つけて
シェ
発明
桁
全面
##火
地形
》
戦時
戦力
ロゴ
頭部
ついに
題材
《
出来事
経路
私立
７５
##ｉｏｎ
##ｅｇ
脚
別に
ユース
決意
##岩
短編
コレクション
絶
必ず
##師
##ｉｌｌ
##ステ
起こした
メイ
キャンプ
##種
デル
##鳥
一体
キャンパス
１９２１
##走
選定
カレッジ
##澤
##２５
抗
北米
##先
能
##ａｔｅ
非難
勇
##そ
昔
要
ステーション
ダー
##塚
##兵衛
##隆
パス
##土
反発
応援
##しく
##キング
アート
##来
略
証言
##ｏｇ
##ｄｅ
難しい
１９１４
降格
坂
未満
ネタ
誠
犠牲
Ｓｔ
損傷
募集
丘
存続
アマチュア
##沼
基盤
巨大な
景
当局
派生
特許
批評
取ら
入れて
##ビン
##ニャ
ＵＳ
代わって
促進
サラ
一員
６２
メル
ウイルス
１９１７
無人
平野
来る
見せた
数々
##しょう
紛争
山地
附属
かわ
##親
メッセージ
至った
連勝
優
パターン
家康
ゼ
与
取
智
##昌
備えて
戻って
柳
##造
大将
本土
ブーム
韓
##イド
装
指
授業
異なって
海洋
##連
##れば
##類
スピード
運航
##８０
向き
商人
##ｏｃ
敗戦
☆
意思
##ドゥ
求めた
航海
空母
解除
数多く
##ウェイ
ステ
不詳
ター
炭素
薄
ちょう
経過
エース
ボーカル
６１
提示
グランド
トレード
改
寄り
接近
回数
期限
改め
終結
買い
君主
命じ
ごく
##盛
##セル
##辺
伯爵
古くから
ＫＯ
駐車
碑
不満
##景
晴
##リアン
パフォーマンス
旅団
わたり
アウト
キン
連れて
除いて
役所
粒子
ブラウン
であろう
殺さ
信長
審議
菌
シャー
亡命
空襲
##臣
##ＩＴ
人種
語った
##，０００
##ジョ
疾患
##オス
パソコン
フロント
バトル
幼少
猫
応用
１９１２
現れ
ぎ
松平
##ュー
艦長
理
レストラン
入れる
##組
外務
##号
投稿
Ｃｈ
出資
晩年
ゴールド
気温
##ノン
冒険
要塞
岸
枝
##ルド
甲板
##死
一旦
戦前
##科
##フォード
前方
##ヨ
先頭
##ｉｏ
ドン
教員
##将
帰
１９１０
この頃
建立
ケーブル
打者
##まって
ほん
##弘
６３
##ドー
ＳＰ
上げて
部族
ファミリー
昌
王位
飼育
実装
反映
来て
鎮
ｅ
接する
事前
##１０
厳しい
##Ｑ
厚
ボストン
パーソナリティ
屋敷
細
沿って
##羅
魔
向かい
##ブリ
イラク
若干
転向
シナリオ
たか
##ュ
マスター
ポン
質量
やすく
金沢
ライフ
##ｒｙ
並ぶ
保安
防ぐ
校舎
##スキ
農民
##ラル
北方
##ａｓｔ
亀
夜間
れたり
##玉
##３０
老
紅
飛
分かれて
ＵＥＦＡ
６００
低く
人形
ないし
##永
リニューアル
塗装
装着
初期に
果たして
鶴
ハワイ
内外
##ｕｒｅ
そ
退任
リチャード
歌劇
若手
移管
課題
補給
鳥取
アド
会見
不動産
加えた
##ｅｐ
呼んで
##池
送信
放棄
１９００
##バイ
前提
雅
町名
仮面
ピン
オーディション
陥落
感情
素材
##ファー
材
官僚
##界
学区
ナンバー
##湖
##ｃｅ
##ａｖ
伝える
紫
なされて
突破
モチーフ
動員
液
ガー
延
修士
日記
稲
ブログ
ワイド
文部
けい
##端
表彰
化合
ソニー
##古
ネーム
恵
ヤング
愛媛
高級
豪
##パン
##条
盛
暗
ボックス
ヘビー
割合
由
高松
##チュ
受験
一貫
当日
騎手
灯
奉行
僕
登
ヒル
バレーボール
ドラ
終えた
苦
フィギュア
演じる
史料
暫定
疑問
##多
わたる
ナチス
双
ちゅう
改札
##能
##等
結んで
##奈
##任
裕
ディーゼル
打ち上げ
すら
オンライン
##ェ
自主
都道府県
##斎
書店
トム
不明である
ライバル
刑
##陵
##栄
乗客
制覇
共産
##真
創作
あたって
故郷
ダブル
遺体
ウルトラ
持
シンガポール
法学
よし
論理
国有
白い
##ウム
多様
読者
##メント
トレーニング
##宝
##ｅｎｄ
##姫
船舶
温
順に
##アル
##福
##羽
##後
クー
##砲
##ｆｏｒ
レーダー
コール
オート
強力な
##ツァ
駒
海戦
##ｅｓｓ
ケン
もし
ケイ
パッケージ
小さく
##ブルク
関わる
ラウンド
請求
かける
##産
アプリケーション
##シャー
地図
布
##曲
##藤
快速
ポリ
電波
##グル
##居
養成
大西洋
残った
##さん
タンパク
削減
##ざ
観点
##ストン
僧
展
比べ
ｔｈ
デザイナー
航路
上院
満州
慶
##話
つけた
原理
縮小
厚生
鉱山
講談
##トロ
ロス
現行
急速に
##勢
市町村
ポー
思って
##空
##シス
署名
エク
困難
##衣
現れた
認知
悪い
若者
余儀なく
フロリダ
受
##礼
ｃｃ
ＭＳ
退
勲章
投
ＴＨＥ
新規
##ビア
##声
追
少
関わら
ヤード
ソース
回避
落語
起点
卿
##ドラ
埋葬
断
初演
むら
毛利
避難
回路
掛け
##官
終盤
##ネット
生じた
芝
短縮
##病
##出し
##ナル
黒人
##ヤー
並んで
ワイ
ＡＣ
パートナー
受信
底
怪我
宮殿
描き
##龍
ファイナル
##たり
ヒトラー
##時
組み合わせ
##ｉｋ
切
エー
やはり
８００
##ナス
三振
立つ
源氏
寛
放出
ゼロ
赤い
あなた
ルイス
ぶ
上り
１９１１
##制
至って
起こり
##ズム
正面
ショップ
Ｊリーグ
テロ
１９１３
評議
フリードリヒ
白人
雑
オン
しれ
内務
ようやく
美しい
迎える
らしい
ミュージカル
助け
確率
働く
積み
##巻
装飾
生き
##どう
英雄
オーケストラ
与えて
滋賀
香川
教室
検出
ＢＳ
浦
##ベルク
方程式
最高の
##２７
玄
近鉄
渡る
行事
起
##せい
ウォー
奏者
陰
ＳＴ
ナポレオン
没
混
次に
エドワード
量産
独特の
海峡
起こす
偽
##２０
繰り返し
び
潮
蔵
祭り
庁舎
逆転
離れ
助手
回収
工
種目
容易に
フラン
会館
土曜
出土
大橋
聞き
巨
乾
眼
恋愛
コート
排除
##ムス
##付
出会い
トランス
配給
密
合唱
アウ
酸素
競輪
神宮
礼
##ない
ジョー
司馬
乾燥
行列
団地
近畿
２．
東宝
番線
つか
ＡＳ
支店
ファースト
業績
焼き
亡くなった
ヒト
１９１５
##ヘ
法学部
##いで
タンク
メン
義塾
ＳＣ
おか
##薬
フォード
##千
開館
強調
パート
舞
天保
##クル
マガジン
２５０
書く
ドライブ
##ｏｂ
上杉
##帯
容量
樹
レンタル
国連
ニュージーランド
じゃ
##ｉｔｙ
道具
ドー
賞金
向
衰退
##まる
当地
ディレクター
下院
インドネシア
領主
##ＳＳ
著名な
クイズ
高齢
##ダル
混合
コメディ
述べる
##慶
停留所
大気
廃車
##留
終
##期
##ｏｕｒ
オフィス
炉
丁
東南
対決
時計
デー
音源
態度
取った
刀
むしろ
合わせ
学名
示唆
##森
##使
トロ
併設
まさ
夫婦
送る
奪わ
運賃
糸
物資
慶應
##レット
##工
結ば
##刀
必ずしも
パル
思う
##入
工作
##とう
##友
搭乗
達した
甲子園
移植
とら
##ａｎｇ
数値
読売
奇
考案
完全な
##フト
描いて
囲ま
焼
決議
有機
##筋
##ドリ
学問
彫刻
##メル
療法
偵察
会計
##弾
八幡
##十
##じょう
照
参
頻繁に
周り
濃度
食事
飛行機
カイ
プロセス
管区
衝撃
マルチ
気筒
施さ
編纂
鳴
##リック
武士
モンスター
食べ
##府
水戸
##像
報
宮廷
逃亡
入賞
モノ
構内
上京
決める
車線
チェコ
芸人
直径
##衛
在位
意向
激しく
##相
折り
征服
スー
才能
挿入
##職
知って
中断
マラソン
##フォ
ハム
##しゃ
総理
ノース
財務
増大
トラブル
互いに
##ｔｈｅ
説得
##４０
横須賀
デイ
横断
コロンビア
##ＡＤ
##ハン
典型
教え
ボート
加速
通貨
##調
コンクリート
大衆
リスク
マイクロ
信用
戦術
配属
立地
任意の
架空の
黄色
達する
##クラ
総裁
け
##小
増えて
任
変動
無視
かけた
##１１
スミス
比例
荘
戦場
登山
埋め
維新
出典
射
##１５
同人
ＭＬＢ
マーケット
サンフランシスコ
昭
徹底
論争
認可
##ｅｂ
学位
前面
避ける
生存
ウィル
突然
中隊
##２６
１９０７
運河
ボン
##鉄
##恵
プレミア
組んで
１９０８
バレエ
水域
フレ
研修
隊員
##バス
開放
グレイ
##ａｉｎ
秘
引用
送って
循環
独占
敬
ブー
##秀
語り
プラン
ピーター
##管
ボス
##２８
ダービー
褐色
斉
##Ｓｔ
麻
役員
東方
ショッピング
宇都宮
中華民国
兼任
皆
松山
ラブ
訪れる
##けた
いち
##ＥＣ
レスラー
正規
融合
天体
##系
##くて
法案
国籍
限界
内戦
東海道
犯人
山岳
##出して
１９１６
朱
##切
ようである
##ＡＰ
助
外観
名乗る
回り
バージニア
##員
１８８９
限
決まった
サム
任期
庫
予測
失点
死者
支流
見せる
努力
ブック
文章
軽量
突入
##ｔｉ
歌う
皇
願い
鹿
認める
鼻
前者
##視
自由に
ＮＢＡ
トレ
複雑な
棒
称する
##ぼ
熊
##ａｈ
終点
尽力
墓地
送った
主宰
##集
親王
塁
創造
##発
誤
大人
通う
上級
運輸
畑
チャン
剛
アラブ
エリ
リア
虎
鋼
変身
広域
ディズニー
保管
痛
雷
落選
ブレ
##タイ
##説
コミックス
実力
後ろ
ウェスト
悪魔
下流
従軍
##射
ヶ
見え
##１４
##ＥＮ
３０００
神学
オス
創
合わせた
今回
##ＴＯ
町村
正式な
半年
トーマス
##マス
高原
抑制
コンテンツ
圧縮
山頂
時刻
メモリ
##デス
##〜
##ｑｕ
言
特典
##２４
牽引
##ｔｉｏｎ
古く
フィート
風景
呼んだ
衛生
キャッチ
##典
岡
プレーオフ
##シング
周期
成人
コントロール
ランド
共
フィリップ
々
奉
インターナショナル
前線
開校
黒い
大量の
人数
定理
護
哨戒
２万
キャンペーン
シリア
タワー
将棋
好きな
厳
闘争
招待
ミドル
内側
禁
##００
たく
交易
ＦＡ
##イス
勝負
##役
##圧
##紙
散
講演
容疑
##ｉｂ
ジャクソン
知った
甲斐
##５０
就職
１９０５
影
探偵
後部
何らか
アルコール
あげ
修復
噂
岡田
品種
牡馬
##ＩＤ
はっきり
##術
チベット
液体
テープ
甘
##血
従業
##節
おく
南方
楊
##オー
マリー
ハート
##アス
着手
にくい
##７０
米軍
##洋
##報
視点
特殊な
シル
審判
なされた
日曜日
##ペン
通勤
毒
死んだ
##器
##出す
刺激
ＴＫＯ
入れた
犯
集めて
奪
ヒロイン
ヒーロー
分間
９５
##ＵＳ
んだ
ませ
キック
##２１
総務
邦
夫妻
配布
ヌ
広がる
オリコン
巨大
長編
大量
##リエ
落
阻止
##ｕｄ
まち
最中
解雇
外側
位置づけ
瀬戸
黄金
##２９
有料
駐屯
ティー
ウォ
##ａｓｓ
##縁
##ａｒｔ
述べ
##ラム
入門
品質
フレーム
##ｇｅ
応募
後年
砲撃
太字
変え
ヤン
##ｐｈ
モル
中野
木村
具
##取り
土曜日
北陸
学年
スカイ
ファー
##プラ
ディー
タイヤ
救助
マイク
レン
２，
##権
感覚
バイエルン
新田
民営
南海
猛
８５
入場
飾った
##１２
教科
##洲
寄付
新型
##有
ツール
離
探検
盗塁
１９０９
起こし
修行
ブロ
１９０６
定数
劇中
##無
南アフリカ
車種
##英
８８
不良
あれば
##ソー
アレンジ
オプション
カリ
電源
加わった
##枝
ノミネート
騒動
駐
定める
選考
宣
合う
##１６
##ディン
##フル
室町
水上
朝廷
日曜
備えた
##ゴン
##エー
改装
##ａｃｋ
##新
変わら
恐れ
日々
空中
配
大坂
##クロ
知り
高架
証
たる
部下
##ネー
実践
質問
抗争
Ｓｈ
模型
ジェット
コンテスト
##１３
マルクス
ルーマニア
敷設
珍しい
懸念
##念
動力
琉球
丘陵
みなさ
ペア
##則
乗って
功
##ＯＳ
師範
録
抑え
満たす
出産
昆虫
##取
ブルガリア
同意
ダウンロード
##跡
総会
開き
進めて
##ｅｙ
越
##３５
大日
##デー
##五
幅広い
##画
ムー
―
恋人
会話
##マイ
取り付け
漁業
##ケット
ＡＴ
：）
##ノス
グル
脇
報じ
入口
首位
建国
##２２
キャスター
走り
キュ
##ボー
##族
変形
事項
張り
##２３
##ｕｐ
##豊
庭園
遺
青山
腰
遅れ
叔父
##ＩＩ
しま
乳
しゃ
警戒
スパイ
冒頭
ＡＡＡ
おそらく
虫
##レル
##領
ショ
コント
オリ
境内
怒り
夕
晋
船体
住
##９０
綱
##四
バリ
アラビア
試
栄養
ショート
間もなく
クロアチア
化石
五輪
結論
絶滅
放
改めて
伊達
トイレ
校長
看護
##貴
寛永
所長
身分
##ウィ
##ゲル
人権
##ＭＡ
水道
寝
称して
アレ
やす
レンズ
梁
##１７
##３６
##ツィ
但し
リュ
命中
統制
堺
衣装
左翼
全線
収
救援
##５２
ドキュメンタリー
##郡
エレ
##喜
長らく
スカウト
##Ｃｈ
α
法則
##感
７２
##峰
高山
トヨタ
併合
洪水
換え
ｃｏｄｉｃｅ
ロマン
タクシー
ベクトル
＞
共和党
閉
移った
元禄
医薬
##ラント
多摩
ゆく
河口
##祖
##５５
環状
課長
いえ
選ぶ
##吾
浅
しかも
口径
調達
タッチ
検
不可
改編
昼
主役
##ャ
技法
破
##まった
冬季
ひろ
くらい
原料
地中海
秀吉
話し
前田
沈没
飯
##ツェ
命じた
参入
福音
ポート
ユニ
##布
##ｉｇｈｔ
##堀
理想
キャスト
##しん
まつ
先生
##ゼン
配慮
##然
##満
がん
作って
##ｍｅｎｔ
すぎ
スリー
交
ＣＯ
リトアニア
##ＩＮＧ
桃
ジャーナリスト
##極
##ｉｖ
入植
階段
流れて
マス
トル
セン
##５３
##納
１１０
ロン
判
乗降
検索
##常
変わる
##着
##寿
ジョンソン
ハリ
出撃
敗れて
ラム
所蔵
従い
排気
##たら
台風
格闘
##解
不安
ちなんで
備え
文芸
中退
##６０
ヴァル
パネル
##具
島津
アシスタント
幕末
分散
沿線
美濃
水準
伝わる
固有
雰囲気
武蔵
##ヶ
樹立
まもなく
結晶
協同
金曜日
山陽
適
後退
ミュンヘン
##出した
抜き
押
着陸
我々
##３１
将校
保証
##ＲＥ
##隊
甥
辞職
殆ど
##５６
食料
オーナー
キューバ
比率
中核
８６
三井
バッ
分けて
結
開いた
補佐
過ごした
太田
介入
売上
寿
実在
復
１９０４
シャン
魅力
か所
寒
ヘイ
実は
異常
北九州
ユナイテッド
できて
##けん
##ディア
進める
調教
##上げ
戦った
１，
##魚
##４１
##おう
##３９
##ＲＡ
##いち
祐
浩
##６６
ファンタジー
フェスティバル
滅亡
##ＭＥ
先輩
味方
宿泊
符号
松竹
演説
リアル
アナログ
１０万
定年
チェーン
##印
##ＣＯ
ベー
低迷
修道
１００万
上がる
１８９０
大韓民国
チャレンジ
行方
みんな
コンクール
贈ら
マサチューセッツ
##ガル
小倉
##夜
於
総長
浮
特集
恒星
秘書
秦
##達
グラン
入院
残す
重複
##だい
とった
フォーク
社会党
撃破
ビール
##出さ
##柱
緩和
##弁
三男
心臓
駆け
ＷＢＣ
個別
夕方
##カイ
検察
まったく
止め
単語
この際
橋本
捨て
退役
尊
客車
##キシ
##装
権威
航行
##米
ソー
力学
##ノフ
ブルース
ｖ
##３８
ギャ
社団
ブラン
##ダイ
賢
使
ダブルス
沢
##格
メタル
創建
Ａｌ
占めて
コマンド
芸
個々
薬物
儀式
司
盛んに
特別な
##ｍａｎ
ＴＯ
のに
班
##潮
著者
繊維
ジー
振動
##ｉｚ
パイ
住み
寮
ゾーン
港湾
クリスマス
塾
州立
バランス
曲線
趙
考古
要望
力士
失い
##リーナ
##味
##サイ
失
##善
エリザベス
アカ
１９０３
熱帯
##５１
マネージャー
臨床
民衆
表さ
城主
ジョージア
勉強
岳
##御
連れ
削除
##スラ
##ボン
一時的に
##議
騎乗
##ＰＳ
明確に
近江
長女
##図
広がって
##ウッド
##９９
盛り
ＤＮＡ
平面
##関
##望
##智
##から
##愛
ＤＪ
##ＳＣ
鍵
##令
人事
アプリ
有名である
魂
徹
牧
公式に
顧客
##ショ
##ワー
レスリング
##置
プレート
担う
##５００
零
海域
７００
児
男爵
生じ
ヴィルヘルム
##３７
レオ
宋
##茂
チョ
封
成田
刑務所
村上
３．
期生
走
至ら
退社
返還
歌唱
##層
６８
付与
##ａｒｙ
いか
始めて
割り
変える
##４８
ＣＨ
解任
全般
接して
隠
引っ
新作
学長
省略
テン
イスラーム
フィラデルフィア
何も
配列
偏
プール
##ベン
対称
##畑
ヴァイオリン
##ゼル
受章
発覚
妙
作画
捕
詰め
篇
毎回
Ｍａｒ
##ＭＳ
ハウ
手続き
筆
サンタ
##談
ポップ
語る
細川
##ヴァン
釣り
ＳＥ
賠償
休日
ベルト
菊
しりつ
ヘリコプター
弥
重力
互換
石炭
いって
##ａｃｈ
##グラ
##ＴＶ
メガ
##ｕｃ
ビュー
聞いた
隔
##７９
ＩＩＩ
スラ
保健
条例
ＯＳ
くれる
暗号
変数
ゲート
テーブル
人材
幼い
細菌
焼失
数え
延伸
公社
叙
ボーナス
##ケル
フジ
季節
残留
上がり
記して
##康
併用
##ａｇｅ
訪れ
マンション
銭
奪取
皮膚
##域
予約
##右衛門
背番号
ＡＭ
王立
##ｉｅｓ
上田
討ち
鎮圧
あき
テル
１９０２
##３４
初戦
カンパニー
##床
最古の
筆頭
##母
順次
１億
ビーチ
断念
ナイ
主任
##ｅｒｔ
##竜
中島
阪急
セミ
属し
潜
##ｏｎｄ
ピー
もっと
捕手
６６
傍ら
覆わ
岡崎
フー
盛期
公務
ターボ
ガル
##霊
みる
並び
恐怖
メトロ
金曜
##４５
称した
大型の
##０８
党員
上回る
前日
１１５
遊び
スポット
##塔
##レッ
##眼
##５４
海水
電化
##版
##算
顕
ならびに
##妻
９９
芸名
Ｗｅｂ
アム
##チョ
##ティン
年次
併
##せた
##酸
スタン
選んだ
##尊
会談
任ぜ
芳
変わって
就役
同僚
警視
活
１，０００
対照
##あ
ファイ
壊滅
膝
寄せ
##リーズ
下旬
白色
膜
侵略
カフェ
ＰｌａｙＳｔａｔｉｏｎ
ｗ
海兵
エド
紋章
##イト
皮
余り
十分な
##０６
##バッハ
上述
##３３
##運
エンタテインメント
スコ
##開
なぜ
辺
降下
スタンド
講義
都合
##膜
バルセロナ
所持
ジョーンズ
通路
角形
認めた
シンボル
百貨店
髪
電圧
対処
##８７
恵ま
##ｏｒｙ
耐
この後
とても
グロ
そうした
付いて
要する
引き継が
##ブロ
治安
汚染
クライ
撃墜
コーヒー
セーブ
木造
##ヨン
フェア
##リティ
発注
山城
徒歩
立体
公爵
##１８
##ｏｏ
語ら
狭い
##プル
移さ
##リアス
施工
##段
##壁
猿
##フィー
ｒ
ミル
俺
返し
懐
圧
調理
##ｕｂ
大宮
##ティス
東急
ダイヤモンド
待ち
##プス
内陸
マレーシア
もたらした
大いに
妨害
##やま
海賊
##カラ
函館
##藩
本国
正しい
３，
７８
祝
大島
シドニー
イル
乗務
近世
セイ
サークル
評判
造ら
激
老朽
気持ち
馬場
涙
４，
大尉
##たい
##込
１９０１
マスコミ
ＩＴ
スコット
三島
歌舞伎
付けて
##宿
カッ
アマ
クリス
目撃
##観
##ネン
５０００
##暦
評さ
##五郎
延期
##ａｓｅ
サウス
##応
株主
##７１
##ｉｃｈ
切れ
##織
邸
##ターズ
受容
早期
##ウェル
快
ショック
博多
ゲイ
最小
見せて
記す
負
ＲＰＧ
故
##コフ
##５９
帳
置いた
集会
##覚
商標
招集
太郎
闇
あわせて
##０２
看板
養
って
柏
賛成
発症
変わった
##七
レール
藩士
踏み
微分
イースト
##的
講座
##港
ガソリン
菓子
甲府
##は
早い
べ
##孝
専念
##順
とりわけ
##スケ
１８９８
短く
みな
前回
思
度々
水系
役者
アラン
括弧
日中
幹線
決して
契機
教養
メタ
市川
登記
ハリウッド
１８０
反射
高田
ポケモン
狂
通学
##ＲＯ
あの
概ね
ローズ
##盤
キャプテン
各社
こく
句
##５８
隊長
シングルス
##４９
怪獣
臨
７６
ケー
##ウン
##９５
##儀
##鹿
タイガース
８１
市営
ロイヤル
普通の
癌
支払い
冷却
アイランド
##ｓｏｎ
##ヴィル
##ミング
てん
行使
##入れ
史跡
享保
飲食
##１９
バレー
復元
##遠
##富
金額
##７７
オリジナルの
残し
マップ
##庭
職人
シアター
出店
乗員
ツー
実況
拘束
皇后
浜松
獣
近衛
##輔
##０５
主として
錦
充実
滑走
##ナイ
##ｉｆ
十二
プロテスタント
実家
コア
野生
観音
表紙
ヨハン
競合
##密
##ヴィー
三浦
更
もたらす
増え
田村
標本
被災
幼稚園
##席
グレート
##嶋
築いた
楽章
西方
教区
##ティア
ゲル
##艦
永禄
##ｉｔｅ
##ＡＩ
##虫
家老
ＮＴＴ
ステップ
佐々木
セントラル
杉
必要に
輩出
流用
転用
##トス
##向
ドラム
簡易
パイプ
水中
しゅ
雌
量子
山崎
継ぐ
同一の
敏
整
恩
加賀
フェル
加わり
ルーム
統括
ラッシュ
##ｅｖ
##フェン
##ｏｎｅ
付加
##かり
集める
ウェイ
７７
抜擢
応
共通の
スコア
薩摩
##スタン
妊娠
平行
マックス
弓
ペンシルベニア
閲覧
##バーグ
法令
在任
ヨー
ゴム
悪く
歩行
幻
ふく
まとめ
虐殺
挙
しょ
##切り
函数
捜索
淳
旧制
併せて
弦
釈放
現状
チャンピオンズ
出入
牧師
＊
シャルル
立って
所得
遭遇
艦艇
マドリード
フェリー
正確に
ウー
のだった
大量に
大蔵
脅威
アダルト
メー
させる
次官
死ぬ
ペル
燃焼
##ＵＲ
嵐
丹
見方
##３２
##便
##ｅｃｔ
##ハー
##６８
昇
##護
奨励
盆地
１８９６
グラウンド
開局
サーバ
カ国
勧め
##ｉｓｈ
働いて
##せて
##ルム
##ｓｅ
仕組み
１８９９
ゆき
感謝
##コス
わかる
進歩
グラフィック
##ドロ
##ｉｃｅ
正確な
##在
欄
##ゾン
ＭＣ
瞬間
州都
婦
オハイオ
##ポン
代数
##らし
変わり
全部
中学生
出生
弱い
取り組み
##ヴェル
侯
推理
##４６
壊
##つけ
話す
果実
##製
６９
パッ
休
支
##ＤＥ
ウッド
コマ
空手
もちろん
ＢＧＭ
##ｎｅ
リゾート
##ｕｇ
##エフ
上がった
##髪
発動
都心
##ロウ
##憲
制約
継ぎ
踊り
飾り
ＳＨ
タル
先住
##甲
魏
ｎｄ
##ｅｒｎ
投与
講
継が
##０４
レビュー
認めて
##４３
窓口
巣
野菜
格闘技
兵力
１．５
##片
##朗
##ひ
崇
医学部
見なさ
９８
電池
ＤＳ
行なって
係
##貞
１８９７
超えて
##クター
サイクル
牧場
泥
##７６
適切な
肖像
付ける
##８１
演算
斎藤
０８
##乃
##壇
則
数十
##リカ
ヴォ
喪失
還元
スクリーン
１１８
##ｕｎｄ
そのほか
ざ
本店
ＲＥ
もらう
ラリー
##ペル
クーデター
信濃
殿堂
あくまで
フィル
道場
##加
３万
狭
示し
景観
ドラゴン
新しく
検証
牝馬
たびたび
ロケ
慶応
##ザン
ギタリスト
＜
今度
正義
野村
##ｏｋ
中川
プラットフォーム
損失
ヵ
天使
原型
将
管弦
##タス
レーシング
多用
小川
##頼
##６３
##差
専属
##売
じゅう
少佐
##ｅｎｓ
伸び
伝達
##洞
##しかった
##渡
##幕
##つき
中盤
虚
パーツ
カム
針
女神
宏
うまく
コミューン
##劇
##８９
向けた
判事
訴え
カーブ
礼拝
貨幣
撃沈
内蔵
会津
読む
##岳
排出
東芝
ヴェル
広報
安政
１５００
誇る
##ギー
完結
監査
回答
岬
農村
住友
領地
サイン
又
おう
満足
##スル
１８７１
小学生
スカ
##菜
##−
付けた
##バーン
メス
教団
##宣
除去
技能
図った
ミー
全身
隠居
せよう
##ムシ
敵対
やる
予防
陸地
菅
##ｅｗ
討伐
反撃
すぎる
就航
定員
##ｏｒｄ
##ｅｘ
ふた
間隔
習慣
スイッチ
天井
##わった
けんどう
砂漠
独自
中東
ペルシア
茎
６７
##俊
ゲー
精度
庄
民俗
暮らして
侍
パーティー
庭
推移
なん
策定
著
歴
##ＡＧ
代行
アス
##アイ
##フォン
ｉｎ
安倍
不正
##モア
ヒュー
ラウ
加える
納
好き
聞か
豊かな
債務
定めた
エス
##丘
##Ｓｈ
##０３
得票
##４２
##仙
生態
右翼
灰
チリ
外見
水産
小野
##ｏｆｔｈｅ
ユーゴスラビア
漁
貫
ペット
技師
元素
呼吸
##ｕｅ
##養
あげた
粉
検定
砲塔
アブ
ＣＰＵ
ロッ
がわ
市販
地質
##６７
流出
流入
頂点
担って
旭
ホールディングス
ＳＤ
##亭
##源
##矢
##６９
特技
去った
母音
ＤＥ
##坊
信者
濃
ガイ
##ニス
同じである
路面
マラ
ソフトバンク
照明
言え
ストア
溶
島根
記した
くん
##リウス
起訴
緑色
アリーナ
セー
土壌
要件
９６
演習
挟んで
鎖
イエス
職務
さい
治世
##ＶＥ
救出
##給
国務
とくに
アドレス
##技
尾張
浦和
識別
題
和田
##漢
コミュニケーション
##ニック
親交
ダメージ
角度
気圧
ダル
１８８０
１８７０
##ＳＡ
柄
モール
演じて
公益
石井
生きて
##ふ
疑い
広大な
開く
遺伝
##児
７４
ロッテ
あまりに
弾薬
##６４
住所
ラッ
使者
南極
イェ
バス停
家系
パック
抜け
配下
備える
##ティック
チャンピオンシップ
遂げた
電流
いつも
８７
##５７
##君
水雷
重ね
##ツォ
小田原
適応
##パス
特撮
運命
立法
##ａｃｅ
降板
広がり
繁栄
作風
妃
思った
済み
後世
楕円
ライヴ
##ライト
豊田
開戦
三角
##ゥ
鷹
##トリー
グレ
##百
比べる
##営
７３
ラスト
浮上
##訳
##カス
角川
##なく
陣営
堅
阻害
１８６８
アント
門下
##祭
因んで
##４７
##８４
ＩＰ
##ＵＮ
アーケード
ピンク
##舎
クロー
アイス
変えて
データベース
あら
##ｉｃｋ
予告
##ガイ
##７５
##８３
##服
彩
##ヤン
肉体
単なる
おき
物体
年～
マグ
フリ
含んで
浅草
チュ
##デイ
トラン
袋
##柳
##８８
ＭＡ
党首
海底
あん
##ヒル
審
詳しく
鞍
瀬
##まら
モバイル
大野
簡単に
##ＣＨ
ノン
リレー
山下
忍
ベンチ
##ＳＥ
##７８
ＭＯ
ハッ
走って
鳥類
造り
守り
集まり
##殿
##６２
##局
出来た
知名度
位相
##４４
軍勢
アキ
バイオ
##律
##情
謝罪
きゅう
退官
７１
関節
貧
交戦
１８９５
##交
革新
用水
##したり
##９６
##ハイム
ヴェネツィア
##９４
ミン
正体
ネオ
神殿
ウェールズ
糖
##バラ
硬
亮
典
小笠原
増強
きれ
芝居
筑波
##ａｗ
老人
羅
寄与
特化
我
##９８
地獄
##群
傾斜
日光
ＡＲ
経歴
皇太子
骨折
成る
##−１
しゅう
##プリ
指して
伊豆
アトランタ
葬儀
##統
胴体
砲兵
ｙ
肝
坂本
中立
博覧
立った
先進
##殺
再会
相模
##がい
##０万
土佐
##京
匹
真珠
##ａｎｎ
親友
日付
目指した
テキスト
ガード
年金
ＡＢＣ
##シティ
踏襲
噴火
０１
どれ
収益
##サイド
貫通
尺
診療
声明
夏季
沼
法廷
ストップ
設けて
単純な
##侯
レーザー
水平
著しく
##犬
幹事
シュート
##８６
ドリーム
改訂
##９１
妖怪
##ＡＦ
手がけた
つながる
##ナム
ＳＯ
稼働
ＧＩ
ムスリム
込め
##６１
ＧＴ
ＡＰ
法務
沈
レッ
蛇
奪い
##比
学士
チップ
倉庫
輝
ホル
磁気
採択
バイク
ポル
##チー
庶民
##しき
ガール
胡
木材
エディ
フロ
関わり
##プレ
高層
##ＩＰ
不能
##ブス
ニコ
##ｈｅｒ
打席
文政
相次いで
探
ぼ
##ミル
農林
餌
べきである
##延
ほしい
##ゴー
チェック
情勢
誤り
警告
○○
##００万
##住
マリオ
商工
越えて
##ｉｄｅ
##ａｆ
##賞
##速
##ｏｃｋ
ヶ所
支線
オレンジ
出荷
武道
##クション
##０７
南端
アシスト
蜂起
表題
ランプ
ＦＩ
和解
厳しく
ミラノ
##芸
小型の
割り当て
##ガス
##ニュ
捕獲
青春
誕生日
##ａｚ
勲
##アナ
ストーン
##絵
##断
##メイ
##湯
リズム
ＷＢＡ
##乱
日野
ＵＦＣ
シェア
##ｉｒｅ
盛岡
原則として
モハ
怪
破って
セガ
##ｉｘ
友好
トライ
ウィン
８９
##区
##８００
信じ
##列
ＰＲ
プログラミング
当然
ペース
発祥
付いた
自由民主党
##博
##起
ケンタッキー
##賢
幾何
列島
出品
エッ
暴
##泰
把握
ガリ
バルト
かみ
##ロフ
##ＭＯ
関わって
乙
引き継いだ
##ヴェン
##ｍｅ
長岡
語源
ホイール
ウィリアムズ
科目
ケル
序盤
貧困
喫した
親衛隊
##益
マスク
##ｔｏ
独裁
官位
小屋
軟
接
墜落
支給
８２
寛政
大変
ジェイ
##ケー
多様な
##表
##ＬＩ
さいたま
パーセント
擁立
##バード
希
##ｓｈ
悲
##２００
出口
##９７
十分に
申し
月曜
くれた
##ピン
ピーク
ホームページ
突撃
毎月
キハ
玩具
##サル
始
まとめた
##ドール
フォル
神聖
##フィン
椅子
従五位
貴重な
廃棄
演じ
合理
決戦
母体
##基
β
１８７３
##０００
遠く
煮
メアリー
推奨
オイル
アンテナ
##シャン
使える
##約
##舞
代々
個性
姫路
干渉
摂取
##ｉｃａｌ
##グリ
朝日放送
死体
府立
王妃
取り入れ
##ちょう
こん
憲
##とり
背後
##７４
クルー
普段
肺
##悪
展望
１８７２
##ストラ
##ＤＯ
実戦
辻
##タウン
ドラえもん
##ロッ
ウォーター
##９２
高める
千代田
切断
##ＡＢ
認証
公募
赤色
はら
没後
鹿島
##キュ
役職
再婚
排水
１８８４
起こして
ポケット
倫理
倶楽部
##乗
失う
対空
置き換え
出港
農家
総額
グラム
プル
##ノール
##７２
##打
チャンス
##９３
基金
##案
発信
荷物
貴族院
熊野
客員
##ポート
##証
中日
１０１
ＧＯ
息
鉱物
ジン
入居
珍しく
１８９４
##兆
無し
車庫
プレス
名目
##わる
##冠
会合
視覚
吸
##しま
運
セカンド
同行
５，
休み
メリ
番地
継
トマス
##１世
前進
農場
中華
ぞ
触媒
##−２
グレード
沙
##ＳＩ
化粧
##トゥス
ハーン
福田
うた
ラップ
脂肪
ｔｈｅ
シナ
赴任
ヤマ
独自に
超えた
救済
行なった
高崎
ＡＤ
曹
なす
言えば
赤字
##ワイ
介
ダーク
##肉
津波
ｃｏｍ
暮らし
上場
矛盾
勘
シャル
プレミアム
##らい
かかった
福山
首長
三木
靴
控え
##ニョ
日立
歌い
都立
りゅう
##筆
ゾ
ＭＶＰ
飲料
##わら
##ホン
胃
失って
さくら
京阪
１１４
土木
リトル
ＭＰ
報酬
シネマ
触れ
抱えて
台頭
従う
フロー
##末
##ＵＴ
帰って
##ａｉ
係数
望遠
食い
##昭
##寧
##ジョン
##熱
スマートフォン
メニュー
幅広く
著名
##細
近藤
##派
##淵
##底
当たって
水路
中等
二十
##左衛門
##党
格納
ピアニスト
##ｓｐ
プロモーション
皇子
制服
着工
７９
フィン
いれば
##タール
他人
舟
懲役
正月
困難な
山中
陥った
欠場
聞いて
勾配
##フィールド
ニー
蘭
##老
探査
##ージ
南京
サーキット
ビジョン
せよ
づ
べきだ
くれ
##聖
##トレ
##ＤＡ
志願
政務
ハーフ
栗
１８９３
単純
種子
##ダム
##獣
介して
羊
本質
房
##アリ
【
８３
##ｐｌ
後藤
##テス
続
##竹
##ｅａ
師匠
】
染色
Ａｒ
駅名
頻度
９１
ＴＲ
水力
９２
残存
##称
創始
仮説
##いだ
ＭＦ
辰
##ａｔｈ
中佐
日産
既
##＆
スペ
音響
支社
歯科
落下
##キア
須
セッション
生没
農地
キーボード
体操
引く
排
もり
固
ｃｈ
１８８５
バーン
国軍
迎えて
スル
１３０
コンテナ
スク
##陣
没した
##６５
アイヌ
##ｉｌｅ
中でも
賃金
馬力
機材
詰
加わる
ゲージ
退学
飲み
一気に
##レーション
ブライアン
ＮＯ
奏
運搬
##牛
根本
ラーメン
藤田
アルゴリズム
旗艦
いま
クイーン
仙
通商
エレベーター
貝
ジャイアンツ
##散
##ナウ
常務
煙
違法
指令
##ｉａｌ
##近
ニュージャージー
##８５
ガイド
##ｔｅ
標
野党
達し
名詞
ザクセン
１８８６
##示
##穂
貸
ダニエル
##札
工科
##嶺
ホラー
##積
##カム
ＣＧ
スプリング
##ｒｏｎ
分かれる
##引
洗
仮想
ＡＢ
乗り入れ
分かる
軽減
##呂
遅く
軍用
##哉
定住
繁
進展
##旗
扇
そば
アテネ
##夏
小山
採掘
継いで
消化
追わ
食用
十分
ボクサー
##ヴィチ
加熱
##ハイ
血液
刺史
プロセッサ
ユニバーサル
野田
##ゆ
三河
##歩
氏族
磯
行なう
籍
コロ
辞退
協奏曲
ワー
写本
部位
スケール
きん
諏訪
もち
跨
告白
起きる
##ジア
##好
刺
工芸
##ｕｋ
ターン
貨車
ｋＷ
淡
河内
##クリ
横綱
銀座
まる
１８８８
##ＮＥ
溝
薬剤
伝えた
##モス
働いた
##輝
##ｉｎｄ
ノート
倉
たけ
##リスト
他方
倒産
勧告
セレ
ビン
仕えた
１８９１
地面
プラス
可能で
順序
佐世保
光学
有数
カップリング
８４
勢い
国産
１６０
厩舎
ハンド
外科
郷土
峰
なかなか
撃退
##むら
バンク
育て
出雲
荒川
啓
蘇
無効
##団
投球
制圧
早朝
##ミリ
ロイ
京成
フォワード
興業
さま
##弥
金銭
最新
幼
##ッグ
一門
##８２
追跡
表して
マーティン
中旬
幹
上空
##価
渓谷
数百
１８８７
習得
スピ
ＥＸ
彗星
棋士
自国
辛
出張
品川
巡って
##鶴
出会う
##同
番手
起動
##ＣＣ
好評
１８６９
坪
給
°
##柄
聞く
交際
免疫
阿部
Ｃｌ
回想
相違
狩猟
理念
プリンス
補強
不振
##ティブ
並びに
アンダー
##ハウス
##持
保全
評して
##様
キュー
##ヴィン
弾圧
##ジング
様に
連動
就いた
望む
##容
症候
デン
恒
鑑賞
エウ
ゆえ
種別
合わ
再興
ＣＳ
コンパクト
工夫
進軍
決めて
伏見
上方
任さ
ばかりの
……
台詞
利点
越える
斜面
神田
ずっと
開いて
ホンダ
皇族
##シル
##ボール
ボブ
満了
誤解
即
##ちゃ
アルメニア
伏
出会った
重点
本数
用地
孤立
どのような
スパ
ヤマト
##ディス
ＤＦ
薄い
斜
##モー
ＨＤ
伸
##てる
大山
１８９２
振
##えよう
ヴァー
もん
直轄
スキ
越後
転じた
１８７８
シャトル
寿命
食糧
##じん
首席
##ｏｎｇ
砲弾
わずかに
リメイク
攻勢
##希
番台
カナ
後日
吉本
なが
##さい
鈴
ＥＵ
##魔
アフ
そもそも
シェル
療養
それほど
３６０
##落
試みた
##ーター
##材
ＡＬ
コラボレーション
厳密に
キル
綾
##０００万
カルロス
附
##ファン
招聘
強度
ミラー
爵位
南米
乗組員
５万
##ｙｌ
##雪
調べ
##ＳＰ
拳
旗本
債権
送
混同
##聞
##季
強豪
明確な
##率
至
##鎮
ブドウ
アドベンチャー
##けい
まつり
進めた
親子
多発
ピエール
倒す
##しょ
##ストロ
気動車
産地
蓮
外野手
ワンマン
プレゼント
工程
楽天
題名
イリノイ
異動
慎
##ａｕ
太守
名所
銘
Ｔｈ
たび
並
単式
ナー
一郎
邸宅
##エス
愛好
陸奥
##ァ
果
ムハンマド
##かし
##功
スターリン
サンデー
標的
##スン
カントリー
欠点
台北
遣
##ければ
オートバイ
起工
皮切り
エンド
ベースボール
##ｃｈｅ
変異
焦点
##油
##傷
##雨
掲げ
汚
因子
差異
みつ
１１７
ろ
問
ヘン
積分
タービン
初日
##ｉｅｒ
掌握
１６００
告知
ねば
北上
クラーク
##グス
捕食
敗れる
ノーベル
歌って
つもり
##マリ
##税
豆
組み合わせた
途上
一行
##７３
##ｒａｎ
便宜
高まり
降り
セブン
##イズ
和平
アイデア
当て
閣僚
１８６０
##塩
トニー
##サス
自作
##ビス
##虎
元帥
明るい
手がける
立ち上げ
裸
笹
破綻
##選
粗
ＡＮ
ＪＳＴ
住人
返す
生前
秩序
手前
台地
益
入隊
無限
４．
電磁
##九
本当に
和歌
シミュレーション
ＩＢＭ
なき
寄贈
探索
ブライ
競
仮定
実態
包
テネシー
洞
克
##遊
##ＡＫ
無理
補償
縮
明け
黒田
##クレ
##カリ
ダンサー
宅
##荘
##シップ
エリック
ソル
槍
生育
クール
##ＩＲ
避け
深刻な
ナレーション
歌わ
引き起こす
アンリ
ストラ
本尊
伝道
朝日新聞
##態
##銀
過ごす
在来
堆積
供用
略奪
オブジェクト
えん
マネジメント
頼朝
##ｒｉｃ
１２５
吉野
##変
各駅
聖職
リンカーン
ヘリ
アナウンス
露出
宮内
擁護
家屋
##ウェ
バスク
艦船
自称
楽しむ
両側
マレー
シフト
オオ
マケドニア
##ほ
##菌
リスナー
血管
耐え
長谷川
クリスチャン
リオ
意志
ディスプレイ
ライオンズ
覚
９３
シニア
名乗り
助言
Ｎｏ．
橋梁
標識
高温
政界
巡る
移る
アプローチ
悲劇
##合い
盗
見直し
多大な
シュー
必須
ちょうど
##店
まとめて
閉店
猪
##ほう
最上
不動
高地
有し
欠
##テー
##影
##皮
体調
耐久
ラジ
作動
属した
##リッ
好み
メイト
司祭
げん
１１９
自由党
探し
注
##録
領事
最寄り
救急
分かって
含める
綿
天下
車輪
ナン
##ＴＡ
投下
##備
多少
天候
歌った
シード
難民
ねん
襲わ
１８７６
指数
ＤＤ
西暦
染
ノベル
体力
隠し
直ちに
上がって
フランツ
はる
##敬
許
土器
写像
洞窟
##込み
ファル
月曜日
塗り
ギャグ
除
##半
水泳
尿
モジュール
##当
談
箱根
色彩
マンガ
##＝
##ＢＥ
##刻
##岸
図ら
改築
親善
づくり
否
##乳
ペルー
大学校
##庫
##リーン
進水
武蔵野
##セイ
季
##０９
○
拝
りょう
招き
ドメイン
ないで
テー
つれて
９７
客室
動く
起きて
##０１
橘
次郎
衛
象
済
アール
さらなる
与党
基幹
征
歩道
難しく
書簡
ＨＯ
突
鄭
マンチェスター
ミックス
医科
偶然
供
ハインリヒ
運ば
Ｓｐ
##ＢＯ
##温
注釈
交付
たま
申
一橋
威
Ｌａ
終わって
三郎
現職
ＡＦＣ
伊東
アフガニスタン
ホット
導
ボランティア
成し
筋肉
佳
##ｉｕｍ
渡った
正室
##茶
京王
##航
##脚
書房
ＩＳＯ
大津
##糸
シルバー
ＮＦＬ
ウィルソン
##エイ
魔女
コッ
緊張
応じた
プレーヤー
不在
支える
１８８２
名人
みや
天気
先代
拓
はじめて
グローバル
萩
火力
##辞
ＴＤ
滑
授
グッド
えい
アルバ
ライオン
ワークス
もはや
浸透
知的
のりば
頑
集英社
グロー
##立ち
増えた
##ＬＯ
間接
占め
援軍
##ちゃん
##須
優位
バルブ
ヴォル
実証
１８６４
祖先
逸
告発
繰り
ハードウェア
詞
飯田
ホークス
付随
春日
ボーイング
じん
囲碁
複
重い
緩
改札口
忘れ
##那
##ルフ
硫黄
途
復旧
手続
求
ヴィクトリア
##っと
返
町域
抽選
有罪
損
殻
##ｐｅｒ
ＲＯ
一角
ユニオン
ポンプ
間違い
嫡男
ヴィー
★
##ジオ
話して
ＩＳ
どんな
スキル
育ち
##付ける
豊富な
降水
おおむね
繰り返す
##サウルス
重傷
マニ
１８７９
抑える
八王子
##サム
親しま
市議
軍艦
##酒
##７００
目指し
食堂
##周
ブリッジ
ドライ
その頃
後輩
伝えて
書類
##ＢＡ
生きる
拳銃
英文
こうとう
広義
具合
中小
##かく
目立つ
大幅な
めぐる
##ぽ
９４
ブレイ
大敗
調節
文法
##支
訪れて
流さ
ルーキー
急遽
##父
瓦
##農
トロント
ヤクルト
集積
側近
立憲
可決
やってきた
重要である
律
##ｉｎａ
##チア
１８８１
##ｏｒｔ
主権
抱き
恐竜
##詞
キエフ
支え
紙幣
Ｇｏｏｇｌｅ
渋滞
特有の
あさ
集まった
小島
埋
ドコモ
労
世間
バンダイ
青い
##素
代謝
##なし
変遷
筒
##脈
##ｏｒｅ
醸造
降
東武
ＲＡ
常陸
拒絶
日程
吹
圭
集まる
ハリー
防災
献
測量
欲しい
半径
動機
荷
タイムズ
##剣
免
ＡＫＢ
##然と
氷河
冷房
写
ハンター
売
##兼
##額
採
##わって
１０．
##宅
ＰＶ
神々
１８７４
ぐ
鑑
破産
遺構
チュー
##ひろ
センチメートル
パキスタン
カウント
##ッタ
##リク
##ｉｎｔ
エージェント
##液
追求
原稿
優秀な
##ｒａｍ
##シオ
兼務
営利
婦人
##リオン
ミシシッピ
##たく
放った
絵本
げ
割引
##巣
セールス
復讐
再選
##習
婚約
執政
１８６２
首脳
チケット
暮らす
大久保
宇治
阪
悩ま
いたり
全曲
増える
付く
留まった
開店
##ナイト
天王
カタ
呂
哲
モーション
##ｓｉ
勅
アンナ
##黒
超人
階層
##四郎
連敗
##問
踏切
奈
ぐん
人文
際し
名づけ
フォーマット
束
決まって
常勤
完
喫し
掘り
##ョ
##浪
複雑
##退
ミッ
##ＡＮＤ
##若
映
計測
闘
Ｒｅ
中毒
０５
反論
高木
管制
ＥＣ
名声
たん
整数
径
蓄積
##クタ
１８７５
高度な
##ｄｅｒ
俗
１８７７
感じて
##ＣＤ
狩り
##央
ＦＷ
ミシガン
感じる
育った
どのように
ＩＶ
背中
的であった
グッズ
決断
##じた
##属
危険な
##略
##姓
フランクフルト
注文
詳細な
渡さ
逸話
グレー
グラフ
講和
##弟
払い
##ＳＯ
松田
Ｌｅ
デトロイト
内海
淡路
ウェル
##騎
Ｂｌｕ
##ｏｏｄ
小泉
ガールズ
##ダス
情
ヴ
操
諸説
日活
ネイ
##а
##ＤＳ
昼間
##害
しまって
マジック
東端
##軸
ライナー
各々
ショット
序
越前
徴収
侵害
##á
総数
決着
新生
##ヴィア
カンザス
全土
ハーバード
##ＵＥ
新興
練
名乗って
##ヴァル
バリエーション
合わせる
奪還
##ローズ
売買
アリス
襲名
いけ
##ｃｏ
不可能
築か
別れ
領有
容器
##回り
３５０
人質
破った
媒体
旅館
寛文
ヒューストン
テイラー
##ＩＡ
シベリア
優れて
##晴
旋回
川上
つづ
関わった
預
アーサー
アピール
いけない
先駆
##垣
炭
ＢＯ
川口
慣習
木製
エントリー
収穫
##休
天神
陣地
似
##張
##仏
干
麓
工学部
墓所
孔
##客
青木
出家
涼
##ＰＣ
水源
ギル
キャン
ボーイ
寄生
増設
##げて
禅
デッキ
コーラス
組ま
かかり
グラビア
パシフィック
法的
貸し
叩き
想像
恭
##リャ
##，
才
武力
思考
動詞
不全
わから
##ＳＤ
##ハラ
らしく
捕らえ
基づいた
家畜
まん
##宏
アーチ
旭川
民事
謙
稽古
功労
永久
解明
ＭＢＳ
ブレイク
上限
曰く
ブッシュ
アントニオ
ｈａ
ダグラス
すると
正統
母艦
パンチ
答え
式典
１８００
か国
##ずる
遅
ウエスト
琴
##チョウ
##ＭＰ
１８８３
ボウル
発する
##校
高かった
１８６３
行進
燕
中京
##ｓｉｏｎ
##庵
麦
##祐
動向
##國
介護
##いたり
##えば
##鏡
²
封じ
Ｕ−２
持続
##セット
回る
道徳
火星
パレスチナ
熟
北端
自立
##孫
切り替え
鎮守
##舟
霧
##ｖｅｒ
なくなった
懸
ヴァイ
官房
スピン
マスコット
主席
##じて
##因
ＯＶＡ
処
重大な
手がけて
一揆
垂直
分から
下関
取り入れた
##存
特筆
##胤
##読
対岸
演
ハンドル
かかって
王室
オファー
始まって
車輌
就く
エンターテインメント
##フラ
トゥー
##かる
ā
ヘッセン
前橋
９．
##導
##ＴＲ
##指
ビクター
普
石垣
ターゲット
##ａｔｉ
感じた
フェラーリ
実務
陰謀
東大
人格
##ｕｓｔ
所管
いつ
##級
主将
誘
戯曲
スティ
石器
伝記
ふじ
かた
半数
##飯
曲目
ＨＰ
世論
招か
##ぬ
ウン
ローン
##敏
彦
つながり
##青
有無
##商
##陰
しき
哺乳
属性
２．５
##クー
ケネディ
##ピア
左派
トルク
##レート
座標
任官
##澄
サッ
瑞
ガーデン
暴動
１４０
##９．
名乗った
公民
朴
はん
桐
##Ｃｌ
##スパ
##フスキー
ゴル
裂
視察
ジャー
タイミング
牧野
大砲
保育
オリックス
アルファベット
砂糖
６，
##５万
原始
パロディ
適合
##ローン
大塚
バブル
##ＩＭ
##ＧＯ
置
##ｖｅ
##マール
##ＴＨ
生じて
拠れば
##付けて
毎日放送
景気
造営
特権
##奏
名門
##初
##尻
棚
商船
追撃
測
民国
乗る
裁
とく
祖母
みどり
ロール
威力
##ｉｓｓ
##転
小松
レアル
##けば
近接
大谷
##フェル
地盤
浴
大田
##ジャン
ペイ
液晶
挨拶
行える
もたらさ
双子
泊
入会
ヌー
##マニ
２，０００
集まって
１８６１
迎撃
紅白
##不
ナトリウム
##ロイ
当事
アレクサンドル
全集
ＣＲ
ヴィル
仲介
塚
##氷
遂行
広東
イヤー
アグ
女の子
育
##ＢＣ
刻ま
##モンド
##固
危惧
腫瘍
##ｆｆ
##籍
先祖
模索
Ａｎ
駆
有人
ＩＮ
##もの
クリー
ムービー
立てて
##継
三好
取り扱い
ＳＭ
春秋
９００
Ｔｗｉｔｔｅｒ
反面
原産
##ライン
辞
ＥＤ
Ｌｉｎｕｘ
センチ
松井
少なかった
##ｂｅｒ
少尉
合金
冷戦
##威
腸
必殺
実写
明らか
見学
アルバイト
##かな
最多の
Ｕ−１
ループ
役人
ＷＷＥ
ランダム
営
挿絵
専
大王
賞賛
書物
##止め
手掛けた
ペー
##ヨー
##ｏｓｔ
##ＴＥ
現金
辞典
Ｂｅ
産出
留まり
デバイス
没収
逃した
斬
カテゴリー
##修
##なる
大内
ウォル
##帳
ピア
佐野
断絶
##笑
ライフル
立てた
みた
放つ
ビーム
カロ
移し
寄
##演
##Ｃｏ
如
##剤
ＳＵ
小田
セキュリティ
サンディエゴ
後援
ポスター
僧侶
抱いて
##書き
硬貨
吉川
##衡
船橋
きょく
プラスチック
##Ｔｈｅ
依
防空
##げる
和名
電撃
##麻
取扱
ワイルド
王女
エンジニア
柴田
横山
ワーナー
##ｕｎｇ
統
窒素
住吉
ホッ
##トゥー
世話
ＡＡ
体長
１８６７
##オール
フォース
ハミルトン
殺し
ナポリ
崖
晩
スペクトル
院長
吐
ジェリー
##照
選び
ポルノ
させ
苦戦
はずの
ロードレース
##ムズ
紀伊
##コム
始動
生まれて
生理
スポ
なされ
放置
転じ
公衆
休養
エクスプレス
##ＦＣ
入り口
大社
##セス
中尉
分ける
##メー
指標
役場
##秋
アパート
教官
##ＩＯＮ
円形
チェン
ＪＲＡ
合体
尊敬
##Ｍａｒ
##邦
サウ
借り
##ウト
嘉永
アリゾナ
芽
ＵＳＳ
##ＡＹ
考察
借金
麻薬
プラハ
菩薩
コンピューター
樹木
プラザ
シンガーソング
小沢
グラス
線形
##ｅｋ
慢性
煙突
川越
水田
携わる
遅れて
原田
国旗
ニコライ
Ｕｎ
魚類
特色
##ディオ
免除
特異
シチリア
水面
去る
インディーズ
国語
##ｔｏｎ
ヤマハ
##ヘン
##ぱ
浅野
けど
１８６５
マンハッタン
天国
連立
ｚ
マウス
今川
##ＩＬ
馬車
烏
片側
蕭
曹操
##歯
世田谷
石原
北極
ナチ
##題
志向
出航
モーニング
改組
デス
んです
##脇
させた
上旬
ギャラリー
##協
天才
型式
右手
##注
採取
見舞わ
水野
有馬
##ｙｎ
ガラ
バッテリー
簡
漫才
射程
##ステン
所要
０９
石田
菊池
ブロードウェイ
オーディオ
桃山
##ソウ
熊谷
大地
潤
##珠
田園
安田
##１００
##ウィン
等しい
ピット
##ｉｇｎ
改定
一例
鐘
木曜
ザン
爆
後楽園
##句
成熟
外来
##ａｓｈ
##徒
明石
運び
##向き
親族
駆使
##ステル
##封
##破
指し
##値
##伯
めぐって
オットー
系図
歌謡
常時
動脈
太鼓
負った
ショウ
ビートルズ
アシ
王家
マット
信じて
##想
##我
運送
ミステリー
はず
ミズーリ
抽出
進撃
##ぷ
豊橋
まい
難易
築城
##症
製薬
ファミコン
宛
##鬼
高麗
勤
終えて
課税
習
ヤー
犯行
陶
##−３
ミネソタ
刃
元来
極東
除外
揚
とどまった
ＬＥＤ
ひら
##罪
##ヌー
答えた
パンク
不要
違って
制した
##ｉｃａ
条項
樹脂
激怒
##ｔｒ
ワット
固体
予報
ＩＤ
諸侯
五十
札
尖
起き
曽
Ｍｋ
固有の
##ａｄｅ
伊予
花火
ニッポン
大友
決まる
Ｉｎ
多目的
##ぼう
##らす
ヤンキース
Ｋ−１
##ぞ
コロラド
超え
宝暦
穀物
もらい
あげて
備
祭神
播磨
換装
神道
そうに
##ａｒｅ
ストー
植
使節
部員
法政
##３００
嫌
目黒
戻さ
メダリスト
券売機
意義
##嗣
れん
移設
応じ
通告
りん
立た
舌
スタンダード
##ベイ
##о
あらかじめ
産駒
溜
リース
保つ
シロ
内装
ＣＰ
仰
監修
スケジュール
篤
##ｏｌｄ
再発
ぶん
ナイター
##めよう
##亜
アルミニウム
参事
オルガン
##ｍａ
あたった
主翼
Ｄ．Ｃ．
予言
ユーザ
でん
##ＭＩ
武家
玄関
頭文字
##得
##Ｓｐ
オレ
##僧
公布
##麗
ＤＣ
心配
巡回
信徒
##ラク
離れる
野外
東亜
誘拐
つながって
レジ
##豆
マーケティング
面して
同等の
娯楽
インディ
ストレート
くら
蓋
主人
セラ
控訴
亜種
単体
ＧＭ
リバー
ジョセフ
##難
聖母
現れて
ばん
国営
逃走
救う
最新の
##揚
##ＩＧ
異なった
有力な
Ａｄ
承
##禄
直営
造成
アーム
幼児
パレード
封鎖
##尚
バンタム
取り扱う
##掛
藤沢
##渓
特番
国体
重臣
##ベリー
漏
汎用
支払う
遺族
ようだ
バイト
本願寺
原発
ゲリラ
スーツ
##切って
ＳＬ
ブロー
通知
待機
大関
クハ
断層
##引き
骨格
##著
変えた
趣旨
破損
飾る
##候
アベニュー
ヶ月間
下野
指向
爆破
かず
##６００
擁する
正しく
出血
本物
俳句
著した
##斗
選帝侯
徐
##梨
郭
##２世
０４
羽田
##刊
##イー
つれ
フランソワ
湘南
宣教師
電機
源流
堤
混雑
位置付け
ともない
##合う
祝日
のり
成年
##ｅｎｎ
##ヴィッチ
湾岸
ＳＩ
以南
タキ
大井
フォーミュラ
##しゅう
順番
処置
留
リッ
困難である
##ロック
##シュタイン
キャッシュ
立川
機銃
##ハウゼン
##ールズ
タバコ
改めた
公職
１８６６
摂政
絞
わかって
凝
重奏
鮮
##労
掲げて
灰色
##グレ
いったん
０６
改宗
##ッター
垂
麻雀
##首
転送
つな
##ブレ
読
種族
生体
オックスフォード
男優
０７
##二郎
アップル
一面
肌
ＰＬ
代官
ラインナップ
町立
長調
郵政
優勢
フラッシュ
##ｏｌｌ
買
八戸
ビリー
フェザー
##せば
##スティック
平地
異名
真理
達して
検事
##ガム
ｊ
暴走
友達
マーシャル
ｍｉ
##ッジ
耕
１８５０
回線
那覇
生年
##嘉
##ａｒｉ
模した
ゴジラ
撤回
##打ち
定めて
帰る
##パル
ジェイムズ
キット
布告
真空
ＤＯ
もうけた
鉱
馬身
西村
扱って
アレン
僅か
歓迎
遡る
造形
てい
府中
##ールド
累計
占拠
ミュー
５．
南下
運ぶ
したら
ＮＡＳＡ
滅
置換
導いた
公的
舞踊
ＹｏｕＴｕｂｅ
ノースカロライナ
のであった
##円
農学
設ける
セントルイス
##づ
民法
イラ
数千
##ベルト
遅延
##えん
デルタ
鑑定
愛国
##げん
兼ねて
Ｄｅ
低減
ケンブリッジ
収束
０２
喧嘩
精力
秩父
##己
一説
徴兵
悠
死んで
##のり
率い
教諭
アルバニア
太平
出入り
キム
乗用車
元老
##籠
##ゼー
##歴
築き
屋外
‐
卓
重ねて
探す
摩
余裕
見つかって
研
##もと
##鳳
何の
レオン
倒
添加
##ＥＳ
同様である
宰相
主砲
##きょう
縄文
鋳造
ファイト
ギア
転落
##腸
##丹
##ッカ
語学
メロディ
専修
##貫
婚姻
選択肢
北区
平原
センサー
石灰
ソン
右岸
小田急
ルートヴィヒ
ふる
炭鉱
文久
ノル
ヨーク
器具
伸びる
ルネサンス
鉛
##替え
##検
虹
中型
みて
逃れた
安芸
ニックネーム
民兵
##如
称し
追悼
落ちて
増殖
講習
ケア
病死
##トロン
輝いた
##済
##ＦＩ
古河
ドリ
仮名
ＴＥ
築
墨
資
##違い
制し
絹
ＧＫ
サロン
##葬
本田
ハンス
失業
アタ
##費
##宇
##ｓｓ
ＵＮ
テイ
奇跡
##ネッ
行か
設けた
いえば
会派
##閣
ぜん
左岸
土俵
##願
東山
高野
お前
ぷ
直接の
風俗
西口
##建
届け
佐竹
弥生
携わった
##ＣＥ
ＭＥ
あや
痛み
シェー
ＭＴ
プー
洗礼
菜
フード
ドラマー
原爆
##ｉｃｓ
メモ
インストール
豊臣
宝石
喜劇
笠
誘致
組成
##弱
発作
##バート
誘い
##ウル
##ニウス
##ｏｙ
##アラ
民放
起因
ジェフ
マイアミ
狙い
越え
簡単な
子爵
直流
コイン
山麓
系譜
アサ
##スポ
非常
旋律
推
シアトル
多岐に
梱
##レータ
中枢
半導体
戦果
名鉄
集約
##童
凍結
発現
聖人
魔術
初年度
メカ
正当
組む
サマー
##チャン
渦
点在
転写
警官
集結
笑
さか
本山
疎
迷
##参
##ｌｅｙ
マイクロソフト
Ｈｅ
収める
##てん
頂上
ワーク
##ポリ
最適
続行
つとめた
リュー
##ギン
ドクター
要員
互い
公使
古来
舎
待って
呼
締め
透
駐在
２０１９
##例
エルサレム
##ＴＳ
停留場
１１３
読書
缶
順調に
抽象
木曽
包括
フランシス
属す
##入り
##果
アルファ
局所
##ポー
封印
ソナタ
##ｏｕｓ
射殺
荒廃
安土
ＮＡＴＯ
専務
おと
訴えた
漆
カレー
アムステルダム
那須
##立て
亡くなる
落とし
ユニフォーム
詳細に
しろ
大相撲
##アップ
##クロス
クレイ
太子
１２００
岡本
##蘭
通じる
##がく
##ＫＯ
細かい
モンテ
問い
１８４８
虐待
##ｉｔｈ
ラッセル
シンガー
##í
##グラム
親会社
アイスランド
モントリオール
緊
失脚
倭
##ったら
##かって
望
##ＳＨ
ＣＦ
##炭
起こって
##溝
たかった
之
盾
多項式
好む
ツイン
召集
##ｒｅｓ
ニコラ
古巣
アドルフ
珍
翔
駿河
塗
幕下
##ボル
ＢＥ
左手
##阪
天平
公安
誇り
塩基
負荷
クリーム
##監
傾
##っち
移した
丹波
各種の
##ＶＥＲ
暖
帰り
仕え
スロバキア
罰
あいだ
嫁
ローラー
膨大な
フォート
坊
##ハルト
Ｆ−１
##ブリー
##杯
フォックス
##聴
ホセ
念
取り組んで
フォーラム
荘園
##受
かく
##グロ
##省
通じ
酒井
ＭＨｚ
メリット
マウ
想い
##孔
破棄
殺した
成り
あげる
郎
ＡＩ
兼ねた
ＢＬ
香り
エレクトリック
揺
アポ
##コード
カンボジア
枕
合って
##ヶ谷
ノット
##ネイ
フランクリン
痕跡
始発
浪
##ホー
侯爵
##Ｔｈ
ストック
塩化
##腹
##ごう
盲
儀
拡散
通い
マニラ
劣
ジョニー
及ば
近縁
金剛
依然と
移って
ミッド
アーキテクチャ
遺物
エアロ
バート
##全
急性
##ザール
融資
本多
スロー
スタメン
##アーノ
木曜日
激化
ブラッド
グローブ
繋がる
##かに
駅伝
豚
エチオピア
複製
ニコニコ
##Ｃｏｎ
Ｊｏｈｎ
迫る
本堂
鍋
##岐
ストローク
ダイエー
##遇
青色
偉大な
聴
押さ
じゅん
カタログ
リオデジャネイロ
打た
ロボ
建てた
剥
藍
決
##腫
意欲
掛
添
ステレオ
##ロール
真っ
よば
前部
１０５
カウンター
巡礼
進路
##針
女学校
ヘー
##シェル
西鉄
価
凱旋
概
##雅
サンダー
除籍
##魂
特攻
バカ
敦
ドロ
ＢＢＣ
分断
摂津
意味合い
##ｌｅｓ
中頃
天明
一宮
帽子
触
瓶
疑惑
小児
##ｓｋ
役目
弘前
退却
単発
##紋
マウント
##唐
アルプス
クライアント
宗家
繋
基調
アレクサンダー
党派
製鉄
宣告
３，０００
パウ
加わって
成り立つ
袖
ヴォーカル
津軽
##鷹
四季
##シャル
１７０
正解
代わる
駐留
休刊
杜
##沙
西宮
爪
哀
##吹
封入
招いた
信託
仕掛け
ぜ
##評
##左
真実
館長
##ｏｏｋ
気体
催
詳しい
広まった
抱える
有名に
捉え
殺
除いた
##妃
強盗
イタ
伊賀
王族
禁じ
##飛
##コウ
アシュ
訓
大輔
##譜
工廠
専任
待つ
##ｌｙ
キャップ
##載
壮
##ö
遮断
争う
##俣
##Ａｌ
無罪
はるかに
立てる
嘘
採集
本書
無償
暁
知り合い
スリ
##敵
突如
出陣
リーガ
##フェルト
##ヴェー
困難に
##ａｋｅ
デヴィッド
覆
##裂
尋常
暴行
調子
きわめて
恐慌
分配
ホスト
##炎
遠藤
改変
対馬
引き上げ
祈り
##ＫＥ
ＳＡ
安藤
##ＣＡ
サスペンション
加算
##８．
胴
成す
##サラ
衣
堤防
ハワード
流し
解剖
##デール
あきら
解答
公家
ヒュ
及んだ
##ＳＵ
先述
ロウ
##ぎょう
振る
インディアナ
テクノ
金庫
かね
##づけ
下した
##и
グレン
##ｏｘ
##タリ
アクセント
##露
##ａｃｔ
当社
ＥＰ
勝った
##純
エキ
沿った
ディア
増やす
蔵書
##バリ
##象
校区
突起
マツ
カルタゴ
長老
なされる
トウ
##フー
オレゴン
##衆
ニュータウン
##訓
新党
狼
扱った
立案
ヒロ
受託
均
生地
充
グラント
倉敷
レバー
##芳
鷲
亜科
ＭＩ
プリン
パナマ
かな
島田
０３
ウラン
##焼
##なら
城壁
##じる
狙う
##りょう
アダム
訳さ
##かけ
肯定
マリン
年少
家具
負う
励
##らく
新羅
直結
鱗
吹奏
##ブー
グルジア
未明
見つけ
##モント
##ベール
適した
居城
国々
##ゴス
メッ
##ｅｎｃｅ
訪
阿波
##いん
##かさ
害
急死
未だ
奥州
大国
月間
##バック
柴
日向
フランシスコ
高島
カンファレンス
千代
狭義
戸田
ようで
彰
##ぶん
##ａｉｌ
##配
##ＥＤ
決まり
鶏
もらった
警報
譲り
ファイター
##ティウス
一新
２．０
好意
切る
亡
ろう
##４，
発車
公卿
掲示板
組んだ
的であり
カタルーニャ
ビルマ
プロトコル
資材
いっ
私鉄
刑法
対話
##束
山内
殺す
住んだ
近似
着て
対外
アルミ
アンダーソン
ベリー
##ニカ
革
機雷
##４００
##料
##ケイ
佐伯
植え
ストレス
消失
幼虫
苦労
追って
含み
##毒
薫
##ｃｌ
激減
Ｅｌ
近辺
以北
葬ら
明記
##医
いかなる
後漢
傍
##厳
触れる
池袋
##ホール
アビ
梅田
田舎
##ノキ
教えて
本文
浸
展覧
落ちる
通報
征伐
ウィー
##ｂｏ
７，
藤井
普遍
４万
制式
ＮＰＯ
休暇
分泌
カミ
まんが
新曲
群れ
Ａ−
県民
アリー
ハンブルク
河原
活発
##砂
メロ
##腕
経た
下し
聡
##ａｔａ
見つける
平定
予
##緑
教職
民謡
クリーブランド
閉じ
いん
おこなわ
工房
周回
内藤
タイアップ
和泉
##穴
代用
##防
歌人
政令
##ä
総統
喫煙
消
##稿
参拝
ルノー
サポーター
##ミック
挟ま
##切る
剥奪
##胞
背面
##ンソン
##コール
欲
納入
狙撃
直面
基底
##！
観戦
##丁
##エール
##静
Ａｍ
１８３０
##敷
追う
カメ
##玄
図って
火薬
##２．
卓球
##熊
任意
ネパール
吊り
ニンテンドー
辺境
##Ｒｅ
本家
ブルックリン
腹部
架
##丈
##６，
フレデリック
##磨
ボルト
派閥
松下
町田
導く
合った
格子
喜び
ゴシック
唄
##ＢＬ
小銃
国政
##立った
##皇
國
准教授
##たる
葬
任天堂
セリエＡ
皇室
どおり
鳥居
釈迦
育つ
襲い
繋がり
遂に
##つける
ベネズエラ
枯
ウェルター
町長
拉致
無関係
御所
##１・
マネー
##しゅ
##ＨＯ
##もり
抹消
##恩
セックス
ＮＥ
確信
##範
拾
##ＣＳ
コラム
塊
調和
カラオケ
トリノ
会い
##ｂｙ
コロムビア
##仲
##スピ
モニター
生殖
##鉱
麺
両端
シリンダー
##際
落とした
挑む
中原
ローラ
枚数
アセ
合衆
繰り返して
##ＧＥ
テクノロジー
常任
円盤
医者
奪う
##資
敷
##ｈｅｌ
自家
##ロード
##付けた
ナイフ
##セー
トミー
給与
##苑
過半数
１２．
##さま
アラスカ
##登
斎
落とす
ムーア
隋
幻想
摂
##ボリ
留置
##寒
##ニエ
パチンコ
たとえ
モロッコ
チーフ
ノイ
２０万
##ガラ
がた
詠
ナムコ
摩擦
##幅
組み合わせて
船長
マイン
##牧
異母
アジ
バット
用品
律令
不安定
メチル
注ぐ
面会
配分
規約
軽い
ミッドフィールダー
２０１
公示
##規
商事
西岸
施した
商用
##１万
足り
去って
##旨
波長
語族
委
##為
留守
かぶ
繋がって
チン
##迫
##Ｍａｎ
時折
切手
かか
##唱
##ワーズ
改題
自然の
フロア
戦って
Ｖｏｌ．
##ダーズ
白石
##才
悟
可能であり
温暖
かねて
最大で
参画
評
上層
東口
トリオ
##上げる
剣道
##ｌａｎｄ
バグ
教える
評した
##鑑
遅い
葛
大学生
プロペラ
終日
桜井
##ザル
水深
豊臣秀吉
##共
顎
##條
京浜
コレ
止める
視野
奨学
喫茶
純粋な
１１２
##ＯＫ
潰
ハドソン
服装
不況
園芸
鶴見
つる
５０万
コミ
##顕
母国
フェニックス
官職
透明
就
着任
学芸
##煙
鎮座
##右
道中
河野
処罰
母方
##ヶ丘
チーズ
##伏
小売
##ａｌｅ
調印
##ａｎｃｅ
ヶ国
引き分け
去り
営む
ＢＭ
みち
入国
擬
教義
関ヶ原
聴取
ベッ
##めい
##刑
分かれ
崩
応答
##ビット
畳
##Ａｒ
謝
信任
グー
叙任
高雄
１１１
カウ
ダート
山号
内田
黒色
ビタミン
クラウ
コーポレーション
##抜き
青少年
大映
遠隔
入れ替え
勅令
異性
ペンネーム
頁
##冬
２０２０
ライブラリ
磁
##Ｓｙｓｔｅｍ
宅地
##ニアン
##カーズ
急増
クラン
ホームズ
常設
寄稿
春季
ルーツ
なったり
##コロ
##蓮
下さ
##エンド
好ま
唯
届か
##エラ
エッセイ
汽船
ルイジアナ
製紙
ルドルフ
##わり
高まった
##えたり
奇妙な
伝わって
提督
急激に
伸びて
概要
１０９
告げ
##研
大きかった
山間
面した
リリーフ
明日
庵
籠
収蔵
##くり
##ゲー
当たった
停
産卵
社殿
パーティ
１０３
ユリウス
スクエア
篠
誤って
経費
絶望
手掛ける
##決
ナル
寸前
ピッチ
##じり
楽譜
以て
合法
獲物
##肥
##ｏｄｅ
イリ
インテル
##んだり
##スロー
同等
##サール
バッハ
淡水
##ヘル
延喜
火器
##ｕｌｌ
##ＤＣ
##てい
発酵
クリーク
楽しめる
自信
##ＷＡ
報復
隅
進入
##リュ
こういった
分家
尊重
寄進
ゆかり
エロ
交点
ベッド
レポート
ＰＫ
ＮＥＴ
おかげ
##Ｐｒｏ
鈴鹿
豊島
増備
警
ジル
浮世
西南
奉納
ラグ
ハイブリッド
銃撃
法制
補充
##がって
ウィンブルドン
フェイ
回って
ディビシオン
メリーランド
##暮
確実に
カ月
探知
大勢
贈
秋山
アンティ
ケリー
リボン
罰金
Ｐｈ
対峙
部落
詐欺
利便
ヒー
##Ｍｅ
エンターテイメント
光線
ノーフォーク
はな
##ＧＰ
白河
リクエスト
##ü
セルフ
Ｊａｖａ
金子
##ＡＣＫ
自由な
##快
換
大洋
ボイス
原案
舗装
準拠
最高峰
##ａｎｓ
器官
湿地
字幕
憧れ
反転
##ａｎｃ
不明の
ぼう
全権
##テイ
##銘
讃
冠した
繰り広げ
廃業
助ける
南朝
探して
ハット
##厚
フィー
忠誠
臣
ユネスコ
儀礼
ラフ
ビート
断片
ＪＡＰＡＮ
##ローラ
##７，
樺太
奴
舞鶴
及ぼす
##券
転身
ＡＦ
手掛けて
フリゲート
御用
ＢＯＸ
モーツァルト
##裕
肘
窯
難波
クルーズ
待遇
サミュエル
遺言
怪物
好んで
治水
放ち
##ビュ
事変
つくる
アレックス
モリ
極端に
##ａｅ
ルター
異例の
毒性
ホン
##設
##ＴＨＥ
##ポール
北口
読んで
##ｉｖｅ
##ニウム
##ＵＭ
##おり
屈指
飛ぶ
真相
リバウンド
最高裁
無名
##がり
録画
邪
##エロ
固め
外伝
中古
艦名
借りて
纏
アンドレ
落成
ジオ
郡山
代役
特例
わけ
半球
存
##ニル
エム
朝倉
戴冠
桓
スティーブ
ＬＯ
チェル
基質
日清
##ウェア
##夢
とも
鴨
滞
薄く
##ボウ
打ち切り
浜田
最速
大森
ゼネラル
稀
わかり
ラヴ
出世
本館
##です
分化
崇拝
採ら
##婦
##ｍｅｒ
水分
幸福
小樽
田辺
担
##Ｂｅ
じょ
積載
##自
武術
##ｏｈ
##ごと
奉仕
##十郎
ＣＥＯ
##祥
地裁
##審
共用
帰投
建って
##陀
水曜
##小路
フォーム
西端
死に
取り組む
スロベニア
三田
みず
騒音
手順
迂回
土砂
Ｗｈ
##策
構え
通し
##増
女流
一見
チェコスロバキア
手塚
ドナルド
ジャーナル
##フォー
清朝
##でん
ブラザーズ
伴奏
旧来
てつ
オペ
好きで
あえて
賛同
従属
志摩
タラ
接収
狭く
デイリー
ぼく
陥り
##緒
実権
南口
次期
地価
調停
元和
破る
炭酸
鉱業
呼びかけ
観念
直列
日本橋
##Ｐｌ
新造
##覧
駿
##階
##ブン
ディフェンダー
ファーム
細い
蒼
まさに
##払い
江戸川
##ソス
##ワース
##ｋｅ
食物
十三
ペトロ
特設
##ワール
ＶＴＲ
##ロット
燃
##ワーク
##察
必
##ビエ
以って
持ち主
右投
コウ
ワルシャワ
知能
スイ
まとめる
風土
フォト
換算
曜日
使え
Ｑｕ
特記
ゴン
１１．
ピク
##投
進言
大別
バーデン
狙って
マツダ
##ＡＴＩＯＮ
臭
せき
セク
獅子
終え
上皇
中田
容
浄土
見込み
惣
乗った
つくば
##健
地表
減らす
１８５９
国府
脱走
撤廃
ギャング
住職
寸
ケベック
##ｑ
ルーズベルト
中堅
受け入れる
磐
次回
密着
有志
##始
１８５８
##イラ
釜
松尾
パラメータ
ヘブライ
ジミー
##屈
電信
硫酸
尼崎
転移
ドラッグ
マジ
実に
預金
密かに
ヴィン
##ショウ
愚
図り
赤坂
不思議な
織
ＬＰ
名残
繰り返さ
通訳
しっかり
つくら
増刊
ケープ
##網
西郷
右派
##タケ
アップデート
受け取った
ＧＥ
##やかな
##ッティ
支出
##滅
Ｍｉｃｒｏｓｏｆｔ
３．５
チャー
##シュタット
打つ
オーク
倒れ
情熱
##境
##こく
劣る
作物
あくまでも
##ＹＯ
##きん
ヘクタール
守ら
ハプスブルク
計量
ゆめ
セリフ
トライアル
ＮＷＡ
掲げる
##フレ
婚
##ＡＺ
##々と
##トラン
最強
後続
##雷
バルカン
祀る
アミ
##棒
##庄
キロ
１５．
回帰
〔
６０００
立ち上げた
細長い
入党
持株
学級
２億
Ｏｐｅｎ
リミックス
サザン
収納
##寛
〕
イニング
無事
##途
財閥
慕容
装填
出兵
##さき
##ップス
父子
教鞭
集配
子音
傭兵
マニュアル
マック
テナント
〒
ＲＯＭ
切った
##ハル
１３．
速い
##ゴール
素子
##ボーン
辺り
同点
胞子
弾道
##マツ
##奇
結城
##インズ
栄誉
落ちた
##震
##ｅｍｅｎｔ
##いに
ばら
堰
准将
Ｍｙ
県庁
睡眠
意匠
##ツキー
幼名
従四位
ベテラン
##索
レート
##財
##上げて
寺社
ボイラー
本郷
ヲ
コネチカット
みなみ
収めて
過ぎる
１，０
援護
訴える
流派
ハッチ
カルシウム
電灯
エピ
ｒｄ
水曜日
くろ
クリミア
##息
暗い
##分の１
含んだ
知行
##とも
オークランド
過ごし
##ミア
素晴らしい
支払わ
１８４０
穂
入部
##ｒｉｓ
実数
代打
名付けた
体格
世襲
##ＣＭ
招く
分かり
海運
売ら
テレビジョン
フェイス
好調
平方メートル
##ミール
踊
適して
##ビング
##ビュー
慈
明和
出自
８．
ロータリー
棘
巡航
風呂
離党
今井
##ｒｉｇ
総監
豪族
広州
離陸
##滝
##チル
バンコク
ジェン
エフ
シューティング
感動
##ｓｏｆ
次長
Ｓｃ
話者
自伝
ＩＢＦ
わずかな
##Ｉｎ
##琴
Ｐｒｏ
旗揚げ
同志社
伴
クリスタル
バンクーバー
高岡
番付
第三者
逝去
栄えた
##イツ
静止
##尉
##第
的だった
多額の
近海
寝台
薬学
支所
Ｊａｐａｎ
##袋
別府
山陰
打数
##つく
動かす
ａｕ
押す
チェロ
ＢＢ
囚
迫害
##きゅう
あお
監
盛り込ま
抱く
低地
##ぞう
##アーズ
##練
貼り
##まい
特命
抱え
移す
なれば
安置
単一
掛けて
はじめた
##８，
しょうがっこう
貯蔵
至り
シェイクスピア
ムーン
##ａｔｏｒ
撃
##芽
様な
城下町
ジャマイカ
楽し
デイヴィッド
##２万
フィクション
腐
うら
わたし
処女
発想
シールド
切って
ピッツバーグ
アルバート
１８５４
レイアウト
１１６
##オブ
目立った
過剰
##ＰＯ
許容
##ｓｃｈ
##添
白山
##キャ
松浦
担った
学んで
##峠
甚
歩く
デッド
シラ
蝶
議
マーガレット
告げる
##寮
アンドリュー
直し
貯
ロジャー
##スラフ
施
兵役
召喚
艦首
事象
モスク
##計
次女
##ｒａｄ
本町
##キュー
往来
高圧
プリント
模倣
ベストセラー
ディビジョン
べきで
木星
伊丹
パイオニア
ペドロ
エール
知れ
ボーイズ
わか
止
ケルン
ティン
##拳
ベネ
井戸
##ぜ
クラフト
関税
##ａｌｄ
ダンジョン
ゆっくり
次第
常連
磁場
まつわる
長安
##チェン
エストニア
託
くり
尚書
電荷
##取る
負債
祖国
##放
促す
火曜
濃い
ノード
おも
##ＥＮＴ
陥る
ＧＨＱ
招いて
フック
外さ
天津
結核
ペリ
芦
疎開
ＦＦ
四日市
##ＥＭ
瞳
##夷
発刊
生んだ
憂
倒さ
##いき
入ら
入選
##的な
##リズム
５，０００
##銭
願
囚人
２００万
赤外線
ラス
強かった
のび太
五郎
可能であった
##ッキー
ネコ
献上
##１．
レバノン
補完
刻
Ｍａｃ
##シエ
ゲルマン
脈
のう
松原
覚醒
同居
山手
ソロモン
##ぴ
お互い
ン
さら
過ぎて
人体
飛躍
見つかった
褒
##９，
##しか
範
望んで
尾崎
あつ
##査
ニール
ストライキ
カープ
黙
知人
地主
別荘
病理
##ｕｌｔ
こなす
##ギア
定かで
ベートーヴェン
弾頭
常磐
つながった
梨
見えた
エンタープライズ
蒋介石
６．
名物
実体
##リアー
ディフェンス
門人
エリート
真言宗
フアン
隷下
うん
日高
##Ｆｏｒ
等級
祀ら
家電
ホルモン
##かす
すぎて
酒造
もっぱら
##コル
表情
戻す
一色
夜行
おん
出動
##ｅａｒ
##回
ぶつ
開花
定時
莫大な
ヨハネ
人称
明示
釜山
知らせ
内野手
##プトン
Ｆｒｅ
めの
##／
協
年俸
１０２
##ハム
##けよう
中流
洋画
クリエイティブ
##ピング
ＡＫ
クラッシュ
稀に
アワード
マニア
ついで
コロニー
##総
ブリテン
帰郷
格差
多彩な
##強
削
寧
スラヴ
翻
カリブ海
紋
にくく
##ぁ
震
貧しい
##鳴
##スリー
尾根
終焉
##張り
初出
大神
リットル
##５，
寸法
##ションズ
移送
交互に
萬
搬送
##楼
コリン
釣
翌月
ルパン
##е
##ドス
臨んだ
ナレーター
潜在
渡し
攻
崩御
##Ｙｏｕ
洪
キリ
サイエンス
ローレンス
##ツー
却下
コーン
ミュ
一躍
##ガメ
示
メンテナンス
ハンドボール
刊
慰安
アルジェリア
レス
点数
文禄
山東
##刺
調べる
記念日
ゆる
硬式
吾妻
トヨタ自動車
##詩
４０００
トレーナー
##分け
撃ち
ＮＰＢ
平家
祭祀
転居
受け取る
助成
パナソニック
友情
多重
迫ら
リサーチ
火曜日
食べて
広がった
奪った
##識
通った
大村
断面
組み立て
並列
おおよそ
宮中
##従
ファミ
隆盛
##収
北魏
中高
脱落
疑わ
有効な
ひろし
村田
##釈
インフラ
衣服
バロック
星野
圓
フルート
子役
支えた
遅れた
スマート
##ｓｃ
在職
旧暦
リバ
オバマ
嫡子
混在
ＬＩＶＥ
##裏
如来
企
##リコ
##ＬＳ
##がわ
##眠
宮本
ニューオーリンズ
ブッ
##かわ
博した
##×
絵師
８，
緑地
##Ｗｏｒｌｄ
早々
久留米
##コア
団長
妥協
##浩
協調
はく
片方
プライベート
思い出
掘削
##レンス
##ＬＡ
荻
釧路
ピュ
コマーシャル
不明だ
##ｏｗｎ
ミャンマー
##レム
##オリ
スティーヴ
美容
性別
｝
浅い
ハナ
##攻
石橋
読ま
オールド
頂
ロベルト
##堤
##鰭
リンゴ
脅
祈願
枠組み
接合
稼動
傑作
発案
奇襲
##粉
ＷＢＯ
でしょう
##適
開閉
白鳥
裕福な
ブレーブス
円筒
##標
答えて
##えい
兵員
部数
軍需
Ｆｌ
デジ
ウッ
トランプ
不法
##ｅｔｔ
航
椎
アダ
払
ローリング
引き継ぎ
祥
末端
大同
武帝
たけし
アンケート
取れ
セダン
ベラ
長尾
##精
宝永
努めた
サンプル
ウラ
真宗
ウルグアイ
赴き
##抄
のです
尻
ダラス
##側
各所
１８５５
珠
義勇
含有
足立
##ヒト
目録
##込む
可変
授け
##てて
一因
##ベリ
ＨＥ
丈
渋
ニック
パトリック
八幡宮
サクラ
著しい
疲労
スズキ
プリンセス
上洛
##らさ
##ＡＳＴ
##ｉｎｏ
チョコレート
架かる
肺炎
じゅ
支障
台本
合作
提言
本当の
アタック
ヒンドゥー
すみ
踊る
##篇
##邸
三十
除けば
メカニズム
コラボ
担保
終える
理学
##ぃ
唱え
けんりつ
ｒｅ
海面
食べ物
蝦夷
##泊
##ｓｔｅｒ
灯台
鳥羽
ＮＥＣ
北緯
##アム
喉
名簿
クリントン
ボヘミア
いかに
##ＥＴ
ぐらい
操業
##らして
忍者
旅客機
##ｆｌ
稲荷
発し
たった
##えき
ひょう
出羽
薬師
ボイ
パズル
##ミス
靖
##蓋
拍子
##ＮＯ
カスティーリャ
即座に
##ＰＡ
公転
巧
推力
##入れた
遊撃手
端子
１０８
##ッセ
受注
称賛
苦しみ
相模原
つくり
末裔
携わって
せたり
##止
文脈
麻生
ツァ
フン
インド洋
アルト
匹敵
##燃
誘わ
フィッシュ
賀
避
閏
拷問
##リーグ
ラング
##ポリス
低温
##イタ
望ましい
楼
機密
承諾
賜
隙
エーカー
##箱
通用
新井
##要
複線
チャーリー
算出
新築
##ａｉｒ
克服
商会
桑
##ギス
発光
##伊
後進
いし
ファクトリー
##れん
凶
勝者
##が丘
##ｙｓ
##霧
ヒッ
鉄筋
##カップ
矢野
##汁
反省
死傷
ヨーゼフ
##ゲーム
供養
Ａｎｄｒｏｉｄ
アーク
灌漑
テオ
晃
サンパウロ
伯父
分校
開港
イヌ
投獄
見受け
##ペー
称
スライド
ｍｇ
３０万
##負
着目
抑えて
マスト
アミノ酸
##トウ
##警
澄
##ねる
##ユー
##イア
大差
ヴァージョン
##☆
ぞう
##繁
貰
ペーパー
##筒
##述
##ｒｏｍ
１９０
閉館
サーバー
ＯＢ
##りに
クレー
スクウェア
仕える
明かさ
格好
還
遠い
マクロ
紐
秋季
勝手に
##烈
両軍
岩石
##ｆｏｒｍ
短調
ゴードン
梶
##限
反響
７５０
取り戻す
アメ
飛鳥
下級
Ｖｅｒ
##ａｂｌｅ
コナミ
##ングス
ヘルマン
打倒
補正
Ａ．
四方
返上
代理人
アロ
カレ
西区
まと
じんじゃ
のうた
高額
怒
フライト
食材
他者
##梅
##ａｘ
##至
##ａｎａ
屈
選んで
初等
##リッジ
##弓
Ｏｒ
浴場
レッスン
ｒａｙ
大破
##ａｒａ
算
培養
リック
転じて
血統
Ｎｅ
永井
麻痺
レーニン
##せつ
遭い
##エム
時空
有利
村山
粒
##５０００
囲
##レーター
付着
揃って
サウジアラビア
百済
行き来
灘
##ニュー
##イング
史実
薬品
ノイズ
##千万
ふるさと
０．５
狩
愛人
Ｘ−
##ラール
版画
##訴
詩集
楠
##ソル
提起
ファイターズ
メーター
連行
ＰＯ
ا
##カール
カプセル
因
北海
休憩
圧迫
膨張
高句麗
##ナーズ
据え
竹内
議事
ウラジーミル
ウォーカー
ボルチモア
広瀬
きり
命じて
##ＩＩＩ
カセット
そういった
##マラ
流す
運転手
棄権
弦楽
##ベラ
理科
送電
##やす
定番
交配
##卒
屋上
ＣＬ
原点
##ジェット
リポーター
ひがし
##ＫＡ
妖精
親戚
グリー
雷撃
さわ
##ＳＬ
##環
##植
森田
看
打診
逃
##免
菅原
##育
回し
１４．
十一
疑
##包
守って
ラスベガス
##切った
奄美
恐
ニュートン
世俗
燃費
##Ｌｅ
##н
突出
巡り
支局
クライマックス
通話
絶賛
諜報
美人
急進
こども
洛陽
陽子
上越
キス
アカウント
サヨナラ
産物
仮に
アウグスト
松江
単純に
目次
１８５７
批准
幕内
列挙
屋内
##ＢＳ
肥
委任
##りつ
##顔
鎧
ドレス
##クロン
レイク
理工
試みる
サンド
##ドウ
活発に
全滅
施策
牛乳
架け
##貝
未遂
サンクトペテルブルク
ゲン
ワゴン
ウイング
コム
Ｍａ
コンサルタント
致命
上る
##雀
容姿
真田
退場
安永
例年
極限
売春
##ドリー
アポロ
返した
流動
##のう
##キンス
可動
ミシェル
Ｗｉｉ
浸水
##異
##ゴル
たばこ
アトラクション
ディオ
従兄弟
オフィシャル
造語
ＡＧ
蹴
がく
メイク
##湾
スワ
ＪＣＴ
歌曲
飛騨
過激
何とか
鯨
##ぎり
明るく
ネルソン
すい
対局
覆う
##Ｍｕｓｉｃ
##エリ
最期
一括
オラ
論者
斉藤
自然に
##リアル
##銃
ポピュラー
騎
公式の
南区
リタイア
築造
仇
##ＵＣ
恐れて
セメント
Ｘ線
雇
カーン
公明党
##メラ
まれに
ブリュッセル
##紅
富田
カヴァー
##グマ
平田
対面
##結
早くも
推計
ジオン
進ま
１，５００
語彙
ウォルター
生誕
話した
##ｉｅｎ
騒ぎ
歩き
グスタフ
１８５６
ちなむ
抗体
若年
猟
物流
##頂
出題
ＶＳ
金色
##Ｂｏ
制裁
一層
麗
待た
１８５３
遷
ぴ
##ワル
兼ね
再戦
胆
##齢
互
##貨
ウズベキスタン
テリー
原画
##返し
法定
フレーズ
手数
立命館
スケ
砕
##耳
啓蒙
向いて
いちらん
弱点
大江
盧
給付
##ＥＬ
Ｂｌ
なれ
Ｃａｒ
こんな
##アニ
決済
告示
##ミニ
庇護
ください
戦法
工法
ベーシスト
従った
木下
##販
逃れる
ｐｈ
ヴォー
##桜
パーソナル
輝く
##核
いじめ
##況
##テレ
ジェファーソン
##ヴル
商号
乗せて
減速
変速
##爆
アト
そうな
イーグルス
都営
市制
筐体
規範
##ぜん
スカート
平衡
オクラホマ
名跡
神秘
ホウ
対比
遼
澤
前衛
会う
出向
まり
移
チー
畠山
気分
宗派
レーン
弱く
##侍
碑文
日本書紀
帰属
体積
##幹
重ねた
ミスター
深刻
良好な
まるで
蹴り
##送
ビュ
野戦
英称
##ッパー
##ばら
##尽
母校
ピラミッド
ＥＭＩ
##ＴＰ
合衆国
##そく
ヴュルテンベルク
鳳
民家
歩いて
##５０万
スローガン
慕
報じた
##承
古川
青銅
始祖
デッ
王権
##ポル
布教
キーパー
辞書
４５０
分かった
とん
織物
給油
コンスタン
ダニ
ステンレス
一派
ひで
##由
##砕
##セント
狙った
ＭＢ
ＣＢＳ
##しろ
ブンデスリーガ
##挙
赤十字
カジノ
Ｓｅ
戸籍
##徹
大川
##ａｒｋ
７．
ワクチン
噴射
ホモ
##麻呂
トゥル
救
かたち
時々
##ＧＡ
カップル
停滞
捕鯨
##肢
８０００
脅迫
ＷＷＦ
ケーキ
##９００
##ＭＣ
##ｉｔｉｏｎ
##ｕｒａ
カワ
アイオワ
有形
鎌
##テック
キネマ
Ａｂ
マスターズ
帆
メルセデス
呼び名
袁
惜
たつ
永正
簿
出仕
醤油
一線
湧
##Ｕｎ
がっ
ノーザン
柿
導き
##んな
アンチ
##上がり
廻
墳丘
詔
取れる
驚く
ウェスタン
河北
ライプツィヒ
##オル
漸
５００万
陥って
##彩
収監
ばね
シール
届
##レーン
因む
臨海
Ｐｌ
割譲
耐性
泣き
ネズミ
またがる
##離
##タム
噴出
保って
ウルフ
タウ
エルンスト
公団
志望
中性子
寿司
ダイナ
##パラ
悲しみ
ツェ
オッ
ロープ
ねじ
ＣＡ
##撃
インタフェース
悩み
インターハイ
##シアン
天王寺
反対に
停車場
職場
被告人
##ｏｕｔ
一流
緯度
ＮＴ
供与
バウ
ウエ
おこ
トリック
長門
抜いて
クラウン
愛する
スプリント
慣例
##与
##ｈｙ
起こさ
カリウム
ドッグ
被告
望み
磨
丸山
誤差
明らかで
サイバー
庄内
振付
単一の
ニン
軽く
スパー
藩政
##ゆき
ライアン
解読
円墳
隠さ
参議
納得
##咲
##テラ
##プト
オペレーティング
勝つ
##ＭＬ
用法
１０４
##マッチ
##ｅｔｈ
バレンシア
曳
スープ
集計
請け
コイル
早世
##ｉｓｅ
就いて
なくなり
演目
##豪
共鳴
延暦
為替
ヒップホップ
Ｓｕ
様相
トランペット
７０００
デュー
服部
##ｃｏｎ
農園
##処
公司
廣
防護
響
体色
コソボ
陶器
##５００万
敢行
寅
フェロー
率いた
μ
粛清
ＮＡＤ
教えた
見た目
邑
プライ
日刊
対談
##上げた
信玄
若松
コミュニケーションズ
引き継いで
猶予
国分
平等
休戦
繰り返した
Ｍｅ
大師
見れば
コス
表した
退いた
尼
##築
工藤
ＳＫ
保留
仕えて
魯
ホイ
腐敗
取り入れて
フォント
##糖
手配
浄
腎
牙
日～
デハ
引き継ぐ
養殖
宙
年寄
##判
豊川
ウォン
##スペ
フィレンツェ
発砲
渡す
火事
キャンセル
細かく
喜多
Ｃｏｎ
あわ
米子
諮問
流体
逃げる
主たる
開口
高騰
カート
##禅
速く
ぱ
終始
艦上
キャッチフレーズ
しげ
小さ
カシ
武蔵国
留まる
ベラルーシ
徒
近づく
イースタン
ミリ
カーター
上司
ＩＳＢＮ
団員
ルクセンブルク
##にも
合弁
朗読
消した
路上
先制
生かした
追及
北野
##アウト
放火
アゼルバイジャン
##慮
樽
蛍光
##熟
公営
立教
荷重
実習
##ヂ
国宝
カザフスタン
発進
タカ
##荷
##かで
争った
考
##ーション
##ぞく
##ｎｅｒ
洗浄
##快な
脊椎
##娘
充電
諱
皿
顕著な
##合わせ
初版
##ンドラ
元首
##やく
##ールス
亘
##程
チャージ
偶
鈍
逃れ
Ｓｍ
##ｕａｌ
柵
カーネル
##闘
大河
##ワード
全勝
人名
ｕ
優等
アクティブ
重ねる
バード
水質
##活
##レンジャー
粟
伝来
オーダー
部会
原動
尾翼
反抗
ニッ
電報
宿主
##灯
物件
つなぐ
溶液
１６．
引き起こした
##ツェン
草原
久保
大垣
キャサリン
農耕
##なり
貯水
スピンオフ
##ガール
##よし
催さ
無駄
１８５２
テクニック
妖
レター
買って
頭取
マフィア
パーカー
サブタイトル
シア
地層
##干
込めて
##Ｌａ
穏
閉塞
##ダール
声楽
市区
スーダン
##痛
碁
少しずつ
連鎖
崔
連想
溶解
炎症
転校
##つか
下降
遊牧
ポートランド
谷川
幽霊
##６．
外れ
ラバウル
ゲオルク
若き
顕彰
湊
##ＲＩ
ノア
慰
完封
##キャスト
乏しい
##窓
##釜
重く
伝送
証人
##フス
売れ
能登
##ｏｔｔ
##ズィ
##ニク
問屋
##テロ
ますます
##タク
##ó
勝率
っ
含
欠陥
しの
効力
コンゴ
安価な
落として
将兵
サウスカロライナ
##Ｓｃ
２４０
##ＡＶ
##ＭＭ
ビジュアル
##ランス
話さ
隙間
楚
マール
いすゞ
客観
解く
さらさ
ナノ
豪雨
＄
冷凍
消息
##ｅｆ
洗練
履
劣化
##獄
富士見
##じゅう
混血
入線
##ゅ
平氏
##メリ
##ＤＰ
シュタイン
##通り
口座
##パーズ
凡
##テージ
大将軍
ＡＴＭ
判例
主婦
法科
浴び
クイーンズ
筑
取り組んだ
知り合った
暗黒
外れた
説教
Ｃｏ
その場で
茅
シュル
復刻
西川
##パイ
高まって
##堅
鵜
炎上
不可能である
##ブリン
病原
テロップ
##リウム
余剰
いきなり
フィルハーモニー
過ぎた
到来
入れ替
Ｔｒ
米沢
##ゃ
濱
大小
リビア
徴
三宅
休業
##急
転倒
##深
##忍
フェルナンド
帝政
##フリー
柔軟
金山
##摩
ステー
##ォ
ヒント
##佳
書道
四川
湿
満たさ
アラバマ
不可能な
議決
巴
ＶＨＳ
ＪＡ
人道
##キリ
すけ
##奥
請願
##翼
##ゆう
肥後
蒸
ジャンクション
ヘルメット
飲む
水害
##ＵＫ
鉢
##р
Ｍｉ
停泊
##ｆｔ
レア
はや
発した
ＧＢ
チョウ
問う
トイ
ブラウザ
水溶
マルタ
グラミー
久米
ムラ
陥
桐生
照射
##架
斬り
返済
載
焦
過酷な
オク
おもに
ルーシ
##ｗａｙ
##棚
走者
止まり
ハノーファー
コースト
サントリー
パウロ
弾丸
複素
Ｊｒ．
潜入
かき
かま
##ＲＴ
別冊
超過
ＴＨ
大作
ポルシェ
助演
ワル
ストックホルム
代名詞
同種
##早
見通し
石碑
長寿
溶接
出願
異端
興奮
岩崎
６万
燃え
掲げた
ブルック
ベビー
##ヤマ
ロビー
讃岐
##笠
振る舞い
##ｆｅｒ
レンジャーズ
柔術
##ＴＣ
ハイウェイ
##寄
##ｙｐ
##チュー
エクス
ドジャース
ユタ
サイモン
##曹
有権者
惟
掃
##れたり
我が
軍令
投げる
縫
市電
リフト
ガリア
憲章
国交
右衛門
##ｒｏｐ
理学部
浴びた
実子
ＩＢ
門司
セミナー
佐渡
亭
回った
##リンク
##ＧＨＴ
勇気
##シカ
指輪
アルベルト
金利
一生
##ちゅう
とある
この世
パケット
買う
##可
マウンテン
インパクト
左衛門
癒
討論
クエスト
ドック
児玉
激戦
忘
乗り入れて
##キス
仮称
高まる
イソ
##錦
砲台
ガリシア
悔
揺れ
のぶ
##梁
官吏
マルコ
##シオン
##余
愛情
Ｎｅｗ
衰
##ザーズ
##モリ
ＯＰ
ヘア
やら
##カード
スピーカー
##ＵＰ
##雑
絞り
##秦
天地
発令
万国
俗に
婿
##腔
満点
キャロル
孤独
１２８
粘土
同志
自害
フュー
戦功
及
別途
##欲
くじ
##３，
引き換え
しら
動揺
９，
大崎
##じゃ
風刺
１８４９
##径
湖南
近所
戦績
攻防
２２０
体型
くに
絆
本島
己
##絶
是
親方
Ｐａｒ
魔王
躍進
下水
肝臓
手動
初心
伝播
ソーシャル
言動
##がら
豊後
##ｉｇｈ
ミズ
蒸留
反動
先駆け
支払
青葉
製法
特異な
コリ
##ドゥー
富裕
退去
熱心な
クリスティ
一塁手
##デュ
四郎
絡
車掌
広げて
赤穂
加増
ｖｓ
カテゴリ
３分の１
##ックな
敬意
殺して
音節
##責
ウイ
以西
ラク
##まし
エニックス
不調
##考
終わら
明神
ヴェストファーレン
舵
編制
使徒
点火
アドバイザー
生き残った
たた
争わ
転々
ジャワ
塁打
##ＯＬ
付さ
救命
ムル
負い
##ズリー
内包
ドニ
沼津
##軽
##尼
壁画
飾ら
##ドラー
中道
半減
##ａｎｅ
届く
眞
##諸島
普通に
去
明る
蜀
波動
大連
金星
ロビンソン
##渠
プラント
容認
リベラル
##７．
ウルトラマン
浮き
熱狂
##べる
スケッチ
アイアン
##リュー
ＳＲ
国定
海抜
架橋
避けて
勤めた
ママ
アンソニー
エフエム
##ベー
ＭＧ
怠
侵
##われ
免れた
##リヒ
モーリス
細部
気に入り
##ツァー
物産
随
掘
正確
クック
##爾
##トマン
レンジャー
若く
アテナイ
パンタグラフ
キッズ
##è
メルボルン
浪人
織り
築いて
スロット
ヴィッ
##耶
キッ
##唄
うどん
隕石
テンポ
利根川
採り
##ｔｔ
##〇
尽
八代
おこなった
##ＬＤ
充当
見出さ
マルク
##Ｏｒ
でした
オンタリオ
##征
毎日新聞
分かれた
胚
プエルトリコ
糖尿
帰化
生きた
見つけた
扶
ハチ
クリストファー
ＧＬ
##ショー
##５，０００
響き
史学
##てた
松島
カス
##的に
シンシナティ
##バーズ
##くら
プロテ
練馬
いろ
空き
公言
クラリネット
拡充
荒木
誌上
答える
コンサルティング
##フロ
タイガー
越えた
閉じた
視界
常識
自生
日報
アバ
ケニア
本殿
棄却
精霊
三塁手
そういう
レーサー
##接
停戦
没落
大火
怪人
１３５
##ゾー
##ポス
##Ｊａｐａｎ
ジョゼフ
##スム
年中
バリア
##美子
建武
厚い
消耗
Ｌｔｄ
マナ
董
ミハイル
馬主
##らん
##誠
激突
無形
カルチャー
##バンド
優駿
毛皮
遷移
あだ名
台東
閑
バリー
松岡
里見
均一
##．Ｃ．
立花
ｄｅ
実弟
ジョーダン
希少
尊氏
神父
親しく
通達
##ベック
##ラト
入試
ＪＯ
茶屋
あれ
アドバイス
ずれ
貼
幕僚
消えて
ニュルンベルク
サテライト
音色
ロマ
没年
ハヤ
板橋
株式会社
目の前
##診
ポロ
忌
##羊
アイスホッケー
ＭＶ
パブリック
仕方
##ｉｕｓ
##癌
商売
政宗
受講
童話
墳
片岡
ホームラン
照準
失踪
フィッシャー
中日ドラゴンズ
１８５１
ハリケーン
股
マカオ
シャーマン
キプロス
鳩山
幽
##みん
バックアップ
ジェーン
救い
##ａｔｉｏｎａｌ
軍部
偽装
まえ
成虫
応永
頭角
ゴミ
オロ
環礁
富士通
競う
水銀
赤松
憎
Ｗｏｒｌｄ
消火
##ＰＬ
泡
##涼
##少
貸出
ミサ
日比谷
スティーヴン
ナイジェリア
どころ
吹替
##ＦＡ
速力
レッズ
リプレイ
飽和
イエズス
ウィスコンシン
##洗
豪華
阿蘇
デイヴィス
##笛
ドラゴンボール
顕微
塞
眠
上手く
##渕
千歳
カメラマン
ガイドライン
##狼
ホルン
##展
カンヌ
姪
窪
##イヤー
クローン
砲身
ポテンシャル
抜ける
帰宅
留まって
##ボス
クレーン
東岸
胸部
じけん
打って
区立
進級
補う
接着
##託
バッグ
清掃
##ゅう
月～
信念
酔
特務
賃貸
##ビアン
必然
杏
フットサル
勇者
ダウ
##Ｄｅ
フィルター
シャープ
##ｅｎｇ
ケータイ
究極
閣議
居留
ソニック
配達
ソマリア
全編
卑
筑後
##プター
スマ
ひき
##スターズ
有る
係る
貸切
判別
##宴
葛飾
##ｎａ
##ＰＥ
河南
３００万
或いは
ローテーション
本番
##らした
ベリ
##茎
￥
リーチ
預言
##テッ
増幅
部活
著述
ＤＡ
国史
乗馬
Ｂｉｌｌｂｏａｒｄ
Ｃｏｌ
直す
華族
##潔
ＢＭＷ
##アド
##嚢
チェス
ヴェルディ
サハ
頓挫
##ねん
精製
演歌
ＬＯＶＥ
占い
トロフィー
Ｅｍ
##えれば
屋台
##ｒａｔ
産む
イエロー
鶴岡
光景
祈祷
支那
亜目
買った
公正
美女
##もん
ＥＲ
仕上げ
淵
△
貢
弱体
帰った
間に合わ
葵
ラック
相馬
受付
万博
受領
謳
こうえん
反して
一転
##リーニ
永田
##ッパ
西尾
##Ｃａｒ
宜
アンディ
あま
##軒
マスメディア
反対の
ＬＩ
リヴァプール
Ａｃ
ボリビア
破片
八重
未亡人
良かった
エージェンシー
景勝
基板
ファンド
近傍
##ストリ
キャンベル
かれ
##ＡＥ
改易
曖昧
遭難
モナコ
##ｅＢ
養父
##銅
ジェネ
くま
星人
##熙
フランコ
##ディーン
ブレー
登用
##ラート
##碑
##ドルフ
不定期
共著
アガ
反則
##密に
##アリング
ジェームス
##続
マクロス
斗
##ＲＳ
ＢＤ
大原
呪い
乙女
包ま
陵
タンカー
ＪＦＬ
カツ
相関
たて
川内
##もう
イズ
貞観
戒
早川
Ｅ．
パワ
通例
美し
なに
導か
スロ
カエサル
奔走
Ｗｉ
惨
十字架
要衝
相次いだ
完走
リッチモンド
コメ
ギー
インク
県警
接し
Ｐｅｒ
##申
開山
##瓶
借
勤める
ＵＣ
入省
ウェン
使命
憲兵
競艇
罠
制動
満洲
開会
最寄
紺
面する
点検
##りん
１０７
官庁
##げた
もった
いわば
ＣＯＭ
渡した
同位
眼鏡
邦題
特産
両面
たまたま
##ッケ
叶
ハロー
ドゥー
覚え
Ｅｎ
ロマンス
甲州
##デラ
藤本
ミラ
杖
日経
反する
伐採
同調
偉
本貫
入札
ジョル
おこなう
##下げ
##コーン
備前
勧
##敗
延宝
銘柄
勧誘
##どり
演芸
伝導
イエ
##３万
長州藩
易
マッカーサー
発端
##試
##ＡＡ
表し
##妙
ホロ
##プライ
##ＡＸ
トレイン
##たん
イブン
##ａｔｔ
欽
極端な
公方
クモ
覚悟
触れて
草津
##ストリー
地蔵
引いて
船員
乗船
１８４６
咸
桑名
参詣
騒
借用
暴露
アンジェ
ＩＭ
請
黒海
コパ
棺
広げ
##トランド
##ＩＯ
##割
野口
ランナー
サード
メイド
回送
奇数
隔離
フェデ
両手
##やかに
##ルン
飲酒
戦列
##掌
何者
##ニオン
ミュージアム
##リヤ
##鷲
題して
八木
##かみ
##Ｇｕ
一応
##ガード
リンパ
古事
リム
##殻
見込ま
祭壇
ブリー
##マニア
フレー
ブダペスト
共存
ｒｐｍ
軍政
##未
弔
厚く
大納言
流れた
ウサギ
受け入れた
大物
##すけ
さす
両立
##軌
キッド
マディソン
##陸
##浄
##亀
有明
１８２０
出展
均衡
アダムズ
チャーチル
討
祇園
増して
鉄鋼
ＯＨ
トリプル
Ｅｄ
##つけた
合宿
吉良
吾
困
空挺
原告
##５．
結社
勝敗
鋭い
Ｂｒ
##セラ
公判
マクドナルド
か月間
島々
ケルト
ＬＥ
主軸
リーマン
義務付け
二輪
血圧
##ＨＩ
##ょ
ちなんだ
当てる
リヨン
ａｌ
終着
ＵＴＣ
換える
其
繰り広げる
打った
デビッド
相場
タク
准
ハリス
占有
あらわ
スノー
ワード
直下
##ＣＲ
##街
浄化
協賛
遥
貝塚
単身
乗り入れる
##クン
マイナス
童
セクション
ニッポン放送
松戸
##ｒｉｄ
幌
重なり
ライス
敗走
難航
ＮＢＣ
去ら
Ｍｏ
##ッサ
廃校
下る
##倫
プリキュア
本丸
色素
反逆
支配人
大通り
レパートリー
ゴート
売店
恒例
Ｂｏ
茶色
##亮
総括
すり
果たせ
斑
サイレント
１０００万
仔
解像度
１８４３
##ｒｅｄ
入所
積んだ
権現
やく
##いし
果物
訂正
賛
裏面
陰陽
レンガ
##炉
扁
誓い
##ムラ
選任
聖地
##ナード
Ｃｏｒ
小牧
育てる
無事に
独身
##ヒー
強烈な
ショーン
##０．
アデ
##うち
度重なる
田原
サスペンス
##ガニ
稲葉
桶
替
皮肉
正則
キラ
消極
兼ねる
##シブ
授賞
老中
##塾
##ツク
もも
コモ
うつ
裾
倒した
呼応
ウェブサイト
重用
良好
｛
##ッズ
バレ
不安定な
稼ぎ
側室
握る
民政
言論
二郎
圧勝
##−４
増す
スズ
蓄
唱えた
ＩＲ
##駅
エリー
被爆
##つけて
クーパー
ユン
部署
通じた
オイ
ムン
直撃
つま
混成
最悪の
##飾
朝鮮民主主義人民共和国
崩れ
##縄
##）
##染
バファローズ
ゼー
減って
短歌
付録
とうきょう
トール
最強の
##峡
工兵
##ｕｘ
ピース
省庁
##ＳＫ
スリランカ
養育
ブランデンブルク
##めたり
廃線
義経
##ｈａ
恥
悪役
##ｍｏｎ
東経
##テール
政友
若狭
コナン
漏れ
Ｗ杯
ソフィア
有利な
##暴
デリー
レディ
##ツキ
召
密集
だん
要した
アコースティック
２１０
翌週
バックス
##アリー
最長
結末
ジャニーズ
刷新
Ｅｘ
可能だ
１３００
##ＳＲ
頻発
プロフィール
弁当
にん
１００００
警部
余地
なんて
川端
##牌
河合
れい
久保田
##ｏｕｎｄ
##ッシング
##ドック
添付
即ち
下げ
物価
アトランティック
並木
ブラウ
内地
ボビー
##ＣＫ
不変
水族
##ダード
##背
遊ぶ
自覚
ウィンドウ
イスタンブール
ブルゴーニュ
##準
１．２
ＡＴＰ
指針
飛来
株価
##持ち
ティム
１０，０００
##かけた
風習
決算
スタンフォード
スン
養老
発効
構える
廟
唱える
##峯
数える
玉川
霞
信越
##垂
画策
##クロー
納言
##卿
目論
デニス
メロディー
##請
管弦楽
主君
開園
##現
##ＦＦ
スポー
##レフ
ベンジャミン
##合って
歪
顔面
軌
バナナ
古今
フランチャイズ
ヒン
##あい
##ｍｉｎ
ブエノスアイレス
ディープ
どん
のだろう
ブルターニュ
梗塞
深海
濃く
御殿
信州
那
都督
解禁
##ｉｔｔ
釈
トレン
結びつき
坑
##ラフ
##がる
プライム
Ｂ面
サント
##メイト
実父
渡航
ちょ
ボスニア・ヘルツェゴビナ
##ｌｉｎｇ
外野
溶岩
従わ
自発
##りゅう
もた
太夫
罷免
マキノ
##Ｆｌ
侍従
溶媒
迫った
##塵
プファルツ
替わり
杉並
ちゃ
宇部
水車
枢機卿
素数
翌朝
##テーション
##スベルク
支えて
上手
――
譜
糞
構えて
セリ
バク
勘違い
広範囲に
遮
土屋
行先
##鼻
回廊
雌雄
日テレ
広げる
カ所
読んだ
盛ん
大抵
パイレーツ
ポニーキャニオン
Ｊ．
アルカリ
適切
カモ
##立てる
裁定
スターズ
レッドソックス
レシピ
抜
ポップス
名作
１７００
慈善
目さ
イサ
綴り
ウォール
古賀
アオ
ジェイソン
モンテネグロ
モノレール
リール
孵化
エンジェル
桑田
内定
凍
##対
紡績
##薄
傘
別当
感銘
１．６
##弦
産経
増援
１０６
津山
行ったり
裏切り
レイン
##編
改番
手伝い
先立って
落とさ
##越して
エラー
出番
目覚
##ょう
ジョイ
高官
##ｉｎｓ
ハイパー
内野
銃身
戦災
恐れた
ＧＤＰ
##［
かさ
苦手
##ＦＥ
抑圧
１・２
##塊
違
##ブズ
エビ
みなす
椿
##Ｅｎ
##ｋａ
##かけて
占
盆
チア
１８４５
失格
亀山
マキシ
黎明
苛
##サイト
イカ
１８３７
津田
十数
あか
イワ
##グー
断った
##わし
江東
反復
収縮
ドリー
不十分
１８４７
ＭＲ
すす
土浦
メッツ
二塁手
過激な
##俗
日数
##タナ
公害
乗せ
ましょう
分担
赤道
頼って
ポーズ
マキ
ハイン
##トール
遊園地
クン
取り壊さ
##ラーズ
喪
ラオス
ＯＮ
パール
臓器
風味
凌
にし
高め
##グラフ
一斉に
後押し
##大夫
##だん
すぎた
容易
御家人
負って
ヨルダン
ＣＢＣ
毅
ｑ
オウム
クマ
##返り
##ぇ
##ボット
耕作
##終
晶
餅
鄧
川島
社交
寄せて
##ｅｄｅ
##ズン
##枠
##映
肥料
油圧
##ＣＴ
１８３２
##テッド
有り
踏
急激な
##窪
引き起こさ
##鐘
起業
小池
ヒール
北岸
差し替え
マルティン
１８４２
まき
ユーラシア
ネー
旧約
##しみ
##めん
安い
サミット
１８．
フィリップス
偶数
ドミニ
実効
##ｅｖｅｒ
スカパー
フランケン
##ヴァイ
汁
鴻
教習
ポルト
年始
##込んだ
告げた
本校
##ＣＰ
めい
ｅｎ
１８１５
危
雇わ
店頭
学説
串
サーカス
さほど
重心
奪回
下層
帯域
##いな
面白い
着いた
打ち切ら
断り
Ｎｏ
海中
クジラ
ハブ
##リョ
ケント
窮
乗り場
めぐり
ちなみ
ブリティッシュ
連なる
##尿
ソユーズ
１８４４
異議
浮かぶ
未だに
駄
１８４１
アンサンブル
##ナート
見送ら
岡村
##郭
捨てて
##ノイド
落合
##帖
カニ
有名で
蔡
鍛
レフェリー
##カナ
チャネル
西田
宣戦
いたる
韻
入浴
散歩
招
生駒
さき
加茂
スペック
登り
Ｓｕｉｃａ
カージナルス
市原
##ｉｌｄ
挺
サラブレッド
ヌード
保ち
##椎
ピュー
生後
つぶ
閣
##特
監禁
高台
浅井
ドレスデン
営んで
芥川
同定
過ごして
牢
##ＪＡＰＡＮ
##ｇｅｒ
##３．
ピストン
シャツ
フライング
キノコ
##プー
ＳＮ
挟み
独特な
##鋼
スパルタ
クレーター
同じで
１７．
下車
敦賀
綴
抜いた
##ｌａ
##立てた
おおさか
配偶
傾倒
嵯峨
近親
浴びる
京急
紅葉
同じだ
健一
##督
##ＣＩ
イラストレーター
スキャンダル
碧
パルス
入城
メモリアル
書院
３２０
カイロ
##キル
ビスマルク
やり取り
かたわら
ハンマー
##勤
本庄
##スブルク
##シェン
##げよう
新報
車輛
絡み
プラズマ
##返
##取った
平方キロメートル
受け入れて
ヨハネス
唇
揶揄
望ま
築く
##焼き
##ジル
鍾
計上
エステル
ノンフィクション
##ジェント
##ニズム
遠ざ
以
##ｗｅ
ＬＤ
タケ
##反
咲
奉公
死因
##勇
##ｉｎｋ
ハマ
##Ｂｌ
落城
だいがく
ウォルト
ウェイン
インタ
譲る
賄
強行
ヨウ
１８３６
アース
稚
決闘
##Ａｎ
点灯
##Ｍｙ
##ＡＬＬ
劉備
幅員
確実
##駒
##却
転戦
##スス
大木
シンプルな
##晩
がち
·
亜鉛
##ＴＥＲ
制して
レジャー
##ｏｐｈ
鳩
##クラブ
##突
ｓｐ
##リンゲン
惹か
捧げ
イベリア
棲
##ズル
松永
ユリ
レジスタ
ふさ
文科
ゼン
Ｘｂｏｘ
はた
郁
ざわ
笑顔
建つ
平山
題した
パーキング
東郷
カブス
ミリオン
ペリー
中身
いわき
鉄砲
セリエ
プロト
共生
ＣＴ
連帯
ゆり
##オフ
機甲
アーツ
##出た
自力
縄
ミクロ
淀
安全な
ひっ
強硬
三原
白川
泳
驚き
喰
バッファロー
アルフレッド
ひかり
長江
##４．
文字通り
##阿
離反
運休
##切れ
とどまり
平坦
##胡
面倒
##シュー
嫌い
コペンハーゲン
##ＩＢ
源泉
元気
地頭
共感
ナイン
ＦＢＩ
ヴェー
聖歌
共作
宣教
##バリー
山村
カプ
##ブール
大麻
戦役
##ｒｉｔ
覚えて
移して
受け取り
##ホーク
勤め
きら
##援
逃れて
血縁
理性
引か
べし
第一人者
##ｉｐｐ
デラウェア
幼年
望んだ
伸ばし
有害
堪
進駐
吸血
事柄
４，０００
神様
敷か
一人
門前
アウェー
村落
男児
秋葉原
１８１４
亡くなり
##ｒａｌ
天野
##ｉｌｌｅ
日蓮
六本木
トウモロコシ
王宮
匿名
##ヶ岳
味噌
ｏ
##リース
降車
毛沢
電極
日立製作所
込
シャフト
正常
シリ
##なわ
列強
##テュ
氏名
要職
杉山
不審
流路
埠頭
クロック
１８０３
ジャガー
錯
酷似
##ｇｅｎ
街路
##タニア
１８３９
不利
経典
##スマ
弾き
▲
##ヴァルト
寄港
フラワー
モーガン
文京
氾濫
ＺＥＲＯ
ふさわしい
学業
地中
明言
英名
雑貨
銃弾
所沢
４．５
ＯＮＥ
殺到
来場
点差
ほどなく
檜
泊地
##ＰＲ
市道
##ノア
ドッ
ブロッ
美しく
手間
##ジェン
##もって
材質
癖
正徳
三味線
##込んで
驚異
戊辰
##ダンス
##スロ
ヘルシンキ
深川
##レース
新星
鋳
##ウォ
セクター
百姓
末尾
推挙
城郭
とはいえ
税金
ダッシュ
##ａｎｏ
オリーブ
ＪＩＳ
形質
おさ
年々
付か
##ＥＰ
##ます
##付き
復員
インテ
吉村
符
哲也
ジョナサン
活発な
##告
##ＵＮＤ
仕立て
高めた
歯車
飢饉
走ら
##課
雲南
査
外装
直訳
##フスキ
スライダー
強姦
##フラン
側線
##密な
##やか
ロンバルディア
義理
尼子
Ｃｏｍ
ヒート
##ヴィッツ
１８０６
##デント
##メス
あう
軍務
雛
##ｌｉｎ
拡幅
そん
隆起
パニック
２３０
クロウ
郷里
##ｙａ
##ＩＤＥ
##曜
アッパー
歓
##振
ドナウ
##ＭＡＮ
謀反
ＥＵＲＯ
ＰＥ
ロビン
楽しみ
ベンガル
##当に
筆記
混ぜ
##妹
コンビニエンス
所定
##舌
平城
のぼる
平塚
特別に
ぎょう
年上
メディ
酢酸
##Ａｉｒ
入港
ノルト
椎名
##あき
クロード
##ダック
西山
限って
エヴァ
軍備
文人
浮か
リチウム
##災
売る
コサック
コンピレーション
祭礼
下がる
山名
フェルディナント
##アール
家業
退位
繋がった
引き渡さ
##ＶＡ
はま
１８３５
平壌
許し
売上高
享
散乱
隠れ
万葉
##麿
執り
##棟
キーワード
及んで
キャスティング
濁
##ＱＵ
国歌
検閲
ベオグラード
ＦＥ
##ＥＲＯ
同窓
##渡す
##チオ
十六
ドキュメント
捉える
醸
ＡＰＩ
スワローズ
赴く
Ｆｏｒ
ネーデルラント
サビ
狩野
プラットホーム
Ｒ＆Ｂ
スレッド
公式な
劇作家
方位
##賓
吹田
Ｄ．
レモン
ける
幽閉
臨む
アレッ
番外
大軍
同族
舞踏
譲
先駆けて
争奪
不思議
旧称
##ばん
##穀
阿弥陀
Ｍｒ．
発熱
硬化
##Ｐａｒ
代議員
生かして
##故
乗合
##刈
学期
東京電力
もらえる
１６５
１，４
こだ
ヒルズ
ロイド
取水
教材
##トフ
掴
対潜
##創
原油
低かった
満期
譲った
遂げ
構図
なして
##へい
汎
##思
肥前
おそれ
##ンドルフ
アマゾン
##ｂｌ
保た
１７５
##南道
ペルシャ
往
月面
致死
淀川
ＣＩＡ
##赤
変革
Ｈａｒ
商法
ＲＮＡ
曳航
このまま
フレイ
減り
草案
スプリン
##Ｓｃｈ
くう
##Ｓｃｈｏｏｌ
ぎん
終身
##袖
アッシリア
タグ
会った
家政
体質
冨
国名
上告
江南
独奏
ファイブ
兵装
時速
##シド
簡略
募
ギュ
##−５
共闘
スレイ
漁港
単線
内訳
キャブ
アーノルド
##構
全額
##っぱ
コンポーネント
聞
北見
ジャンヌ
##鈴
累
国分寺
和睦
物品
橋上
##Ｒｅｃｏｒｄｓ
レインボー
ＵＳＢ
ステッカー
輝き
寡
結集
##リル
俳人
手形
卸
乗せた
シャーロット
やめ
団結
鬱
フェン
—
リハビリ
３億
私有
配線
恩恵
こま
天理
##コミ
函
##ッチング
##気な
デュオ
オークション
誇った
新車
獄
ウォーズ
尾道
一夜
##マーン
##ナール
##Ｅｘ
佐久間
生き残り
もとより
ミナ
メトロポリタン
脆
ジーン
テク
ドール
山林
Ａｐｐｌｅ
ネバダ
不信
##腺
出征
ナッシュビル
リッチ
１０，
鉱石
レコーダー
［［
２５００
アラゴン
花序
輌
ハンセン
コンコース
サックス
１．０
大東
林業
締
##じょ
とど
石室
スミ
コラ
##ａｊ
高槻
存命
##ＳＭ
奥羽
小麦
土井
中継ぎ
謀
##辰
掌
磐田
高価な
マヌエル
リベ
賭博
ニーズ
よこ
通す
強要
校名
目前
引いた
Ｙａｈｏｏ
星雲
紛
##レッタ
解か
返して
架線
採って
消し
字体
諸葛
動いて
倒れた
降る
ＳＵＰＥＲ
載せ
嬉
##グラス
満たして
離散
中津
ジュネーヴ
コカ
ミルウォーキー
観覧
警護
バラード
わが
##ペット
転生
類型
ケプラー
##オラ
撮
シュトラウス
##ヅ
鼓
要領
##綬
ＤＸ
ミルク
略して
１８１２
##大な
市政
沼田
変貌
ゴロ
速報
デンバー
凹
魔法使い
##姉
##プール
汽車
流して
呪
封建
やってくる
惨敗
突っ
福知山
##取って
##ｒｕ
Ｇｏ
藤子
##レール
##ベス
襲った
追贈
Ａｐ
島原
旧式
インフルエンザ
ユーモア
壁面
##ＰＰ
ＭＭ
士気
ブース
私生活
##Ｓｅ
##ＡＲＴ
別人
胎
有利に
見えて
天守
提訴
なろう
高砂
##栖
申し出
漁獲
賑
戦記
了承
邪魔
##晃
没する
滑り
用紙
香取
守った
まれ
利根
関白
合致
客船
放浪
天然ガス
なんとか
即興
旬
法華
１７８９
知性
羽毛
Ｓｋ
##せき
##ほど
細分
頼み
##寄せ
はずだった
##遣い
結党
説話
積雪
買わ
##ンドー
遊歩道
就き
縁起
##ティエ
修業
察知
エステ
待合室
##ペイ
ＣＣ
##ＲＣ
新宮
##項
ＷＷ
日産自動車
交替
築地
そっくり
藝
サイパン
##ｔｉｖｅ
サク
テラ
申告
試行
Ｃ．
太政官
精密
妨げ
炊
麻酔
従前
##グラー
##ＣＬ
##ｃｔ
増築
##スティング
##幡
聴く
Ｏｐ
円谷
祭典
襄
松前
##ａｍｂ
劣勢
蒋
元号
バネ
内科
安心
２０．
##スマン
##ｉｎｃ
ＱＢ
Ｌｉｖｅ
##レスト
純粋
##ｒｅｎ
##倍
上段
女児
アディ
##バンク
トマト
養女
##ＵＬ
戻
##慢
ＷＯＲＬＤ
随時
Ｂａｒ
納税
１８１８
前輪
欠かせ
隠して
登る
##隅
下げる
シグナル
フロンティア
ＷＥ
脊髄
図形
処方
着想
キングス
ウィキペディア
城跡
祝福
大西
抱いた
##恒
水没
小西
芳香
埴輪
合間
渡来
フォレスト
３３０
漁師
##黄
バークレー
ブリュ
いち早く
頼り
こだわり
跳ね
参与
##ａｖｅ
名高い
謡曲
東名
##禁
移築
##ダース
ゲームボーイ
##ヴォー
グルメ
##ーナ
続出
入閣
違った
ナウ
Ｇｌ
勝って
赴いた
注射
無断
河岸
エンジニアリング
栄光
##００１
クラウド
儒学
石巻
##リッヒ
へん
エディション
服用
##伸
開け
長州
ボウ
ウィンター
センス
様々である
Ｈｅｒ
ベンツ
Ａ＋
##ボルト
並んだ
##写
並べ
ＩＳＵ
１８２１
ベンチャー
出せ
ＣＥ
飲ま
メリー
公文書
専業
その内
紀行
##в
黒川
ＰＡ
愛さ
可視
##勲
Ｗｅ
##２・
礎
本稿
リュウ
大工
素人
軌間
上水
ＦＲ
漁船
さく
気球
青島
生計
預け
拡
永遠の
倒し
ニコラス
##ゲート
１２３
##Ｇｏ
ī
先立ち
開場
##々しい
インフレ
よしもと
降ろ
タム
ディーン
安全に
福建
土岐
上面
##犯
五島
京極
##戒
やった
スパイク
承継
##がん
##渡し
##ＳＢ
孟
##撫
Ｍｏｎ
テロリスト
高価
##致
１９．
ちょっと
果て
マルセイユ
偽造
告
急速な
##恋
紫色
天狗
内紛
素早く
ロスト
##止める
アレルギー
しず
イチ
聴覚
ボロ
掛かる
Ｍａｎ
ヤクザ
投げて
##かつ
堀川
安堵
ハイデルベルク
組長
ささ
##Ｌｏｖｅ
三部作
法名
ジョルジュ
図柄
重なる
##狭
ラベル
内政
水位
フィニッシュ
光年
ナビ
サラリーマン
１８３１
##供
山川
グアム
撮り
手当
リスボン
１５５
行軍
商社
１８３８
##ファイ
寂
##トム
##帆
フラツィオーネ
ゴースト
７万
##抜け
１８１０
##ｏｎｓ
失速
##兄
大沢
収支
##后
フランドル
クリップ
##ビジョン
ローマ字
有効である
リス
塩素
##腰
喋
握り
##さく
メンフィス
持参
##ｉｓｉｏｎ
下落
仏像
容積
##マンド
書状
志賀
採算
噴
補欠
見出し
笛
##ニッ
##売り
フロン
多年
生かし
Ｃ＋＋
##ヴィス
コーラ
ジャイ
買い物
玲
ノルマン
凸
ラトビア
箕
ヴェン
##より
##ロワ
別々の
ローゼン
イデオロギー
不明な
念願
##クール
親しみ
態勢
文理
ＯＥＭ
移入
負わ
抜けて
ピッ
準急
タックル
勘定
##賊
##ｏｌｏｇ
蒲田
##荒
Ｇｕ
##スタイン
潜伏
規律
円錐
ギミック
リーディング
回顧
オリン
##立って
武者
グラフィックス
ＵＦＯ
フランチェスコ
チューリッヒ
振るわ
Ｓｃｈ
ノウハウ
随筆
ゾンビ
ヒューマン
ニッケル
ＫＢＳ
カスタム
アズ
ゾイド
##ａｍｐ
ＦＬ
増田
##苗
配当
脇役
インテリア
##ジウム
消す
##諸
##ピュ
ウィーク
赤城
##ぶり
ボーカリスト
柔
およぶ
貯金
奮闘
法的に
船首
なくなって
アルフォンソ
ウエスタン
由紀夫
アウグ
マヤ
失策
琵琶湖
フリーランス
密接な
田畑
はじめる
メソッド
熟練
囲む
ＤＯＳ
多々
遍
あて
##ティーノ
電位
ツィ
ＬＡＮ
ヘッ
慰霊
畜産
置き換える
##ニーズ
注入
##上がる
大切に
##ｅｒｖ
ユニークな
##ブロン
雀
甘い
挑んだ
シャッター
時事
デュエット
風力
Ａｍａｚｏｎ
鋭
ベニ
Ｔ．
国司
##ｕｍｂ
繋ぐ
年数
打線
ココ
##ロイド
Ｓｏｎ
ＣＩ
##翅
虚偽
退治
##瑞
ダブリン
##２００万
助監督
帽
襟
##きり
なくなる
ギルバート
挿
スティーブン
肉食
##ファル
１８３３
アレクサンドロス
チョン
隣国
##分ける
##廟
優れ
迫って
よら
わかった
育てた
##タリング
シネ
##符
震度
酷
取り付ける
酸性
若しくは
フェリペ
並み
##ョー
##ｉｅｌｄ
カクテル
めに
もら
イグ
衰え
驚か
断ら
ブレン
##やし
転出
決心
##振り
##巳
交友
完備
##ざき
王冠
竹田
耐震
ＲＩ
掲示
エスカレーター
人造
チャーター
##跳
アイディア
２７０
獣医
執った
ぽ
ガルシア
増し
子女
干拓
星座
信条
Ｔｅ
監獄
誤った
勝ち越し
かす
##復
ギン
##はら
ルン
ジャングル
日蓮宗
コスチューム
##越し
タマ
髄
説いた
透過
代金
##Ｍａ
##桂
基督
##就
##シマ
絶縁
##с
マネージメント
村人
モント
テクニカル
祝い
##取ら
##悪な
財界
周防
そちら
困窮
マーベル
##プラス
吸気
##アンド
熱心に
##レオ
君臨
##ピオ
いつでも
白井
書体
蛋白
##沈
ＵＮＩＸ
深度
年下
##富士
おの
コロン
##ガリ
鍛冶
馮
##坑
##３・
##シリ
転任
着く
ボリ
##潤
##ザメ
検知
今では
##ＦＬ
佐倉
強力
カタール
謙信
犯した
##戻し
##ジョー
##講
パンフレット
ビクトリア
吐き
ヒメ
都会
##ｏｌｏｇｙ
##トラー
聴衆
##ルート
ゴッド
ギャップ
旋
Ｖｏ
厳格な
トンプソン
Ｏ型
新橋
ムッソリーニ
Ｐｒ
##ｅｏｆ
１．８
マネ
かえって
ウォーレン
ラル
企図
構文
老舗
誇って
編み
取り戻した
シリアル
ネイティブ
サロ
##ＰＧ
修繕
値段
ガブリエル
廃墟
##恭
セルゲイ
##弱な
エディンバラ
太い
学制
オーガ
薬局
##モノ
##ＬＩＶＥ
##まさ
宇野
命じる
ドミ
多賀
##ＷＦ
##カワ
望月
絵柄
少なからず
ワーグナー
##ｋｓ
震源
属さ
##稲
##４万
##掛け
一目
投影
へい
黄色い
トーン
遂げる
##かした
卸売
暖房
粉末
切り離
エヌ
##すい
Ｎｅｔ
光子
伸ばした
##乗り
１８０１
全日
Ｍ．
凄
##づける
スコー
矯正
##タカ
##芝
隠れて
Ａｌｌ
長き
ｅｘ
供さ
##じま
盛んである
##河原
掃除
スルタン
レク
切腹
１２１
悟空
細く
ドバイ
補修
組み合わせる
イルカ
##以
##減
利害
下して
巡業
オムニバス
臼
原子核
##ｙｏｆ
帝位
有田
過失
##邑
那珂
一座
アトラス
マクラーレン
抜く
生む
##毅
フレン
##００億
相まって
図鑑
##ロボ
苗
パチスロ
至近
イヴァン
アトリエ
ＶＯ
##屋敷
##ハウ
代々木
佐久
油田
彦根
ウィング
おいた
櫛
送付
ヨン
ロータス
仰角
ｉＰｈｏｎｅ
##久保
商学部
猪木
乗じて
##がみ
##ＬＬ
馳
伝染
沙汰
##寄り
霊場
鍵盤
小平
祈
祝う
清算
ＰＯＰ
堀江
戦況
返さ
パルマ
##晶
いろいろな
尋問
ルース
論じた
##５千
ＥＮ
冊子
アーカンソー
命題
エルフ
##過
描
片山
艦載機
メモリー
檀
新約
##２０００
給水
グランドスラム
竹中
直属
##切ら
粘
優しい
誤認
今治
速やかに
Ａ面
形容
ぐるみ
急逝
適当な
下ろし
##揚げ
##篤
煉瓦
##コイ
剣術
帯広
造園
洛
##ｏｒｎ
レオナルド
履行
役柄
##ｌｌ
宮川
ハードル
心身
かわり
##ＷＳ
寄席
和音
させて
エドゥ
ＧＲ
##なに
農産物
##ｉｎｉ
改める
##紫
切符
ノルマンディー
５５０
##コック
延べ
北斗
Ｍｉｎ
唐津
ナイル
序列
おこなって
ザイ
オスカー
標榜
常用
一言
スクロール
コンパイラ
オウ
県境
操る
溶け
##ＦＭ
勤めて
やっと
群島
Ｂｌａｃｋ
##ラング
議院
恒久
社格
０．１
##ブラー
破ら
アスレチックス
三菱電機
水槽
待避
ＮＨ
コンタクト
参列
皇女
実の
湖畔
##ｐｒｏ
ＴＴ
##鶏
栗原
キース
四球
懐疑
一時的な
不足の
占めた
ディーラー
課さ
岩倉
フェー
縦断
マサ
ヴォルフ
##ｕｅｌ
倒れて
##けたり
花園
られたり
神楽
廉価
賞典
密接に
スワン
##墨
ＴＯＫＹＯ
##ねて
１２２
残骸
レニングラード
カレンダー
民進党
村長
パラダイス
試料
##入れる
専ら
温帯
上原
庶
ジャッキー
取り扱って
抑えた
起草
滅ぼさ
仮設
ネル
業態
兄妹
ＰＴ
薨去
##治郎
嫌悪
##翔
##ＤＦ
豊富
何故
東邦
シッ
花弁
志す
紳士
プリンストン
##ａｍａ
見つ
##ＯＮＥ
伸ばして
##５・
１８３４
元服
ブール
曾孫
納め
長方形
ゆうびん
ピレ
岩国
３．０
ども
##Ｃｏｍｍ
異常な
室蘭
ＰＡＲ
浅間
養護
##附
##稽
クランク
牌
ロッド
##ＡＧＥ
譲って
レコーズ
双葉
回す
##ニクス
フット
隠す
愛して
##距
##濃
ペダル
シグ
ちゃんねる
二男
挽
大腸
消え
萌
##ミュ
##к
##大に
紀州
##罰
直系
かかわる
仲裁
併記
太刀
組曲
##卵
じま
チェルシー
##タリー
藤岡
##ッセル
残党
失調
##ンベルク
Ｈ．
さんま
土着
ただちに
航続
アニメーター
閉校
##磯
上がら
前任
##學
署長
スウィ
安く
漬け
##ｏｎｔ
ゲノム
見つから
シュミット
##アト
れれば
打球
全力
##ＬＣ
残せ
チューブ
省令
歌声
戦中
##かせ
受諾
フリーの
反感
１，６
ターナー
ベイスターズ
怖
画質
釘
デラックス
広範な
シュトゥットガルト
カルロ
蒲生
ステータス
錠
ガダルカナル
レイカーズ
モト
固めた
踏まえ
充て
八尾
ドロップ
抱
検挙
講堂
一方的に
ワークショップ
救難
カウンティ
##換
アカデ
グラー
限度
パスポート
##ｇｌ
離島
１４００
天草
ハイチ
##ＤＩ
的だ
応力
はち
１８２５
以東
実名
寛容
条文
プリメーラ
瀧
##リントン
身柄
乱入
チンギス
コンパ
##ｙｐｅ
菌類
Ｌｏｖｅ
##すぐ
##替
##ナリー
手がけ
##ベット
ハビ
ラビ
笑って
モダン
了
失望
アームストロング
長者
当面
ハッピー
生家
陽性
長良
##クリー
##爵
施す
ＧＮ
##Ｔｏ
ホイッグ
ディック
島嶼
ロースター
略さ
形容詞
メラ
ｎｍ
汚職
苦しむ
広範囲
強大な
規程
オースティン
##ラウ
兵衛
夕刊
経理
便所
藤村
##艇
天台宗
濡
##スティン
優遇
払う
いつか
助けた
##街道
諦
ダイジェスト
黒澤
サリー
パスワード
垣
##おか
届出
##ＡＯ
トータル
潔
湿度
稔
伊那
轟
##週
正平
バター
人為
諦め
昨年
貸与
##廉
選曲
##立てて
##膳
産生
アレクサンドリア
##Ｃｏｒ
被弾
ギルド
軍医
ホース
投降
##モンズ
備中
廉
ウリ
／ｍ
壺
##さつ
狐
回生
カサ
##ラード
擲弾
満たない
##誌
##廷
武藤
##継ぎ
##パート
悦
岩田
ニューメキシコ
マフ
１７９０
倒壊
発布
大平
俵
##並
時系列
ＥＭ
銃器
上智
Ｍｅｔ
広まって
竜王
##ぺ
崎
ジュース
故意
剃
自然な
返答
屋号
できれば
野心
庶子
格付け
ＮＥＷＳ
語尾
##くる
##アント
##Ｌｉｖｅ
##メロ
開ける
戦わ
公的な
ブリストル
##ｅｎｅ
居る
本流
プライス
##剛
いまだ
##廊
##センス
同一である
一瞬
大成
越冬
拒
ワースト
爬虫類
モリス
ニクソン
##臼
知覚
##ウィー
プラチナ
財源
##戯
ＧＰＳ
遺骨
##質な
開墾
熱中
ブロード
広げた
ニューギニア
ｓｈ
ふたたび
ファンタ
アベ
池上
##л
厳密な
呈する
とどまら
歩み
放流
富岡
闘い
静脈
オキ
１７９３
舷側
はし
北村
筒井
飼料
適切に
ピクチャーズ
##Ｉｓ
##シウス
エコノ
機首
トラスト
ほんの
準じた
コンスタンティ
パラグアイ
神輿
##ギル
開けた
空白
##ｍｙ
嫉妬
##トカ
野手
１７９２
クビ
薩
苦痛
さかのぼる
遡
切り替
細工
なぜなら
チュニジア
バーチャル
感想
##賜
ＩＬ
手腕
箇
##ムー
たくさんの
噛
射影
神事
飛翔
コック
ＮＩ
ツリー
潮流
高野山
花粉
埋める
有線
ピル
##失
谷口
てつどう
ティル
咲く
皐月
ベータ
新庄
豪華な
騎馬
Ｉｎｃ．
##ヨウ
沈黙
##冷
卓越
ストリーム
募金
##了
ＢＣ
ギャンブル
##ｈａｍ
左京
受理
旭日
##エンス
##福寺
ドット
垂れ
はるか
中略
汲む
誓
在庫
薔薇
##がった
間際
愛用
茨木
##ｅｒｅ
ノヴゴロド
エコ
役立つ
遊戯
漂
誘発
エンブレム
グルー
##ｍａｒ
##カート
ケビン
タスク
ＭＵＳＩＣ
１１００
曲面
ロドリゲス
Ｙｏｕ
##ヤーズ
崇敬
広まり
##甫
飛んで
ブレーメン
コンビニ
流布
１８０４
クラー
##斉
##オロ
描画
現生
刑罰
自律
感度
ランニング
ファイバー
デパート
ジュー
ディン
比重
年貢
##ＳＸ
流星
##卓
チャイ
ヒドロキシ
四肢
##−８
マッド
生えて
１８２８
恐らく
塵
ＥＬ
イアン
吸い
なさい
パトリ
##消
##ニャン
幸せ
ＰＲＩＤＥ
長浜
ランス
ものまね
本誌
リサイクル
校地
＠
##ａｒｌ
Ｂ．
##フスク
随所
ジョヴァンニ
ゼウス
個展
撰
確かに
##囲
消えた
ラド
アントン
戦乱
許す
畿内
モンロー
##ビオ
履歴
耶
トレイル
ミゲル
覇権
課せ
徳間
金田
##叉
１，５
訴えて
マクシミリアン
ダメ
ビス
執り行わ
##十二
グリル
直交
効
派手な
みん
シング
スペンサー
二度と
##耗
同業
正午
腫
##ビック
公理
##磁
くだ
島民
シティー
握って
倒して
スプ
前座
年月
菩提寺
##ＴＹ
充填
ＳＮＳ
傷害
##ミネ
ＢＩ
水利
##チック
こみ
##曽
火葬
無くなった
ダーウィン
もらって
冷蔵
Ｍｕｓｉｃ
フレッシュ
１５９０
##ｉｙ
ＰＰ
テイク
隼
チャップリン
田川
まっ
講道館
遷都
ふれあい
スティール
##傑
ファシズム
逓信
上り線
等価
伸ばす
キャット
みずほ
明かした
禄
##ディーズ
内乱
##Ｐｈ
強固な
叶わ
サバ
ろく
グレゴリオ
軍縮
光沢
レイテ
快挙
面接
スコープ
マダガスカル
噺
##矩
##酷
繰り広げた
##モフ
否決
僅差
紫外線
##ルーズ
高倉
儒教
育児
常備
##ギャ
##幣
##たろう
覆面
分社
クーペ
移封
きよ
聴いて
ミラン
委嘱
##Ｈｅ
ＯＲ
審理
日時
##т
##Ｑｕ
ＵＰ
局面
##詰
##柔
がちな
曹洞宗
##らぎ
##Ｐｏ
すぐさま
カートリッジ
フレンチ
##株
牽制
ブラザース
ひさ
南洋
慣
６５０
専売
紙面
フィリーズ
ポリス
転覆
マザー
スルー
リモコン
マタ
ミッドウェー
林道
たろう
配合
マシュー
飽
飛車
遥かに
##マーズ
１８０７
請負
眉
放って
盗賊
吉岡
名神
であったり
握
ヒューズ
さよなら
訳語
ヨシ
いっぱ
##チング
苗字
水晶
たくさん
##ＩＶ
爆雷
晒さ
##Ｃｌｕｂ
ジロ
高値
##ｉｑｕ
なかったり
##Ｃｏｍ
元祖
##ｏｏｌ
ルネ
##ッキング
ジャム
配さ
朝夕
チャリティー
教え子
つい
##庁
届いた
##イロ
店員
ＮＰ
輔
##Ｗｅ
一変
##エア
##菊
主観
クラシ
合祀
葛西
江川
握った
有した
ハラ
ストライク
通販
##どころ
パラオ
##翁
１８１６
銅像
鳴門
爆笑
客演
ラファエル
戦犯
魅
銀貨
##癖
相次ぎ
ひめ
啓発
嶋
リソース
亡くなって
なかでも
##ｃｏｍ
##じゅつ
新規に
将軍家
##アンズ
あず
##Ａｄ
##綿
カリキュラム
因み
##股
欠く
##除
海防艦
##ラック
ひどく
##ボラ
##杉
バーグ
実兄
床下
麻布
落ち着いた
郡名
ゴット
外出
８万
##奉
動か
パトロール
１７７６
##スハイム
挑発
コンパイル
学力
Ｂ−２
切ら
愛し
好投
アイコン
親しい
デスク
田口
##ｓｙ
楽しい
ＦＳ
黒字
整合
ウイスキー
軽井沢
供述
起こら
交わした
煩
##予
知多
上総
##ＮＳ
##ティヴ
篠原
蒲
満た
毎時
ＵＫ
エドガー
特別の
ل
##Ｏｆ
確執
インデックス
水量
嘱託
連発
アンコール
バーミンガム
明確
##ｅｎｃ
匈奴
インドシナ
曾
フレッド
１５２
##ｙｄ
載って
かえ
##邪
流量
知恵
##ＧＩ
三沢
除名
陪審
Ｗｉｌｌｉａｍ
転職
##シク
##ナビ
辿
政変
頭痛
##ＲＡＭ
商務
焼け
パウル
乗っ
忠実
花崗岩
帯びた
刈谷
諡
Ｄｏｎ
##しむ
飼
創出
増やし
##サーズ
英字
中西
ダイビング
フォール
嗜好
##いる
益田
##ホフ
壇
新制
##灘
観賞
Ａｔ
デビル
一斉
セグンダ
スカル
炭化
樹林
添え
ＵＳＡ
ときに
加古川
浙江
コリンズ
小室
##チカ
稿
##ストーン
金貨
必要だ
下回る
溢
殴
妻子
川村
おもちゃ
サンスクリット
とどまる
ウェルズ
マッキン
通説
##Ｎｅｗ
骨髄
貫く
斡旋
思惑
乱闘
一度に
降雪
富豪
丹後
正規の
##フォース
##スラー
##回し
豊前
巫女
##補
菊花
襲来
ないしは
##ギリ
カタカナ
トキ
セーヌ
チャイコフスキー
##短
湘
活かした
法典
##削
タイル
坂井
それゆえ
神仏
歌集
##測
西園寺
ＥＦ
##ミナ
##ビール
##バナ
是非
なれる
按
動植物
##チュア
コスモ
うま
忘れて
ロペス
官邸
音速
終末
##受けて
ｉＯＳ
いたら
海老
部局
##ボロ
成り立って
時計回り
分譲
両院
伴わ
##スタル
当てて
知らせる
##ボイ
下田
播
泥棒
陛下
脚色
１８１３
呪文
##秘
明智
タブレット
羽根
士族
光明
##哲
叫び
比定
別々に
##髄
客席
##訪
ピート
俳
##ダウ
行ない
侵食
音階
右腕
##ドマン
なおかつ
しも
いす
患
出塁
疾病
夕張
ＯＫ
##隣
酵母
稲垣
んじゃ
##まつ
##ダウン
ＤＢ
##ルク
驚いた
成形
デート
密教
恨み
忠実に
##ピース
アンゴラ
##ミット
テュー
擬似
##撰
給料
ディレ
天竜
アワー
一本化
直行
##圏
書き下ろし
顕著に
セロ
白血病
生母
##バイン
山々
ブルボン
子育て
退け
トレー
マド
ＩＧ
##ジム
ロート
古文書
松阪
セグメント
嗣
つなぎ
ジブラルタル
教訓
付き合い
可汗
三遊亭
文言
ＤｅＮＡ
越中
##スティー
アングロ
増発
アセン
ボリシェヴィキ
岡部
出所
##降
厚木
６，０００
皇位
##ニム
櫓
１４４
１５８２
いくらか
##溶
自決
ＷＥＢ
γ
洗濯
胎児
自機
だから
軟式
伽藍
机
監察
##ッシャー
##仁親王
##ヲ
チャールストン
首領
督
遠山
窮地
更生
此
クイ
アンカー
散見
##デュー
ディスコ
##廠
胤
##マド
回さ
ロッキー
##ＲＮＡ
回航
キョ
飯塚
##メール
##北道
一式
##ｉｊ
第一線
疫病
暮らした
った
等しく
インバータ
平戸
視力
チャイルド
##レッド
関し
##湿
##トレー
##ショナル
立方
アリストテレス
こくさい
ワイヤー
蒸発
沖合
買い取り
##ールト
ラルフ
##ヘッド
信じる
説く
不幸
下がり
加水
オプ
撒
こい
携わり
##藻
受給
##朱
冗談
ガンマ
会期
桜花
牛肉
漂流
闘士
盛んな
２６０
ヴァイオリニスト
唐代
予め
##燈
フルーツ
妥
応急
憤
測度
かり
ブレード
芦屋
称え
##ＮＴ
##カレ
やむ
洋楽
ミステリ
登頂
秋月
妄想
緩やかな
宇和島
不祥事
前夜
告訴
ソフトボール
代償
##ｐｏｒｔ
##謀
浮遊
コスプレ
百選
会戦
上回って
秀忠
坂口
稼
##カッ
ミッチェル
##ＡＨ
元就
##メト
豊岡
抵当
##潟
因果
無数の
地雷
クラッチ
相性
##呼
人民党
水着
ベルク
パラリンピック
##スカヤ
可能だった
らい
リターン
スタンプ
##気に
##ろく
バトラー
根岸
ヴァイマル
光源
Ｆ．
##ｉｎｔｈｅ
司る
盗み
人力
税務
プラモデル
たかし
譲ら
はじまり
見事に
同化
##グモ
母子
１８２４
英訳
らん
##ては
セブ
ヨット
潜航
##ｂｅ
##ぐる
糾弾
平井
##ばし
こなし
突然の
租税
ジャガイモ
叙事詩
Ｏｎ
１７９５
##待
南岸
ヒスパニック
##スバッハ
開けて
##斐
高速で
叔母
校歌
再起
##滑
被った
##Ｔｒ
モロ
千住
出来て
断続
エッジ
入幕
##ｗｉｔｈ
坐
１７９１
東国
業種
ファシスト
クワ
初年
ワンダー
西条
天満
ＡＥ
網羅
手足
プロット
如何
ペナルティ
Ｆａｃｅｂｏｏｋ
レーガン
##アレス
##田川
電装
満ちた
でんしゃ
プロパガンダ
ＫＥ
大仏
##嶽
##鍋
##ｃｏｌ
ちん
プロフェッショナル
スタック
プランテーション
ストロ
亀田
♪
アクア
一味
##Ｗｈ
##婚
後輪
シモン
##珍
触れた
２８０
発して
いとう
生還
##粒
シクロ
症例
病没
ボローニャ
新書
きみ
カバ
土台
宮古
開削
##ｖｏｎ
培
ツインズ
経った
##出る
ＰＳＰ
捕縛
１８２９
切り替える
##ｈｔ
活字
マカ
##庸
蜂
ラピ
右舷
グレッグ
グライダー
府県
ハードコア
##まん
欠番
賦
済む
サターン
変種
グリッド
##ｎｅｙ
ラーオ
並べて
セルティックス
１８０５
ウインド
ミッキー
下り線
泣
サンプリング
長兄
##Ｒｏ
１８０８
遂げて
##ｌｅｔ
##栗
尽くした
複雑に
跳
雁
履修
引数
降雨
八郎
Ｇｅ
##鮮
１６８
操舵
榴弾
めぐみ
わず
風潮
ドッキング
レディース
囃子
##フン
確
アインシュタイン
コメンテーター
着た
##徴
升
Ｈｉ
野望
##タリア
宴会
ぶら
直立
##答
瑞穂
ホワイトハウス
クロム
ＭＤ
##タニ
遊撃
##ゲイ
シーア
分光
##アンス
千秋楽
##ＨＥ
##しお
挟んだ
淮
ヘレ
分隊
霧島
体裁
ヴェルサイユ
##がた
上った
##てつ
杉浦
栃
上回った
##っくり
１８０２
##レーヌ
１２７
プラトン
##ＢＭ
シンプル
グラハム
常駐
農薬
大韓
どうしても
工具
Ｓｙ
音波
ロジャース
イェール
江蘇
明朝
スピーチ
わん
要所
##ｒａｙ
ボーン
植生
大本営
敗者
１６２
ビア
##Ｂｒ
原宿
窃盗
伊集院
柳川
クリック
##横
##レア
岸和田
##疹
辿り
着色
連ねて
##キャラ
致
##きた
ボギー
本隊
##レーナ
ＭＬ
溺
##ついて
腎臓
##ディオン
発送
課金
ツーリング
##なみ
元治
ステファン
攘夷
機長
アンプ
汝
腐食
コンソール
ジュン
ポーツマス
##ティスト
もたらし
ロッキード
##ｙｃ
撫
ひこ
モノクロ
増やして
他界
産んだ
ソナー
不定期に
度合い
##Ｂａｒ
ＪＰ
ネック
国造
##グン
逆の
暑
みゆき
坂田
たいてい
##河内
心筋
朝日新聞社
吹雪
即時
##ｅｒｇ
頭蓋
ｏｒ
##もる
２０５
##ｉｎｇｓ
アスト
ウルス
過剰な
遠距離
やりとり
尹
満塁
ハンプトン
吉備
品番
アーマー
きち
ＧＳ
##ｉｒａ
リハーサル
セッ
保った
果樹
##Ｓｔａｒ
ダニー
お互いに
オーロラ
手帳
エクアドル
萩原
マインツ
ルーカス
まわり
ゾン
漢方
カジ
解き
下方
散布
バラエティー
媒介
アルブレヒト
##フリート
マハー
外壁
偏諱
台枠
クウェート
欠如
下賜
平民
取り戻
両岸
脂質
叙爵
１８２２
テンソル
醍醐
##逸
もて
水島
百科事典
間違
宿舎
##ターン
左腕
##ダラ
嘆
##クサ
イノ
習い
維
マーチ
疲弊
不服
バーナード
##辻
冥
欠席
左右さ
従兄
加群
苦情
Ｔｏ
観衆
コンペティション
贈呈
商科
##セラー
Ｗｉｎ
##エット
オンエア
速球
##ニェ
応える
逢
嫌って
不定
##たし
錯誤
##頓
ゼル
勧めた
ノルディック
##ぶつ
メッセ
掛ける
##しら
夜明け
旅順
ズボン
##サキ
手助け
可換
正当な
統率
儲けた
不可能に
寒冷
##ミラ
超越
醜
Ｒｏｂｅｒｔ
ｐＨ
転入
返却
パーソナリティー
信奉
Ｍａｔ
蔵人
１４５
棋
##ツィア
コク
向こう
１８１９
沢田
ヘリウム
##ＷＮ
東区
取り巻く
らく
アイン
うつ病
趣
ボリス
走った
髪型
ＢＲ
排他
賛否
冪
とし
枢軸
團
くち
一撃
アムトラック
掃討
悪かった
ルカ
オセ
念仏
推し
小浜
襲う
変調
坂上
チューニング
翁
防備
そろ
遠江
童謡
##サウ
訴
１８２６
序文
本因坊
##ミントン
##ウイ
探求
Ｊｏ
##煕
エイリアン
画期的な
シューマン
シャーシ
山上
及ぼした
蜜
Ｖ型
##ウェン
許した
##ａｓｃ
ディズニーランド
##狂
執
##ｅｐｈ
Ｔシャツ
マティ
要人
冠して
##８０００
両用
##親王
やむなく
鉄鉱
ＪＮＮ
ブン
詰めた
１８５
接種
チェスター
##ッケン
熟成
沸
頼ま
行こう
取り入れる
ぐち
アクセル
##Ｔｒａ
##マッ
気流
働きかけ
滝川
トレント
廃藩置県
連作
踏む
だした
１８１１
ＦＫ
勧請
##ｚｅ
ジュール
負けた
膨ら
嬢
フェス
艦尾
スチュワート
三菱ふそう
マリーンズ
参政
重症
今年
王様
積んで
外傷
##ｓｔｅ
##ｓａｎｄ
##喰
筑紫
ＭＡＸ
カーボン
##れい
東大寺
１５１
パロ
冒
##リーノ
##ａｎｋ
##４・
ドミニカ共和国
ボルドー
当てた
繁華街
自慢
とどまって
取り付けた
インディアンス
わら
カラーリング
##リティー
レクリエーション
家事
芯
帝王
##匠
硫化
##ｏｓｈ
専制
楯
撃た
落葉
目玉
シンセ
怨
##遣
俗称
棋戦
烈
先鋒
社民党
魔界
##ジェー
テント
アナトリア
フェンス
カーニバル
海南
カッセル
最短
夜中
救わ
カウン
足跡
オセアニア
文体
宝物
##寇
##鉢
横田
##’
某
##ｉｓｍ
##崇
##なか
ザルツブルク
聴き
吉原
##ＴＴ
##廃
##合った
##ざい
抗原
殲滅
##であって
ホフマン
##斑
バートン
##ドーム
破裂
##ミクス
##ラーゼ
スパル
目安
模
##ペラ
ゲームオーバー
既婚
修学
新川
ゲーリング
Ｓｙｓｔｅｍ
プロトン
##直し
##ヶ崎
孤児
##がれ
ショパン
オアシス
件数
家光
居た
マルティ
侮辱
明らかな
戦勝
動態
明かして
エアバス
共学
##宰
ジェノヴァ
クルーザー
ＭｉＧ
大道
申し出た
本陣
ロブ
捨てる
直した
相次ぐ
スタイン
経口
靖国
##ループ
##灰
通した
断定
下着
直人
##ｕｒａｌ
賭け
##ならば
スイング
父方
##Ｃｉｔｙ
オーボエ
下総
覚える
##蔭
アンソロジー
ランディ
乗り物
ＲＣ
駅員
萌え
##整
バビロニア
##セフ
発起人
入江
##暑
##墓
バシ
面影
しな
王政
殷
右京
艦砲
##出て
債
ブックレット
直さ
のであり
大変な
峡谷
数万
不明に
室長
加担
##ズド
電器
構えた
千島
ニューポート
１８１７
当ては
誉
随行
##ＯＤ
モニュメント
冷たい
向ける
##猛
##オウ
ツル
##嘆
愛宕
##スバーグ
定額
運んで
ボディー
脱線
確実な
向か
##ｉｈ
熱い
Ｇｒｅ
原住民
模範
##まず
サハラ
デフォルト
ハリソン
３分の２
法皇
##験
オールナイトニッポン
ヒョ
参院
排泄
三菱重工業
伺
風速
##ラブ
対向
種々の
法規
東晋
ジグ
１７９４
##等に
初旬
パブリ
##キョ
大介
未完
##啓
事典
除隊
##欠
苦悩
モザイク
一騎
１５３
クライスラー
スルターン
##ＤＤ
ＶＩ
廃刊
軍曹
１，２００
メソポタミア
来訪
嘆願
帰順
賀茂
##ティカ
開基
トマ
アレクサン
独学
鮎
##フォール
鳥栖
クルド
続々
弾劾
瞑想
ブルーノ
フェルト
埋蔵
１２４
加害
ファンク
増した
綱領
菱
##ステッド
航法
登校
縦貫
##ヴン
位階
テッド
##ポロ
##巡
きょうかい
聖なる
##槽
製菓
寺田
ペレ
##肩
詰める
グリーンランド
注ぎ
柔らかい
アレク
チェー
テム
僅かに
名字
たちまち
サンズ
注力
モットー
##ＯＦ
フラット
ベア
マリナーズ
定格
外れる
長身
ヒドロ
大石
色々な
##グラン
バチカン
待
祠
##クマン
修飾
保養
沈み
丸い
ＦＩＡ
アプ
越し
##スリ
奪って
１７７５
精算
面白
譚
マナー
##Ｆｒｅ
##スチ
そのように
必要で
石狩
##損
１．３
きっぷ
##ズー
##ミヤ
##まま
世に
飲んで
イオ
空爆
ａｎ
キリシタン
子弟
##ｅｒａ
離着陸
##Ａｍ
##Ｂｒｏ
利き
苫小牧
土塁
怪談
秘密の
見事
原生
淑
内面
##２，
徳山
トラップ
ブルズ
タール
ハウゼン
落札
ホス
１８３
斯波
漢文
大雨
立ち入り
##ラマ
なかよし
テンプル
同型
三輪
触発
食肉
アスリート
論じ
アイデンティティ
プロトタイプ
範疇
ネガ
強引に
直樹
ビルディング
##イエ
居酒屋
##上がった
##っか
手本
##ポイント
星団
##ｕｃｋ
ディラン
##ｒｅｔ
アンモニア
さとう
ボイコット
##駄
ＲＳ
棋院
バッファ
サンティアゴ
眠り
光緒
訪ねて
える
屈折
アルベ
砂浜
黒星
デューク
##ナップ
宇文
要約
所領
##革
キャッ
総主教
母語
フラー
擁して
トランジスタ
スラム
ガウ
鞭
##かして
長嶋
見なす
有理
甲賀
テッ
千里
##光寺
それなり
パッド
頸
##武帝
のぞ
亀裂
口腔
丹羽
隼人
Ｓｕｐｅｒ
港町
汗
のであれば
チョーク
##チス
ー
##ｉｔｓ
硬い
美作
##飼
エタノール
娘婿
静かに
捧げる
嶺
衆院
人柄
キャピタル
六甲
##ころ
不利な
１８２３
##ながら
迎
担任
伊勢崎
念頭
##パーク
霜
##蹟
##Ｈｏｔ
１７８３
##ニッツ
抜か
Ｄｒ．
テトラ
不二雄
関脇
ホールド
ピックアップ
いずみ
##ＫＳ
節約
キューブ
頬
執る
##くろ
##まえ
小早川
寵愛
諭
レジスタンス
大理石
ＡＯ
甲状腺
ＩＳＳ
一夫
大牟田
アミノ
スクラ
伝わった
プロヴァンス
蔓延
戦没
苻
叫
##６万
テール
おはよう
ビック
奏法
ｆｌ
独断
連日
必要であり
白紙
紡
譜例
オスロ
カリフ
枚方
値する
気づいた
握手
##ーニ
Ｍ−１
フィルタ
全廃
ステロイド
だし
パパ
ジョアン
##マーク
白く
行程
グラスゴー
##すり
リアリティ
滋
亀井
持ち味
スタッ
注いで
気味
仁川
１，８
アフター
スチール
減った
##明天皇
聯
東横
##ｅｎｔｉ
普請
文治
暮
１８２７
大隅
ＪＢＣ
彩色
ボク
スクリプト
##リード
同情
エミー
カラス
かご
##スドルフ
ＣＡＳ
密輸
迫撃砲
昇段
##婆
首謀
病床
シークレット
先立つ
##デア
自著
逃げた
ＤＲ
にっぽん
##びれ
通年
興味深い
##リッツ
##細な
１５万
昇叙
まずは
にち
１５６
明白
##猫
##気で
マリアナ
増税
ならでは
スキャン
熱海
郡上
案件
カスタマイズ
ａｎｄ
市町
レガ
翅
極秘
京橋
オークス
ＬＧ
モーメント
Ｆｅ
鹵獲
##メガ
比して
音質
汲
##野川
ことだ
食べた
##７万
よろ
##頃
高低
アーカイブ
躍
##カタ
ミヤ
##ＡＣＴ
消える
全幅
##リッチ
ｐｌ
黒く
スターリング
放牧
パンツ
任せ
奮戦
##デット
あゆみ
購買
嘴
フェンダー
Ｈｏｔ
足らず
１．４
下す
彫
ふり
座礁
願う
##シーズ
##なかった
大文字
Ｈｚ
##変わり
踏まえて
何でも
ウイグル
青梅
##ナーレ
##ｌｅｒ
ダイレクト
##きょ
サクラメント
バッジ
座って
知見
委ね
##ＥＲＳ
１５８
船尾
就学
##ぐち
町民
セーラー
海里
##Ｍｏｎ
##靖
##ひこ
ポツダム
公約
睦
ドロー
磁性
サタデー
逆襲
花嫁
インストゥルメンタル
空位
ＩＣＯＣＡ
朗
属名
ストレーター
福原
駆除
##ｅｅ
ワーキング
##謝
年長
ワラ
##エビ
不振に
健闘
４０万
##ｑｕｅ
紗
顔料
ことば
##克
義昭
変則
１７８０
ｃｌ
##マリー
リマスター
##ＮＧ
程なく
戸塚
ペテルブルク
毎秒
がる
述懐
覗
クロスオーバー
Ｆｉ
１８０９
藝術
推さ
リヒャルト
立ち上げる
一元
施し
ジョーク
乞
ルーク
男の子
上人
救世
二宮
捕ま
調布
勾
##漁
挫折
##Ｔｉｍｅ
樋口
いこう
ｍ／ｓ
懇
いな
豆腐
ゲオル
芋
茶道
##ワークス
増減
一節
貼ら
用具
あたかも
シュテ
複素数
３１０
自転
シミュ
勤労
筑前
名手
Ｊｕ
カルト
欠乏
はっ
めん
##Ａｒｔ
焚
木戸
白亜紀
偏見
冠する
２３．
穏やかな
##ＭＴ
準ずる
メロン
##ＭＡＸ
摘発
チャット
##妊
少な
ボウリング
##ねた
巡査
縞
採決
##虐
##胎
##シャス
ジョイント
応仁
服役
パルチザン
シルク
##ライブ
計器
レンジ
##アッ
後身
適正
##ゴリ
遠方
渤海
川西
オリオールズ
ゲイリー
大倉
##ニコ
幼生
鍋島
別称
段丘
##武天皇
見習い
埋立
##仕
鮮やかな
##専
つとめる
開票
##かける
豊富に
西経
##ＦＳ
替える
賈
##à
執事
甚大な
赤く
逸脱
スプリ
シェン
ザク
ＵＤ
修験
マラーター
混入
デュアル
網走
松村
コミュニティー
県下
救った
見積
空海
モビルスーツ
定式
シュタ
掛けた
後発
Ｏｎｅ
可愛
パース
センサ
練り
昨
よかった
ヘーゲル
視認
一意
コスモス
子宮
##ＩＸ
カスタ
ＣＢ
足首
##湊
コンプレックス
ライド
中絶
##デッ
スクー
##スカン
梵
旅人
好んだ
宴
副題
弾性
たいかい
##ベスト
寄せた
ゲームズ
##込ま
１７９６
##似
ネブラスカ
##メット
部材
##蛇
##ハーン
長井
御前
##ザイ
アクロ
聞こえる
カエル
ＦＯ
オレンジ色
迷惑
朔
チタン
ハイム
##認
漕
携
ユークリッド
喫する
違和感
クロスカントリー
未知の
物事
ホッケー
##滴
アドバンス
阻ま
汐
獲
リーフ
##遺
Ｅｒ
ＷＯＷＯＷ
っぽい
積む
ワルツ
平時
キラー
志村
##ヘイ
主である
従弟
結びついて
後見
籠城
放水
ノーマン
租
抜粋
レキシントン
##ＦＴ
ハロルド
##当たり
決行
ルイーズ
急に
羽柴
地殻
鋼鉄
１２６
下った
字形
抄
荊州
酋長
公道
##ナリ
硝酸
細長く
先導
極めた
北川
戯
民生
##ツィン
##伴
プレイオフ
外れて
南宋
##カット
斑紋
##フィル
神明
光秀
##悟
褒章
容易である
浄土宗
##猿
##トレット
薪
##実な
煽
雍
##舘
座敷
絶大な
映し
榎本
テュルク
##ｅｎｚ
兜
##ｒｉｃｈ
たき
##ついた
伝授
奉天
幡
ちば
なるべく
秋元
悪性
ウシ
##麓
##ドア
１７８１
ナッシュ
ヘルム
同胞
シカ
ｃｏｎ
##ハール
##帽
グリップ
##之介
賜った
##ｔａ
向かわ
ナッ
無機
鉄路
１７９９
カフ
ヤロ
ヴィラ
成体
朋
いとこ
##ぐら
推論
親指
シド
秀樹
レプリカ
ふう
怒った
視線
##なが
##オーネ
コイ
ＮＣＡＡ
サトシ
##折
左舷
ドーピング
##Ｉｔ
ソラ
葦
吉野川
消して
振り返って
ロナルド
臣下
整形
ＤＦＡ
##ワールド
バラク
重なって
丈夫
強風
##Ｃｏｍｐａｎｙ
ティムール
##れれば
近づいて
雇い
呼びかけた
削り
休場
１，７
##ュル
##Ｃｏｌ
##ｂａｌｌ
##Ｃｈａｍｐｉｏｎｓｈ
洋上
関根
##トリック
欠き
すず
##イヤ
だす
砂丘
フィード
水谷
フェリックス
ＦＮＳ
##ニオ
採った
##ＳＦ
台場
言い伝え
３４０
１．１
リポート
載せて
貞享
プトレマイオス
##ツェル
##ゼット
退き
ローソン
挙動
ヘルス
忙
メト
支柱
##マキ
エスカ
被疑者
##Ｐｅｒ
公称
ノリ
##もった
ＨＴ
規
エレクトロニクス
##ｂｅｒｇ
##ｉｉ
##ｏｔｈｅ
ダッ
シノ
安保
プエ
手放
エミール
##ドッグ
Ｃｙ
四股名
砲術
馴染み
ニトロ
##ウリ
湖沼
大町
下面
##明な
服従
●
パッチ
##ｉｔａｌ
ハーグ
##テク
もらえ
採る
屯
７．５
##クラー
マーキュリー
##ましい
賢治
黎
##午
整え
きちんと
ムガル
捏造
Ａｎｄ
デア
化した
シップ
苦しい
##タース
大切な
ハーモニー
２５６
税制
打ち出した
努め
ミール
乗り出した
清原
卯
気付いた
##ＡＲＤ
づけ
車軸
タウンシップ
退避
##っこ
##フティ
シューマッハ
ラット
Ｓａｎ
レノン
災
三女
##ウィウス
曲名
累積
２１１
アーセナル
ゾウ
##ストー
##レント
##ｙｍ
イングリッシュ
ユニバーシアード
１６３
費や
車道
伸びた
放射能
##キンソン
目立た
フィアット
宣誓
##隠
三方
公子
名取
##にち
建てる
##Ｃｅｎｔ
答申
暫く
魔物
カーネギー
見かけ
深める
戦局
##合わ
##すみ
##Ｍｃ
アスペ
生える
掛川
##６・
着物
ざん
シュレー
縄張り
バーゼル
一掃
カーテン
帝都
ウイン
ベック
##Ｅｌ
羽生
憲政
欠ける
海部
分か
メソジスト
原典
デスクトップ
１・
多摩川
動乱
減る
Ｉｎｔｅｒｎａｔｉｏｎａｌ
ＡＴＳ
記入
##ミュージック
##脱
無色
受け取って
取り決め
壱岐
##オニ
ハーバート
ジャイアント
アミューズメント
ベストナイン
筆名
減らし
控えた
##らしい
サファ
##霜
ことごとく
降りて
有用
##戻さ
トレーラー
ＩＯＣ
数理
ミトコンドリア
方角
総計
みなと
ドリンク
県営
長所
ＮＣ
##ç
##アジ
田代
コネ
清盛
ギャラ
##マチ
ドク
テムル
本所
温室
世の中
バース
行え
ルワンダ
ＳＢ
化成
土手
##債
カザン
##抜
種小名
湖北
##鎖
球面
タタール
兆
##１５０
リフ
下顎
空洞
式部
下向
傀儡
風船
明瞭
アングル
真ん中
最小の
##バッ
在外
極力
再演
引き起こし
幕張
##泥
##手な
覆い
ソプラノ
##ＹＳ
騙
セレクション
##ｅｈ
鳴き声
割れ
死別
##．Ａ．
ホーン
竹下
クリスティアン
盟友
##ＨＤ
投げた
ジェル
日吉
争議
穿
##ヒェ
##ノワ
##スカー
厄
ＳＭＡＰ
オルレアン
皆無
セレモニー
六角
ザー
ひまわり
電線
ＹＯ
高めて
子息
捜
パット
壕
##コラ
##こと
ū
Ｌｉｎ
乏しく
三越
##はん
秒間
争って
甲殻類
##函
牡
治癒
開示
モラ
渡河
##メチル
三宮
抗戦
##ライス
##弼
艤装
##ラッ
１７９８
戻し
結束
すれ
バトン
##エッ
弦楽器
##立た
本庁
製剤
##Ｏｎ
##ブラン
##ＥＸ
群衆
建ち
ファイン
独創
幼馴染
ｆｔ
スィ
##否
斜め
減衰
上回り
##デンス
無差別
芝生
ＨＴＭＬ
源義
同様な
すすめ
##たった
##Ｈｅｒ
欠けて
キール
空冷
新種
困難であった
##ヴェイ
##遅
旧姓
空力
ガーナ
集権
反共
旧道
欠損
倫
貯蓄
町人
##塁
鉄製
##ソール
由緒
城塞
トッド
新編
娶
号した
拘置
##ｎｅｔ
梶原
クラウス
大晦日
談話
##易
国債
ナンシー
湿潤
板垣
画風
レポーター
ａｍ
引き離
儒
バッド
内臓
##尹
相棒
吊
チャック
##ストゥ
抑
城下
下町
ゾー
三鷹
ＴＯＰ
##壊
ホワイトソックス
##ロア
傾き
化物
ペプチド
##侠
プラグイン
揚陸
バドミントン
##錯
バナ
オホーツク
##ＮＣ
##Ｗａｒ
３０１
##蒲
あっ
類別
##リート
コロコロ
長島
Ｉｔ
##ウィック
##らう
５．５
近距離
殉教
##幌
三陸
つう
主眼
札所
欲望
##蹄
##Ｍｏｒ
ノーマル
あわせ
自爆
ＫＤＤＩ
パナ
##ｉｃａｔｉｏｎ
購読
##クライ
スマトラ
巌
投じて
##ミオ
パプ
見直さ
ビルバオ
３８０
##８万
サメ
##レク
上奏
諫
相良
ジェフリー
演義
懇願
技巧
社屋
セネガル
音頭
隠蔽
パドレス
ギャラクシー
ＩＡ
##ルカ
めざ
ペンギン
放電
慧
ＲＡＷ
狭山
正教
次作
賃
##入れて
想
##ＰＩ
##ログ
破門
##渡した
戻した
皇居
##張って
しめた
押さえ
僚
ニューハンプシャー
正史
立山
就業
一端
##ＧＳ
水色
桟橋
すずき
重合
１７９７
いさ
##クラン
様々
巻末
鶴田
∞
##篠
ネッ
ラインハルト
##ドキ
旧名
ブースター
フレームワーク
１５４
穀
ロイヤルズ
ＩＦ
おい
大勝
岩井
##稜
敷き
出国
狙わ
携行
アルビ
職種
##リアム
ａｒ
##カース
１，３
公論
ばし
肩書き
鞘
フリッツ
伝わり
吹く
##フォート
##Ｕｐ
シンデレラ
##ヌイ
##なう
活かし
##ウー
祀
大胆な
蔑
つくった
冬期
Ｐａｕｌ
##ＮＡ
萼
柳田
助けて
ＴＩ
##付いて
関口
ばかりで
現す
##カビ
##脳
昇級
破滅
試みて
##ＮＩ
スバル
ｈｐ
空輸
随一
置き換
ガイウス
なぎ
ストーンズ
ｌｅ
パウンド
杵
##ＣＯＭ
かぜ
原文
##霞
ＪＵ
##淳
石見
押して
小麦粉
迷い
信夫
十八
采
メド
上皮
##韻
σ
カント
番頭
払い下げ
エリオット
##Ｂｅｒ
着実に
反戦
下宿
ポーター
ベネディクト
浩二
ログ
濃縮
女房
ダンカン
##コット
##タゴ
バーンズ
モナ
盛んで
##ＦＲ
気づき
ハングル
##ｓｔｒ
１０億
出せる
アブラ
##グラフィ
中庭
ザル
受精
掃海艇
##ｔｉｍ
分けた
全軍
安房
カステ
ギムナジウム
施して
ひどい
区切り
##臭
##新田
ボスニア
帝京
慶喜
北山
##ＴＩ
重慶
スタイ
キルギス
ストーム
局員
菌糸
##１．５
実情
プライバシー
誘惑
ジョンストン
津島
##ａｕｒ
Ζ
ウェア
##リアヌス
##働
打上げ
丸の内
税関
マート
速射砲
背鰭
ナショナリズム
版権
下段
国税
めっ
乱れ
どんどん
兵科
ポッド
ブロン
宮沢
##ＡＳＨ
トラス
空調
レギ
##Ｓｃｉｅｎ
ゼネ
曲輪
##トキ
勝山
了解
グルコース
酢
##いろ
恩師
ドレ
１７８７
概して
治承
Ｍｏｒ
災い
##ニョン
見つかり
論じて
高裁
デザート
銀色
トスカーナ
##マックス
がたい
中興
発火
ディス
短波
隠岐
明王
神官
##ジス
ＢＥＳＴ
ウミ
サンライズ
据えた
アーネスト
２２５
Ｔｏｍ
ストライカー
覚書
解離
がって
Ｉｓ
トランスフォーマー
恩赦
##ｏｕｓｅ
##ベルグ
負けて
後醍醐天皇
##ブロー
部類
参道
##没
品目
追随
みの
ハーバー
叱
収拾
景色
モデ
治虫
経って
##維
小作
##メネス
##ティーナ
かから
##リスク
仕掛けた
##デック
クリーン
完投
美味
違憲
峯
Ｊｏｓ
ＸＭＬ
##ｐｓ
マグマ
##ａｔｅｄ
福澤
慎重に
ローター
オリエント
Ｊｅ
彭
普通である
##スィ
##拠
華北
ラト
ＦＯＲ
##ヴァール
現し
##付く
小国
ｏｎ
中性
捻
２０３
浄瑠璃
酒場
波及
４００万
文帝
##ｒｉｐ
たら
なおも
キャリー
ホノルル
てんとう虫
グン
##ＩＫ
狂気
身近な
##様に
##穏
##ｏｕｇ
始末
１，９
##悦
##ピック
スリップ
ワトソン
##ｔｉｆ
線維
楽しんで
数量
延岡
ＤＩ
イネ
サンアントニオ
しょく
栗田
白黒
幻覚
イデアル
衣料
因縁
２・３
石山
アーロン
膳
随伴
ウガンダ
##バチ
中井
サルデーニャ
ゼミ
原曲
ボッ
##フマン
チャーチ
スクラップ
控えて
##ｒｉｂ
博文
チェリー
##Ｎｏ
##うた
##ＣＢ
予科
断崖
火炎
蒙
軍服
更迭
恐ろしい
王太
眠る
##ゼーション
病変
日置
面々
転勤
磁石
留まら
宗像
高度に
当たら
召し
##ｏｏｔ
##ハリ
１３２
少子
ワンダ
今村
キッチン
Ｉｍ
メドレー
１５７
##グラード
ロバーツ
漱石
退化
##そり
づらい
嫌わ
真似
耐える
都城
絶版
すっかり
##越した
続投
謹慎
前記
熱心
割に
瑞宝章
##れよう
年鑑
阻
合図
イーグル
髭
##りな
湧水
水原
私的
光度
献呈
##棋
飾
主戦
尾上
頒布
大幅
鋼板
長屋
遵守
申し立て
エレクトロ
長政
北宋
ボケ
ソクラテス
強奪
##遼
##ンドン
われわれ
和声
##鵬
ＳＴＳ
グアテマラ
ストレートで
##酔
モレ
云
大竹
配位
リニア
取り戻し
##であれば
２．４
陸戦
ポータル
乃木坂
マスカ
##麦
転封
ハイビジョン
蟹
##メア
辞め
ＵＦＪ
マイヤー
##Ａｌｌ
山荘
龍馬
勝て
パラシュート
なぞら
入間
げき
心地
##トゥール
シンポジウム
ブリッ
つとめ
扮
ヴィオラ
##扇
ＷＣＷ
スチュアート
ｐｒｏ
##コーラ
煙草
ノズル
１７７７
ｍｌ
助力
夏目
家柄
##傘
##ールー
靭帯
正方形
##ブルー
限る
名勝
黒部
親和
テラス
##明に
呈して
義兄
台帳
亜熱帯
オニ
努めて
プリンター
神崎
市外
並べる
メイキング
純正
##他
拝謁
爾
ダイアナ
スーザン
アンドレイ
##オレ
##しり
##ッション
アリア
##Ｐｒｉ
支隊
クリニック
葺
酒田
松坂
嫌気
フォルクスワーゲン
懲戒
スクリュー
促した
##違
配管
ブタ
Ｕｎｉｃｏｄｅ
山車
##ス１世
φ
洋子
ユル
シャイ
許諾
表向き
馬術
売り場
##Ｃｏｒｐｏｒａｔｉｏｎ
バスケット
ＦＯＭＡ
体温
ベイカー
臭い
主幹
ロッカー
上梓
ギブソン
藻
コンバート
水蒸気
亡き
裏付け
##Ａｇ
偶然に
衝
##ムント
捕捉
兼用
抱えた
軽便
フィーチャー
ありがとう
フッ化
能楽
ＭＳＸ
##鉄道
蒙古
葛藤
兵隊
##シュト
ローリー
飼い
バングラデシュ
木更津
鴨川
石高
##倒
厨
コロンバス
コンテ
Ｓｔａｒ
観世
富んだ
包装
抑止
陸海軍
達人
豊中
なかむら
ホルシュタイン
自走
全焼
爆薬
##たか
吻
自重
##逆
陸路
##坪
応え
異論
慣性
本宮
頼る
学歴
杉本
議定書
マクレ
Ｍａｇ
##牙
クィ
カレン
びょういん
頭脳
##オーン
##ヴォル
県庁所在地
永遠に
アケ
インターフェース
父母
ヘロ
変態
##Ｍｅｄ
上山
##帰
ミニチュア
##ネーション
土産
似る
ウェイト
医院
フィリ
##ＢＩ
待合
ブラー
Ａｕｔ
##ビッチ
立派な
アーベル
慶安
エセックス
行き詰
壬
柏原
沿う
スライ
ヴォルガ
しく
半田
プレイステーション
メタン
中傷
片道
疾
ベストテン
カプコン
Ｃａ
オーディ
生田
##Ａｂ
座長
引き取ら
ロベール
##ＴＭ
排斥
ホープ
##Ｏｎｅ
マガ
微妙な
##ナルド
##簡
遊泳
##礫
##裁
ｐｅｒ
##懸
耕地
８５０
退陣
駆けつけた
沿革
稼ぐ
##トゥル
##Ｃｏｍｐ
行幸
帖
２５．
全高
巧みに
なみ
ディヴィジョン
##深く
接点
１２，
##トマ
快感
##Ｓｅｃ
酷評
厚み
消去
七尾
##ｍａｔ
臨済宗
妥当
##だし
探る
銚子
##づけた
渉
早速
精通
シェイ
クリスト
##礁
山西
ギネス
伸長
入れ替わる
スタッド
綺
楽園
レギュレーション
引き金
ツイッター
止まった
図案
発芽
カンパ
ＷＲＣ
##ｅｚ
捕え
十五
東大阪
架空
##２，０００
台所
小坂
１８８
##皇后
レナ
考証
儲
新町
荒野
護国
チャイナ
##尋
会津若松
水兵
呉服
##拍
ハンナ
明応
ジュリア
シム
絶頂
リヤ
炒
##ガタ
返事
共役
##しも
高揚
Ａｇ
国学
１３１
カルチョ
ガッ
ケイン
直近
##ックル
##疑
題さ
弁論
振ら
師管
双対
菅野
平坦な
##ａｕｓ
ニューカッスル
カルデラ
材木
盛り上がり
##ズマン
三条
文様
##マルク
ラザ
ヘレン
##ＵＢ
ブラームス
強打
止めて
手話
##狩
嫡
モンタナ
ざい
叩く
##譚
中南米
忠実な
カリー
電解
技量
検地
先天
イザ
オム
バスケ
##ＮＥＴ
後裔
脆弱
八千代
取り除く
ブナ
絶え
はつ
##ルソン
因幡
Ｎａｔｉｏｎａｌ
湿原
アルデヒド
２０２
こなして
間違って
エドワーズ
##ランズ
じろう
ポジ
##モル
ヴェーザー
房総
取扱い
##がす
店主
ペーター
歳月
悟り
曙
クイン
うけ
敵機
身延
コンシュー
##ッピング
范
刻印
まこと
１３４
##是
命ぜ
発給
##蕃
法的な
##アカ
論説
粉砕
イヤ
##チャーズ
##ムソン
狂言
ソルトレイク
手首
岸田
目の当たり
応じる
重き
交尾
マグネシウム
９０００
清和
Ｐａ
国文学
Ｐａｒｔ
スピリッツ
斧
エイベックス
日田
６．５
##リーヌ
遠州
なな
１３３
アイザック
おんせん
はずだ
Ｃａｎ
脱却
##サイン
トルーマン
##パック
##之内
太く
大家
開城
遅れる
##閑
障壁
１７８８
ヴァルター
音韻
７４７
強襲
トリニ
退院
載せた
エスパ
延びる
ＮＡＳ
##きる
##テンベルク
水温
ノルム
寓
##バク
開祖
農作物
衣類
護送
蕎麦
罹
##優
##の間
赤羽
史書
酒類
ステア
塗料
##ヒェン
##インター
##ディッシュ
廃位
抑留
公然と
防水
式内社
美学
和夫
稲作
煎
##やかで
没頭
競い
ＵＴ
最長の
##ａｍｅ
必要であった
張ら
降りる
タップ
ニース
造詣
みなして
逃げて
シマ
いくら
後悔
ヴァレン
ＯＬ
拝殿
Ｗａｌ
ロム
総じて
総局
権益
サムライ
シルエット
法曹
##ｅｎｓｅ
皇太后
##確
バプテスト
Ｇｒ
世子
１７７８
多種多様な
レイモンド
##ストレーション
朝貢
転じる
立ち向かう
典礼
##隈
##銀行
追討
##ざん
２，５００
渋川
ごとく
##障
近づ
##クマ
イエメン
投じた
惜敗
１６１５
火口
リウ
抜けた
##張る
佳作
活かして
##ウオ
##款
熱田
##しな
絶えず
家紋
枯渇
榎
白書
しめ
シク
##ディウス
患って
##わさ
塩田
モーリ
宛てた
横手
大岡
##痕
着る
国策
夏期
ルソン
１７３
１７８
つり
拒んだ
実物
スイー
##ｕｎｔ
頼む
２４．
直ぐに
セネ
口論
義父
天龍
セナ
マッサージ
院生
##Ｇｒｏ
由良
##まち
##チャイ
##ドゥス
フーリエ
異説
ウィリー
模擬
国技
有効に
ＦＮＮ
取組
ドラゴンクエスト
š
ＳＴＡＲ
喚起
画素
ひろしま
宮島
長田
サリ
交えて
１６１
深めて
##八郎
配役
バルバ
##縮
眠って
道教
クライン
##組み
##サロ
インディー
カッコ
１９５
ウェーブ
田島
##新世
１６４
ガウス
１３，
##ノル
ハロゲン
##ＤＩＯ
連打
分枝
簡素な
博し
##差し
##桃
ものがたり
Ｃｈｅ
真偽
グッ
祀った
戻ら
リザーブ
手榴弾
ナラ
ダイヤル
中曽根
嵩
##ハート
下って
##ｂｕｒ
臨界
スパイダー
橋脚
頭骨
徴用
舞い
治める
構
焼却
スティック
歪み
##太夫
だらけ
銃殺
合奏
２６．
溝口
バーク
ソリューション
会って
吉宗
１９３
斜めに
是正
創り
##Ｄｅｓ
低音
ＮＹ
ラッキー
片手
達也
成城
留意
償
遼寧
パラレル
緒方
卵形
座り
農協
ちろう
マグニチュード
有楽町
##タラ
ｂｊ
ステート
螺旋
本位
アルゴ
ともなう
ヘビ
刷
ビジター
##ＷＯＲ
尽くす
こむ
しお
##海峡
ゲッティンゲン
診察
錬
##単
ペイント
利子
##ú
##ＡＣＥ
吏
発せ
防具
和彦
禁煙
１５０万
義満
##韓
ロックンロール
スケー
##せよう
ロコ
##１，０００
刀剣
Ｂｅｒ
誇
ゲーテ
##上がって
##去
ＴＡＫ
献金
重役
マシーン
キリン
##ットマン
嗅
ニューズ
内村
家計
乗換
リバイバル
##バース
痩
喫して
蝋
##融
##濠
##．Ｓ．
移譲
球形
００７
リサイタル
翻弄
##Ｉｎｔｅｒｎａｔｉｏｎａｌ
交わる
シウ
左遷
招致
多田
切り離さ
##ｂｌｅ
プライド
##ラジ
##ターゼ
布陣
##バレー
根室
アソシエーション
##ボード
分立
一同
##菓子
見返り
大豆
準じて
カノン
オト
錯体
証書
エグ
##ゃく
レスター
たなか
##帥
やろう
##ジット
阿南
罹患
グラフィ
ブーツ
ざき
売って
##等な
后
##ＷＥ
##丞
ゆえに
打開
停電
喜んで
現像
児島
権勢
崩し
井伊
##レッジ
カメルーン
##又
ボナパルト
急襲
イヴ
ゲームス
エンゼルス
##忌
##じった
プーチン
##ｃｔｉｏｎ
##ａｍｉｌ
孔子
レジェンド
兵站
ミーティング
壮大な
ＷＨＯ
その先
##üｒ
ハーブ
疲れ
##スー
##エンヌ
ヒマラヤ
紹
ストロング
その分
##畳
絶た
入れ替わり
音域
若林
賛美
##ホーン
##負う
##ＤＢ
リーズ
エミ
ハープ
国力
嫌う
新鋭
大乗
刈
##んじ
アクセサリー
慣れ
安達
##１０００
##テレビジョン
国庫
##濁
##解な
贅
##勅
馬券
がら
荷役
オーソ
個数
別所
##ヨシ
操車場
カリスマ
目立ち
設
但馬
##とし
##概
ソーン
三成
##アレ
立証
武雄
Ｓａｍ
ハイキング
##ストル
##ソーム
##ｄｅｌ
実演
テュ
正常な
噛み
総集編
捨てた
アッバース
砲火
マッカートニー
トライアウト
止まる
数えて
日本銀行
閉じる
粛
討た
##ティーン
山県
禁酒
##直す
##シズム
##脚類
##ティカル
追走
ロワール
やまぐち
トーキー
黒木
謳わ
殺菌
併結
ガム
カヤ
遭った
容易な
##ＩＣＥ
ヤコ
アウトバーン
マウンド
わざと
クリエイター
綿花
空想
飢餓
##ｔｉｖ
ハド
被覆
流した
包含
ジェシー
砲艦
家元
ロイヤ
弟子入り
勇敢
円柱
角田
パレス
患い
奥田
民話
無期
断って
断熱
##究
タンゴ
ホーク
##勒
ｇｌ
ルビー
新春
##喝
全羅
π
##ローグ
浴びて
##ＢＲ
ボンド
##ｄｅｓ
マーカー
##＠
あったり
機運
Ｓａｌ
不可欠
込める
せかい
コンラート
拠出
塹壕
偲
拠
鋭く
朱印
##キーズ
失効
迫り
強め
##百合
ヤギ
スティー
唱えて
##げき
最適な
赤ん坊
ن
大当たり
ジュリアン
名護
魅了
ハンニバル
##骸
１７７
養嗣子
フラッグ
単装
決裂
戸惑
セレクト
深め
夷
##ＩＣＡ
チェンバレン
在り
気に入ら
墨田
索
川辺
搬入
武徳
##ナント
##謙
給食
##めれば
容易で
ヘンダーソン
討つ
五十嵐
とっ
脚部
徽
順で
##宜
##ナガ
陶芸
タモリ
おび
皮質
ピエモンテ
１９９
動いた
石材
緒
けいさつ
候
##惑
上半身
##媒
スタンリー
エリス
口語
バースト
変電所
弘仁
本業
写し
##ｉｃｔ
パープル
勉
スモ
比叡山
##寄せる
懸賞
担い
ｐｓ
ｋＨｚ
±
仕掛ける
##リスタ
中年
２５万
オーランド
丞相
絵図
ｂｉｔ
##ＡＴＡ
盗ま
ｖｅｒ
採点
##いつ
ＴＷ
##ストス
ソヴィエト
如く
打楽器
成都
見つかる
樋
扶桑
##７・
川田
##歳
振り付け
１７７０
処遇
##ａｔｉｖｅ
ラウンジ
球技
##旅
ウァ
汪
別表
##Ｄａｙ
堀田
戴
##マネ
繊
ジェネラル
##ヴナ
連座
##漫
ブカレスト
魔神
アウディ
４８０
彫像
##ハンド
漏洩
##佑
締めく
##ｋｅｒ
４．０
考えれば
１７６３
暗く
並べた
蚕
ゴルファー
東條
白馬
不倫
##巾
シュタット
リップ
許して
##旦
こうじ
２７．
キャノン
斬新な
ミネアポリス
８，０００
##着く
##クレア
道筋
Ｉ．
罰則
##允
縁組
進攻
調味料
Ｐｏｌ
宇佐
作法
ソチ
止めた
しめる
祝賀
ザウ
##ノウ
事物
##苦
帰依
牟
##しんだ
振幅
あふ
前照灯
罵
帆船
##クソン
ソリ
１７８２
湾曲
##ラージュ
自粛
##大で
こころ
沿道
##やき
では
斬首
暴風
インターセプト
創世
アナポリス
村民
個室
憑
メカニック
鷺
庶流
暗示
水辺
塩分
##壺
少々
詳述
##ベア
##百万
ブレスト
##餅
ごみ
##ミュー
宮田
ワッ
先手
ガンバ
潤滑
１６７
量販
昇降
健二
死神
隔週
飲
##拓
シャシー
##非
滴
題する
丸亀
漫
張った
Ｓｏｌ
１２９
腺
ホーエン
記法
コンスタンティノープル
姚
ファントム
##ルイ
定量
##効
##チコ
##ベリウス
Ｄｉ
トロンボーン
同母
複葉
４分の１
抹殺
走塁
ソード
本間
引き続いて
官能
##鱗
ＣＶ
キャメロン
竹島
Ｍｅｒ
##オキシ
０．２
##稚
##Ｇｒｏｕｐ
陶磁器
憧れて
ヤコブ
ジャンボ
分水
自白
イナ
ソーラー
##Ａｓｓｏｃｉａｔｉｏｎ
図面
おもな
北原
コーポレート
##つみ
久慈
月額
きょ
大宰
窺
故事
##促
海浜
アドバン
楢
撤収
火砲
垂直に
しば
エラ
文筆
抗生物質
##コモ
申し込み
欲求
見積もら
##直な
##イェ
重大
プラット
やめて
害虫
１７２
##舷
入局
##シード
バンパー
##ベーション
小売店
##止めた
応えて
備わって
精錬
アイリッシュ
箕面
引き受ける
アノ
カーティス
歯学
ビニール
緩衝
寝て
カヌー
トレーディング
降着
１７８４
##ッシー
邦楽
ホリ
##馬場
ウォーク
直進
駒澤
根強い
##ｕｒｉ
今や
坂東
##マト
赤旗
初動
古参
県議
おしゃ
ｕｎ
##ｏｔｈ
アブー
##ＵＤ
ＷＡ
##ウォン
１７６
答弁
細かな
作製
京大
獄中
何ら
鉛筆
##ところ
主計
体当たり
柳生
養蚕
４億
街頭
バタ
ダルムシュタット
Ｄｏ
トッ
三和
##需
万能
ララ
##エイト
リンチ
文教
堀内
便利
肥満
館山
英題
多元
手元
##ＡＴＥ
ラプ
コスタリカ
マロ
パレルモ
##ケス
カンバーランド
うかがえる
真面目
訴追
于
ジャコ
Ｇｉ
##ａｐｐ
##アマ
変装
Ｒｏｃｋ
択
##アシ
何れ
バレル
暮れ
##燕
挙行
触手
アルテ
低速
カネ
##Ｓｕ
捉えて
エフェクト
Ａｖ
渚
##落とし
##ＬＰ
１４３
叙勲
経る
忠臣
直角
湯浅
アスキー
##インド
トゥール
四谷
尻尾
かった
ベルン
換えて
リヒ
Ｔｅｒ
大館
##キスト
当然の
便器
##ａｎｇｕ
##ｏｌｆ
単数
##奴
山道
浪曲
ペレス
防犯
オリバー
承和
産み
パルプ
コミッショナー
外す
巨額の
##レンジ
拍車
##盟
殴り
ほし
拍
Ｄｉｓ
##ブイ
スカイライン
摂関
太宗
林家
##ｕｆ
店長
エマ
キープ
マンガン
夭折
##腐
##グナー
##ネズミ
確かな
Ｍｏｄ
生き物
球体
払って
預かり
らしき
漬
高瀬
算術
口頭
伴った
文句
水運
桑原
Ｍａｃｉｎｔｏｓｈ
強めて
##ンドゥ
ジーク
Ｌｕ
荒井
済州
アウクスブルク
手書き
一部分
##ｉｅｄ
レッドブル
##慈
明代
返り
##メタ
Ｄａｖｉｄ
読み書き
配電
物議
刻み
キャプ
包み
##００キロ
##嫌
##やり
拿捕
コト
紅茶
１３７
##将軍
##アク
クビライ
創価学会
マルチメディア
神風
且つ
##残
貞治
##充
ウェー
おこし
義弘
京城
推察
宮司
Ｐｅ
全通
吸着
謁見
##ｉｏｒ
##淡
コスタ
叢書
問い合わせ
りく
張る
劇的な
杭
起伏
正保
恵比寿
梓
組立
##山田
関門
１５７０
阮
遺骸
ルナ
大學
マーラー
##セブン
##グレー
執権
吉井
##ＰＨ
ＴＯＫＹＯＭＸ
コバルト
高座
行け
送還
ＲＢ
健全
フュージョン
##ＯＭ
マッハ
スナック
堕
論議
作ろう
ＵＨＦ
##しんで
小節
ワープ
朝刊
早大
メディカル
##オット
オーシャン
衰弱
共催
明確で
アンドレア
外洋
替わって
原材料
北畠
討死
述語
海流
嗣子
公会堂
ケイト
ヴィクトル
挟
バーモント
酪農
手記
焼く
手掛け
すごい
遺品
倍率
##でる
##劣
繰り上げ
バーガー
休息
ルッ
##公園
ハレ
国別
営ま
シリコン
心情
##アフ
ティック
汚れ
フォスター
暴れ
##Ａｃ
人身
エスト
弧
延びて
Ｐｏｗｅｒ
叩
利権
Ｒｅｖ
オタク
４ＷＤ
暇
残高
町並み
##代わり
Ｐｒｉ
スッ
リッター
手がかり
弁護人
地所
漢詩
古田
デュッセルドルフ
##ｅｎｓｉｓ
スイート
##ＧＬ
格式
佑
アレキ
戒名
##Ｄｉｓ
慶尚
乱用
完売
掻
基督教
ゆうき
闘病
配送
惚れ
ダイナミック
ブイ
##ｆｉｎ
習志野
ゴア
不二
堕落
三十三
匂い
踏んだ
##ＭＦ
ハッシュ
安徽
入校
必要だった
クレア
勅許
取り消さ
凝固
芳しく
##バット
励起
タブー
尋ね
あふれる
国人
１３８
ニカラグア
ジェイアール
##Ｓｍ
##Ｍａｔ
##ｕｃｔ
豫
ヴァージン
賞品
純粋に
ＸＸ
連星
##意に
釜石
根元
誓う
Ｐｏ
##５億
五男
上顎
かっ
ハント
東宮
##葉樹
##ｗｏｒ
１７１
働か
ＭＡＲ
方伯
安城
ドラムス
μｍ
２．２
倣って
塩谷
白地
きって
アブドゥ
敢えて
ＳＷ
ｉＰ
わたなべ
コナ
沈んだ
レトロ
相応
賄賂
##まれ
所見
嫡流
ポッ
どうして
##レイク
準同型
##譲
##ニシ
宦官
がり
事案
光合成
Ａｉｒ
##ｏｖｅｒ
ほり
忌避
##チーニ
五十音
引き渡し
##ヌール
##藝
武漢
秀雄
##奨
手持ち
金銀
##ＡＲＡ
##りの
低木
１４８
大泉
##Ｂａｓ
崩落
簡潔
##生代
焼酎
がい
官人
噴水
タナ
訪ね
障
カオス
換気
##粛
レオポルト
緻
あさひ
和尚
総勢
めぐ
思え
カト
ｗｉｔｈ
終端
転機
プリー
修得
##疫
##拝
期日
久喜
ツッコミ
ＳＧ
ラッパー
アーティ
再任
バグダード
##ネード
３７０
１５，０００
オシ
増進
##潜
##ＳＶ
カテ
##ノイ
小原
病状
八重山
スカー
自給
##シーニ
郵船
##麺
瀕
##Ｅｍ
稀である
気づか
##ｉｎｎ
好きだった
トリニティ
贈り物
フィナンシャル
見物
終止符
評定
１８９
##ニエル
樹皮
クロン
寄せる
常盤
毒殺
支庁
電球
ぐる
チェロキー
直感
春日井
レナード
輿
有能な
加筆
ＡＵ
いざ
ケガ
##スパー
せっ
晋三
パティ
譜代
下地
##カド
絡む
セルジューク
弾く
出そう
北朝
##触
中津川
飼って
Ｊａｍｅｓ
##ＩＮＥ
安東
臣従
ロマー
時効
##たに
県連
日の出
##トナ
精鋭
スチ
おじ
おまけ
１９６
##ヤシ
##ップル
不評
予期
増や
アゲ
マチ
大々的に
居場所
リボ
防火
水冷
##ローナ
１４２
最良の
まとまった
Ｒｏ
##シュア
だれ
滑らかな
ナビゲーター
チャレンジャー
組閣
ボトル
上村
教学
都度
##チョン
Ｒｅｄ
アクシデント
杉田
サイコロ
血清
１７７４
藻類
連戦
シェフ
味付け
庄屋
感知
シュト
あちこち
##とした
進捗
新旧
突厥
バニ
瓜
砂岩
短絡
ファラ
藩校
キャニオン
エリーザベト
枢密院
廃城
##Ｎｉｇｈｔ
ロケーション
土星
ビザ
フィッツ
再三
心霊
矮星
負け越し
生い
険
飢
従者
大隈
ギニー
困惑
１７７２
２０，０００
擁し
##フレンド
劉邦
芭蕉
カルボ
イブニング
綱吉
来航
朝食
憎悪
立て続け
隈
マドンナ
定例
##なって
千種
##弐
総武
サバイバル
##缶
Ｇ．
満たした
球界
無関係である
レム
ディエゴ
##ＶＣ
##バトル
吉祥寺
##ＴＯＵＲ
刺客
浪士
静かな
成瀬
##Ｖａｌ
そび
##ケ谷
扇動
ウィズ
ピカ
Ｖａｌ
召還
##正に
Ａｓ
北島
##かである
黄河
バビロン
１７８６
発券
##ニーニ
下山
能代
##之丞
ブルージェイズ
و
##ビーム
ジャーナリズム
##フォル
アルペン
責
園田
曝
キャッスル
２０４
トランジット
リャ
塗ら
ＷＡＶＥ
迅速に
化して
##ＧＨ
硝
発声
競泳
##なた
シャア
赤ちゃん
適時
ＲＡＭ
自民
リク
１８１
殖
スタニ
ｊｐ
１６１４
##度に
##様な
成就
特製
狭軌
プレスリー
豚肉
スポン
苦し
ウラル
##Ｐｅ
贈った
##Ｐｒｅ
球状
##亡
協和
スロープ
はずである
然
##みこ
疑う
一群
バーレーン
ルイー
ミュンスター
浄水
覇
財宝
##昔
到
キリル
揉
##埼
僅かな
格上げ
プラグ
ＳＰＤ
側窓
##錠
大船
出頭
集大成
いしかわ
シボレー
##ｅｎｔｓ
不能に
クララ
測る
Ｆｒａｎ
Ｂｕ
聞こ
バレンタイン
たかはし
覚えた
とにかく
対人
剰余
穏健
インターコンチネンタル
ハイランド
歌川
上川
##げたり
加納
各自
香料
はめ
さなか
##ｏｎｉｃ
促
０．３
すき
ともなって
ストリップ
占星術
##Ｓｔｕｄ
チームメイト
リエ
陝西
１４１
長大な
往年
シンセサイザー
山野
##ＧＣ
宅配
ＢＡＳＩＣ
報知
ヴァイキング
改選
##ローレンス
天和
否認
##厩
榊原
##プロダクション
巡視
散在
十和田
##窟
##ｏｕｎ
妨げる
ノッ
##１０１
本能寺
ａｃ
コックピット
詰めて
##アラー
復権
鉱床
##ｏｓｓ
風貌
１７７９
スピリ
粘膜
宇喜多
##アルド
ウマ
波形
ホロコースト
プルトニウム
敬遠
##カンド
はさんで
##被
すば
争
宛て
##ドミ
インタラクティブ
単勝
タコ
日大
色合い
安楽
ロド
ルキウス
払わ
適さ
小諸
##酷な
レシプロ
承久
地検
最初である
マラリア
帯びて
特任
##璋
若宮
総当たり
ノック
御殿場
難色
##趙
鹿屋
過疎
タイラー
##二位
共謀
ハンデ
台座
ر
下半身
ローラン
ピストル
トゥールーズ
新道
デラ
あた
軽視
##ネシア
衣笠
##ハナ
新選組
##蒙
渡して
志し
##Ｓｔｏｒｅ
オフェンス
惹き
本当
##祀
ي
損壊
溢れる
中腹
１３６
イワン
ジャッ
１７８５
干潟
聖霊
クリストフ
##フリ
１４，
焼か
##ｒａｇ
壬生
タカラ
毛色
さっ
ＨＩ
生業
２９．
川本
##Ｅ．
##めば
エディタ
##Ｍｉｎ
門弟
##ＧＭ
丙
Ｂａｓ
伺える
昆
迷宮
閻
ナム
##ヌム
アダムス
書面
不定期で
ブルックス
屏風
塀
運んだ
パターソン
またしても
サヴォイア
ＮＧＯ
製鋼
特派員
風邪
開講
下総国
橿原
ヴェネ
擦
っ子
義貞
前向き
##バルド
音程
糧
ピック
廃さ
苦しめ
上官
分派
焼いた
健在
ファウル
アロンソ
察
債券
備後
列伝
メビウス
ランドマーク
リカルド
盗難
ジェット機
据
１，２
トライアングル
極真
##Ｔｅ
ファルコン
こういう
アンデス
リーダーシップ
性交
揃
またがって
名家
貫いて
格段に
Ｅｖ
Ｔｗ
漢語
外資
セール
年号
ｒｏ
威嚇
##ヒョ
ルシ
##十九
２０６
ウォッチ
ミカエル
守山
##調な
ＯＰＳ
アニー
住まい
鰭
渥美
もろ
高次
固める
賊
斑点
非公式
３６５
##コメ
##áｎ
１４６
若葉
みせた
ホイットニー
##おい
##Ｈａｒ
ＦＯＸ
怪奇
恵那
温暖な
催眠
つぎ
##コト
エーテル
##ｏｒｓ
試運転
領民
ＣＤＭＡ
懲罰
留め
メキシコシティ
##爺
年表
##セミ
##ブルグ
##テーヌ
##ゲナーゼ
散逸
##メリー
コンベンション
Ⅱ
いまだに
前例
##マート
ＮＨＬ
新年
断裂
##ボーイ
別物
一途
パド
同好
１５９２
明暦
欺
造る
##ギュ
処さ
ヒラ
##シロ
正宗
単離
交わし
下痢
音符
日用
##Ｓｋ
引き下げ
下がって
優れる
誇張
抵触
ともども
神職
染め
モザンビーク
中級
##精神
取り消し
リト
##プレイ
摂食
電停
未婚
稜線
ラファ
##Ｉ．
##ＶＩ
錫
霊園
末寺
ロレーヌ
秋葉
北伐
##プレス
ヤル
女装
マンド
ひたすら
ＧＵ
ｖｏｌ
口実
魔力
アストロズ
義政
関所
スマイル
パルティア
尋ねる
イケ
ハーレム
朽
入籍
ヴィット
##ディル
遺作
引き出す
攻める
オクター
マリオン
##るべき
ＴＮＡ
献身
終生
帰路
拳法
スラブ
無実
河畔
町制
##超
鬼太郎
和風
ねこ
モルガン
公用
置き換えた
そうして
##穏な
ムーブメント
ムニ
眺望
エノ
ゴリ
擬人
ＳＨＯＷ
##かしい
##テナ
遺児
ユニバース
ボンネット
燃や
うめ
正門
２３５
捻出
値上げ
適性
白星
##トゥン
##タイム
##ｏｒａ
ＤＯＨＣ
コマン
なったら
勝頼
ミッドナイト
呼びかける
開国
たまに
何より
##ＣＧ
蓬
アフマド
##デリー
ストラスブール
遊んで
滅ぼした
##トロー
公主
大永
根源
ローランド
自我
ケニー
清国
元町
ガンガン
##透明
マーリンズ
確か
##デリック
九郎
素顔
##ヴィング
遙
浅く
ネプ
和子
催し
カストロ
覆って
##ｐｒｅｓ
ＧＨｚ
なんか
容赦
アミン
エコー
##ジュー
輝元
##Ｍｏ
横領
江西
##討ち
費やした
割った
##ＬＯＶＥ
クレタ
##Ｐｏｌ
大黒
段位
庸
コネクタ
フロイド
にぎ
渡船
殺傷
ぬいぐるみ
裁量
呼べる
現した
ディナモ
オマージュ
ナンバリング
１７５０
##ｅｒｏ
揚げ
##サント
チャド
納付
アレクセイ
新入
ピール
見地
６００万
##ガウ
大門
毀損
筑摩
ｎｅｔ
訛
役名
在京
天武天皇
##タージュ
混ざ
食器
コープ
タミル
##ーノ
アルフレ
ウォリアーズ
もとづ
##飼い
##テア
玄武
漂着
資質
##ＴＢ
舎人
##響
ｓｅ
ブルネイ
毎日新聞社
願って
##ｒｉｓｔ
า
見張り
入道
##ワラ
刺さ
ワイオミング
ぼん
疑念
スタンレー
揃い
Ｐａｌ
北周
私設
勲一等
琵琶
将官
結節
気づく
ぞく
##オク
紛失
やってきて
##Ｉｎｓｔｉｔｕｔ
河村
エイズ
敵国
ライブラリー
タンザニア
##レイン
見かける
リンダ
##近い
米原
ＨＲ
芹
分館
忠告
自筆
潜り
##っ子
オフィ
ブリティッシュコロンビア
克也
列記
鯉
##セリ
コネクション
１６４８
城南
プログラマ
裴
##ファク
キャンディ
盛り込んだ
##シャール
取り付けて
大邱
横行
国章
プッ
錬金術
電通
写実
##ｌｉ
頑丈
ＪＦＡ
３５００
ワト
ブリーダーズ
##提
##ＹＡ
クレイグ
神格
行ける
ハガキ
Ｓｉｌ
揖
括
根幹
システムズ
バスター
##衛門
ゲッ
インストラクター
常緑
新発田
浮かび
染料
##Ｕｎｉｖｅｒｓ
山寺
弾倉
加法
絵巻
弊害
密閉
##鋭の
ホビー
##ナギ
横穴
西成
跳躍
##ブルック
##壮
脚光
##ＮＨ
Ｃｏｍｍ
コンチネンタル
引き受けた
厩
みたいな
１７４
配した
##ＢＴ
##爪
##つぶ
ファイア
譲歩
雑音
ＰＨＳ
人脈
内裏
フェリ
新装
健全な
##アルト
##ふく
##ぐん
村井
馬鹿
アソ
浦上
##ゾール
増やした
ひとみ
はじまる
矢作
トムソン
われ
行き先
じょうせん
エキストラ
売れた
アイスクリーム
数えた
春樹
つもりだった
通ら
トラクター
１７６０
ヒルベルト
本種
抱か
##ＩＳＡ
ミック
森下
外して
鰓
プレゼン
##ジャパン
##ｏｂｅ
真に
破れ
中途
損なわ
定説
誓約
##瀬川
異常に
ＫＣ
流刑
Ｒ．
後見人
水生
##ゾフ
安部
スノーボード
軍法
家長
##Ｉｍ
延享
スタンス
##Ｒｏｓ
共済
序曲
##誉
##依
緒戦
ウィレム
ＥＴ
ポリネシア
アルビレックス
##マック
インダスト
ドロシー
麻呂
乃
##ｉｌｌａ
ｅｌ
守谷
汽
こぼ
トカゲ
事由
##ドロス
瀬戸内
連ねた
生化学
任用
天満宮
沿
製材
コールド
バッティング
石鹸
伯耆
ミツ
取って代わら
##チャク
欠いて
廃寺
##ちょ
パシャ
##ノート
和約
書紀
組合せ
本件
##臓
清代
よん
ロッジ
カナリア
渇
苦しんで
仕切り
Ｄａｎ
ピエ
##徳天皇
露天
直接に
敬愛
徐州
昇任
##ホーフ
##リナ
タオル
##戴
ヴィンセント
小型で
法師
退く
重油
大脳
三河国
戻して
懇談
##ｚｚ
相方
同乗
微小
音量
憤慨
投じ
ウィリアムス
##紗
身元
縛り
##マタ
ヴュルツブルク
倒れる
ファゴット
メインイベント
一団
Ｍｏｂ
サンシャイン
##リフ
挟む
本能
青空
サラダ
##マク
水門
急な
板倉
##デオ
ティラ
７３７
##ｍｕｓ
##サック
トレイ
ニホン
##巴
ピラ
領海
##序
吟
不備
衛門
気付き
遺書
ブランク
##票
Ａｎｎ
国務院
ベルナール
頼んだ
難い
##祝
淘汰
##ハイマー
浸食
培地
足場
##アード
##ｒｕｓ
引き受け
接戦
宮津
##トイ
クレーム
菩提
海事
##ｅｄｉａ
故人
ウーマン
##自由
サーフィン
##ターレ
##高田
造った
ネク
##田原
松崎
Ｔｙｐｅ
伯領
奮
送迎
高円
ＮＮＮ
融
であれ
勝ち星
##ジロ
アムト
廊下
首班
金日成
大口
Ｕｌ
乗せる
##てば
エックス
デスマッチ
##ｏｎｙ
こうぎょう
賭
##ｉｓｃｈｅ
野営
萎縮
##伽
巨匠
##．Ｓ
##麟
広めた
易い
労組
装束
下さい
交番
変容
ハール
ピョートル
##ソリ
##ＡＷ
##Ｒｅｖ
復刊
乳母
ナシオナル
コレクター
λ
蘇生
ツェッペリン
魚介
１５７３
こっ
##ｉａｍ
工費
##システムズ
##３０００
難しかった
総体
##許
被って
末子
新鮮な
帯同
ミロ
届ける
おろか
宿場
##乙
シャワー
م
力強い
試薬
##ウィッチ
プレッシャー
捧げた
振舞
うみ
木版
稚内
詠んだ
地平
クス
欠いた
##槌
最古
##ケーション
##磐
##ツィオ
エアコン
鼠
ストレ
攻めた
呈
乗艦
##墳
乱歩
造幣
##ナラ
信憑性
うけて
森本
ミニマム
１５８５
遺さ
チェイス
植木
初音
北斉
砂利
１６，
太宰
取り調べ
朝方
減らして
Ｓｉ
配色
##ｄａｙ
重鎮
ザール
##メタル
原形
軌跡
シュトラ
健太
##ＣＦ
フッド
##尺
カッター
飾って
エクセ
屈辱
安井
エイジ
殺戮
##曇
シチュエーション
心中
##ＩＤＳ
##ヘム
エニ
常温
##コング
交わさ
##ティマ
みなし
##くん
##２０万
寵
水流
拮抗
派出
アップグレード
##ウェイン
赤塚
１９２
贈る
毒素
##積み
Ｍｏｔ
##ＤＲ
迫
悲願
クリケット
レシーブ
棲息
なした
阪和
##当て
イッ
幣
オニール
プロレタリア
モニ
下がった
リガ
ユヴェントス
##エスト
ストリーミング
クイーンズランド
寝返
赤血球
##プレッ
ジェノ
サムスン
##強く
散文
磯部
##おん
乗り出す
高額な
##ＭＢ
##借
新館
唱
中嶋
ロズ
宿営
不時着
ディアス
オオカミ
缶詰
数多い
建久
別れた
嘆き
ビルボード
劇的に
##産物
接地
乗法
ＳＵＶ
山王
チューナー
##ｏｃｈ
イク
ハロン
夕食
ペスト
##毘
苦しんだ
スキャ
ＷＨＩＰ
ムエタイ
##ザード
##Ｇｒｅ
瀬川
ストレージ
マクド
##ターンズ
アラブ首長国連邦
倍増
サバンナ
##ｅｘｔ
##パール
京セラ
在地
イノベーション
一男
２８．
替えた
かおり
襲
##臨
１４７
ヘヴィメタル
クォー
サモア
税法
体毛
しゅん
##ＫＴ
後端
プログレッシブ
ユニバー
主だった
##Ｒｅｃ
##ｕｇｈ
##クジラ
##２．５
佐川
葉柄
外貨
ベネット
俯
あらわす
ジュゼッペ
森山
##ディック
バーバラ
##だち
Ｓｅｃ
##占
##テープ
素晴
額面
７０１
##ｏｍｂ
要し
曖昧な
##錫
海路
夏場
Ｖ．
ハサ
がんば
振る舞
嘔吐
説いて
##クィ
##昇
和議
##桁
相変わらず
生ずる
パーフェクト
##ｐｏｒ
筑豊
けんきゅう
モノコック
##均
翼賛
##だろう
薬莢
##ゼロ
クレオ
永享
エキス
ＩＥＥＥ
##１０万
載せる
押収
##Ｐｒ
日帰り
エイブラハム
脱水
##１００万
線量
大井川
シチ
２２１
水沢
異星人
Δ
シェパード
ＭＴＶ
ちゅうおう
揮発
花期
ケロ
岩波
コクピット
##ａｓｏｎ
栄え
下げて
##ｇａｎ
ルーシー
嫌疑
##を
袴
Ｇｒｏ
シュヴァル
簡単
しぶ
モデリング
張って
オルタナ
ファウスト
サンタフェ
ユグノー
クォーク
必死に
##ぐり
Ｃｅｎｔ
トリー
##ネラ
蛇行
流山
Ｃｈａｒｌｅｓ
ナミ
一雄
そのころ
エミリー
コントラ
##虚
Ｍａｒｋ
##Ａｕｔ
広める
宿場町
箱館
##ＳＮ
衝動
補任
ＰＩ
官軍
死球
##麗な
篭
拝領
##Ａｎｄ
##ｏｇｒａｐｈ
##正な
佐々
##ｕｂｌ
コロンブス
Ｂｌｕｅ
型番
名づけた
‘
##換え
観て
サック
トロン
##Ｇｒａ
税収
神名帳
バラン
リヴィ
取り囲む
尋ねた
ファイナリスト
##ＣＡＲ
廃絶
銃剣
座る
もしも
ゾル
効能
Ｓｌ
スカラー
ネイションズ
##郎兵衛
愛子
１．７
格下げ
スエズ
１６６０
Ｐａｔ
膵
##払
キシ
##ｓｕ
ＩＥＣ
パートナーシップ
みれば
長宗我部
クレメンス
ミュラー
ミラクル
赴いて
空席
中宮
ＧＵＩ
帯びる
１９８
ケヴィン
シャム
##にん
Ｎｏｒ
農夫
合議
託さ
緩行
好物
サトウキビ
##フィッシュ
Ｇｒａ
上科
ｈｔｔｐ
勝る
タリ
##烈に
なつ
手作り
デイヴ
駿府
##クトル
娘役
亘って
##当り
Ｗａｒ
##ｉｓｃ
自前
##トラム
天空
ラボ
２０８
##α
ボランチ
南陽
##ｏｌｕｔｉｏｎ
１８２
問答
永続
比喩
ハイライト
相当な
光る
##．ｃｏｍ
パーマー
─
サンゴ
脂
##ｅｓｅ
##盆
ブルワーズ
グラブ
寒い
辛い
沿海
割って
姜
西野
シュリー
大政
高尾
無力
ビリ
エナジー
芸者
徴税
##ロジー
キャピ
##らか
貝殻
##ＭＲ
##ネック
１８６
景品
多面
宗谷
Ｄｉｒｅｃｔ
ていしゃ
##越す
一茶
聞き入れ
ハロ
ミネラル
共々
交えた
##魯
ベンダー
月光
##ＣＷ
血糖
済ま
##ソフト
潟
##２５０
Ｐｒｅ
ロチェスター
ベアーズ
##冊
ヴィジュアル
ラッピング
Ｌｉ
##ＦＸ
##牢
竜巻
腕前
Ｒｅｇ
ＭＯＮ
浦安
ＲＫＢ
面し
発泡
##粋
けんじ
##Ｓｔａｔｉｏｎ
海老名
定型
レンダリング
Ｊｕｄ
飯島
不規則
##ビリ
##トリア
##ルマン
ホリプロ
嘲
##はし
##蛮
山科
得よう
##Ｅｄ
臀
後ろ盾
ピクセル
営団
笑福亭
サントス
飛ばさ
取り締まり
相応しい
蛮
被る
##サーン
##置き
オタ
使用人
Ｆｉｒｅ
隔てて
##サリ
ｔｏ
岩礁
##っぷ
##出せ
兵舎
拘ら
ぶどう
極め
##襲
揚陸艦
Ｍｅｄ
薛
冤罪
読売ジャイアンツ
フューチャー
インディア
##ａｓｓｉ
遅ら
クルアーン
##めき
ロールプレイング
吸引
囲い
##イチ
あがった
区長
Ｒｏｓ
遠心
ザグレブ
マムルーク
網膜
特長
１６６
再帰
営み
新製
サハリン
被曝
情景
附近
未完成
##落ち
##ｅａｍ
１３９
依然
方策
レズビアン
##ファニー
Ｒ−１
平凡な
引き上げる
持ち帰った
Ｓｉｍ
ニャ
鍛え
支払った
トレド
別れて
##Ｓｅｒｖ
ＭＷ
多角
ロジ
さいとう
見出す
挑
##アース
繰
カピ
慣行
エルヴィス
槇
##さか
タムボン
努める
アイゼンハワー
昼夜
漢学
野沢
##タウ
芳賀
オズ
##たち
やつ
誘う
メッカ
十四
尋
國學
Ｂｉ
ヴァレ
劇画
肝炎
和製
ｈｅ
京阪神
休館
Ｔｒａ
久々に
カエ
##メルン
ヘヴィ
ウェリントン
目覚め
##トーン
##薩
オキシ
##ぽう
危険に
スラッシュ
##野原
##ｕｃｈ
とらえ
ＮＳＣ
栗東
エグゼクティブ
##Ｃａｔ
乳児
##カチ
ＨＤＤ
込めた
蚊
西晋
観音寺
##沌
朝臣
取り出す
兵部
三日月
結実
ムード
拓殖
##スミス
小山田
見つけて
単于
##ニツァ
ペイジ
##ＭＧ
ルーフ
叫ぶ
体勢
##テリア
片舷
使い分け
吸入
珪
民権
充分な
家格
##ツァーノ
学費
龍造寺
リセット
管理人
ボーナストラック
進歩党
##モト
曲折
５０１
先史
スパーズ
ガーディアン
顕著
草分け
西原
ヒムラー
蘇我
小文字
うさぎ
カロリー
大金
２．１
ディスカ
##シート
城東
ハイテク
公平
１６９
引き連れて
真正
補足
##ラド
葛城
今なお
ダーツ
ジェイミー
立方メートル
##Ｒｅｓ
ブラッドリー
江原
##へん
咲か
テップ
##下げる
肥大
ノーズ
信濃川
チル
トロイア
金田一
ナガ
安価で
##槍
##づき
ダイエット
##ヴェント
##サク
貸付
ゲットー
回して
エト
いよいよ
オペレーション
スケル
外周
##恵子
##ドリック
鉤
ＭＡＮ
トリビュート
オリエンタル
アントワーヌ
５．０
追い出さ
借りた
未定
分流
重信
定評
エンゲルス
取り扱わ
どういう
粘着
ロッシ
ピッコロ
さだ
ウォレス
ボリューム
別館
ブラント
県会
##みつ
スネ
千鳥
９７８
時雨
ティモ
##きて
年少の
レゲエ
弘治
替えて
アイドリング
##プリン
ホプキンス
精子
毎分
Ｄｅｌ
多量の
着せ
係員
##アブ
局番
至上
孫娘
ロザ
カナディアン
##Ｃｏｌｌｅ
対地
##くじ
##いい
##言葉
連装砲
所収
コーディ
ノックアウト
ビザンツ
マッピング
##アメリカ
Ｓｏ
##ヴォン
願望
井原
ヘイズ
殺陣
１９７
喬
ドイル
##奈子
エミュ
瞬く間に
##サード
止まら
##ダニ
##御門
悼
モス
コーディネーター
盃
##Ｎａｔｉｏｎａｌ
例え
ブルク
１９１
##ｓｉｓ
白泉
阪急電鉄
##貧
##Ｍ．
まか
##トレス
##ＭＶ
##ｙｔ
１５，
攻めて
弾き語り
代走
##ｓｌ
##ロープ
着けて
やまもと
##求
稀な
形跡
ドライバーズ
サイボーグ
プランクトン
##シラ
##らせ
##敦
深谷
簡素
イントロ
高角砲
９９９
兎
##膜炎
ディケ
ペイロード
##ｓｔｅｍ
周知
輸
カイザー
２３１
山系
ネロ
##滞
一望
聖子
ダヴィ
ツァーリ
エフェ
##ブリア
廷
化身
詳
ＡＮＮ
##ハト
馬名
途絶
植樹
ウィンストン
##ｔｈｅｒ
セシル
藤堂
弩級
途絶えた
人びと
加重
受動
##Ｔｏｕｒ
季刊
##降り
##デーション
レディング
瀕死
Ｒｅｃｏｒｄｓ
##マリン
神谷
見做
村松
正四位
２０００万
##みち
鉄工
端緒
石勒
丸く
ร
湯川
リリー
ベッドタウン
受け止め
コンボ
ブルトン
山門
ダライ・ラマ
歳入
付け根
娼婦
トランク
追従
Ｃａｐ
##堯
頻
楽しく
アヴィ
務
ヴォイ
Ｃａｒｌ
Ｄｒｅａｍ
２０９
ベンゾジアゼピン
オクタ
陳情
バクー
マウン
セス
ソリスト
フロム
木綿
##ＦＯＲ
最初で
##ジャーズ
ＦＧ
クエン
スモール
悪意
戦火
廻り
##ジニ
出羽国
##中央
散策
飛ばす
アヘン
開成
子午線
有力である
尺度
パラドックス
母港
摺
６０万
封ぜ
##度な
刺繍
ニックス
キャビン
野々
当人
コブラ
柔らかく
##ロジ
谷村
有事
くぼ
厳格
Ｆｉｎ
##ｕｓｈ
ブレンド
たどり
Ｓｅｒ
ＨＣ
大雪
##件
##っぱり
プレイス
やまだ
初夏
##ウルフ
Ｐｈｉｌ
ＨＩＶ
宮古島
プレーン
ＵＣＩ
たに
ロケット弾
１６０１
麹
ギャル
奔
売場
柏崎
だって
騒乱
構わ
櫻井
キヤノン
フリーで
彼方
ＳＨＯ
熱意
土方
##Ｍｏｄ
##キラ
ＰＤＦ
仙石
国文
珊
##のこ
ＳＯＮ
後遺症
係留
防ぎ
##本町
##桑
好きに
ヤンキー
甲冑
１５９
庇
パク
ヨーガ
##ティクス
球速
ω
自費
笠間
模写
ステルス
即日
たたかい
感性
##ウォー
##リッシュ
和紙
肛門
アクト
厳島
##ヒット
東上
##ａｒｇ
##代子
##０億
雨天
統廃合
サンクト
ジンバブエ
アイダホ
既知の
##モラ
岩本
苦難
##ネコ
マッケン
##サンダー
辞めて
川原
代えて
阿弥
##Ｅｖ
柳沢
啓示
策略
Ｂ’ｚ
没し
爽
ＫＢ
接頭辞
強めた
軍閥
##一つ
１６５０
##々しく
ジャッジ
２１２
##筑
牧畜
##平な
相生
##ｏｖａ
利水
０．０
気に入って
１５８４
幸雄
わざわざ
コートジボワール
##ニスト
アンヌ
ＪＡＬ
##ティスタ
苦境
##８・
##ダーゼ
##グサ
エスタ
兵糧
Ｓｕｐ
広西
勝ち取った
イシ
領邦
製粉
ニーダーザクセン
槽
##ウンド
ピエトロ
##會
組み合わさ
コマルカ
ピンチ
昼食
標記
卵生
むす
寝室
深かった
双発
アスタ
光速
サプライズ
ＮＨＫＢＳ
減量
追尾
##わしい
##押
１５８０
##ツマン
主語
##プロン
匿
趣向
シューズ
Ｉｎｄ
##ＨＣ
良心
切除
デレ
ナント
開封
固辞
キツネ
Ｄｉｓｃ
エゾ
慎太郎
美貌
脱獄
切り札
日没
不便
通風
久美子
##旭
曼荼羅
秘匿
##Ｒｅｇ
逃す
ＴＧ
アレクサンドラ
アウグストゥス
##ａｄａ
イェー
トリガー
インカ
７，０００
##ディアン
ジュラ
各務原
リョ
込もう
想起
三ツ
##Ｎｅ
躊躇
一条
いろいろ
##エーレ
俳諧
Ｉｎｔ
滝沢
ソープ
レオポルド
##多摩
尉
ネクスト
ソックス
可逆
##ｓｅｒ
おじさん
カルガリー
香辛料
ツォ
冀
ブリン
ＲＦＣ
巨星
##びた
金持ち
##ヶ島
オリオンズ
##Ｉｎｃ
サーサーン
##陳
藪
動かして
プレミ
異国
原本
##歩き
着地
永住
##ｕｌａｒ
羽目
##りょく
任せて
阿武隈
ノヴォ
銅山
向島
１５６０
首里
信管
##嵐
##Ａｐ
##濤
収まる
##−７
仕官
大林
撃つ
ラーン
まして
##畠
##献
非合法
野郎
半生
##スターン
##アーク
Ｏ．
アザ
増資
挑み
知り合う
##ライフ
脅かす
##チュール
##詮
賑わい
殉
有界
形而上
強める
サイコ
翻案
セバスチャン
飲み物
栄一
クルト
##チェンコ
激励
遺棄
融点
情緒
##ミスト
##ジェル
##マリア
有識
たり
諸将
近未来
校訂
クロムウェル
バンクス
杭州
##レック
聖公会
##らって
艶
屠
鉄人
湛
ふみ
掲
チェチェン
車載
##栓
##続き
おそらくは
魁
高津
かくして
宋代
岐
楽屋
遊女
##ゼス
１７７３
弘安
浅瀬
##妙な
これほど
固めて
裏付ける
錐
オーブ
ベッテル
幕臣
悪人
僭
和也
##リーフ
２９０
検車
１７２０
##ノ口
矢先
的確
ござい
##レーズ
メガネ
前々
遭って
得意の
俊足
アーリー
短大
肥沃な
井川
ジャスティン
建てて
ｍａ
半期
バーニー
捕らえる
燃える
デイビッド
説き
咬
誅殺
比べれば
急いで
辛うじて
ｍａｎ
##Ｗｒｅｓｔ
大まかに
疑似
須磨
少量の
##鐵
Ｒｏｂ
デーモン
##しくて
くっ
飴
下敷き
ｍｉｎ
花巻
ポリマー
鮫
モンゴ
みき
##航空
現世
ホンジュラス
妙高
三役
ジェンダー
ネーミング
スティーブンス
##エリー
淡い
ホラ
手伝って
Ｃ−１
にっ
あべ
##意な
目付
ε
フロイト
傅
##ß
ジャスコ
ダイア
扱える
岩城
##ザム
サンダース
見出した
ロープウェイ
口調
譲位
こばやし
家名
草稿
本籍
中ごろ
固く
アロー
時報
谷間
##寄せた
##当である
江口
##Ｐｒｅｓ
みえ
気性
窺える
ピロ
##メーター
産ま
ミク
##ジェイ
菊地
イチロー
聞こえ
ｋＶ
猛烈な
拘留
ボーア
岸壁
興福
##ノ内
##ざわ
直して
##ｙｂ
末日
プリマス
末梢
雑種
就労
頭上
コミカライズ
ハイジャック
群像
##動詞
##よく
デジモン
エンリケ
##掘
##ダイン
篠山
叛乱
膨
##負った
シダ
走査
やめる
武功
祖父母
享和
##バエ
ニュートリノ
##スコット
群集
ふくしま
永野
援
京畿道
##沖
洋一
利得
##ットコム
藩邸
アパレル
トロイ
##ｏｌａ
##ＶＳ
楠木
##好き
両論
##Ｖｅｒ
鳥海
##チューン
院政
テヘラン
Ｃａｌ
勃興
ダイナマイト
図式
いっぱい
申し入れ
学界
死な
沈殿
後肢
##プラー
西岡
不明瞭
ゴメス
##タイプ
無くなって
有償
Ｉｎｔｅｌ
ＵＭ
十七
こんで
コブ
試練
ディスカバリー
##ステークス
ＡＸ
インフレーション
気質
##ｗａｒｅ
ネス
優位に
ＶＲ
ミイラ
実感
２２００
ハザード
ｂｌ
薦め
選別
ヴァール
イブ
ロードアイランド
ｎｅ
ナショナルズ
ＴＯＫ
湧出
##Ｉｎｔｅｒ
ノンス
文永
山岡
##ゼフ
フセイン
三上
ズー
ペッ
文武
掟
パブロ
##Ｍａｃ
別種
##Ｗａｌ
冷静
##ストップ
重宝
##Ｙｏｕｒ
怒ら
##マティ
ＰＭ
アトレティコ
善光寺
ウィリア
侍郎
晒
えた
##じゅ
天照
フェルディナンド
帝室
吉林
■
次点
##ライズ
陪
エカテ
ミノ
レック
綴った
堡
フェルミ
落馬
長慶
ハンデキャップ
エンタテイメント
ニジェール
実技
小脳
パトロン
嚆矢
１２，０００
Ｓｗ
##ｕｓｓ
ポワ
消毒
重要で
求人
３０５
意気
アルキ
##ノ宮
坊主
瞬
##シナ
ロビ
見下ろす
浦賀
華やかな
笠原
滑空
東野
セッティング
##みに
前哨戦
Ｃｏｍｐ
１８７
百万
悪夢
洗脳
殺し屋
アトム
交え
多忙
##ましく
主食
パピ
##Ｗｉｌ
ケージ
##Ａｖ
##ホールディングス
##Ｄｏ
成して
みちの
箸
##キンズ
立ち寄った
メイソン
文民
ロッテルダム
コルベット
##昂
アマー
アーバン
亨
二本松
クラッ
副葬
ヨークシャー
##レコード
##メディア
##副
数百万
##シック
八百長
待ち伏せ
##ポラ
うじ
呆
津久
エッセイスト
諡号
##５キロ
##あん
百科
節足
４２０
##ヒドロ
フェルナンデス
アンジュー
ボールドウィン
川崎重工業
コウモリ
天領
１６２０
##持って
##ほん
くれて
祈る
##ナッ
新城
ケーニヒ
倣
かろうじて
アサヒ
目当て
コンディション
４４０
ｉＴｕｎｅｓ
ＲｏｔｔｅｎＴｏｍａｔｏｅｓ
モルドバ
マグロ
矢部
##両
Ｖｉｓ
パノラマ
清末
リッチー
なでしこ
新進党
ソウ
ＪＡＳ
サーブ
##ＢＯＸ
オズボーン
フロート
良き
喘息
オカルト
ヒッチ
おば
流血
傑出
##ＯＰ
太后
号す
少人数
コンビネーション
動的
プジョー
後頭
きく
印章
白金
明星
掛け声
語句
軋轢
コメディー
岩槻
##ぬき
司書
モリソン
つね
初見
忠義
ムック
１７５５
和光
リクルート
人情
ジョチ
ミュン
放課後
高浜
##暗
ウィークリー
可算
搾取
お披露目
##ギング
グラナダ
両生類
サプリメント
猟兵
大根
終息
森永
平岡
なさ
大いなる
指した
ナイツ
黒崎
##旛
浮気
洋式
過熱
##くも
アンドロ
##ミアン
##スコー
##バール
アステ
余生
リサ
##しめ
墓石
ニュ
横た
禁忌
眺め
なんば
スモー
ギヨーム
ロイス
頼ら
##エーター
Ｕｎｉｘ
村立
##ｖａｎ
地誌
かとう
鉄骨
鞭毛
横川
へて
税率
製糖
正成
##操
長谷
豊かに
##Ｇｒ
ボルネオ
川下
憂慮
人吉
##吏
##ツール
掴み
無くなり
ミキ
ラズ
３．２
Ｆｌａｓｈ
##Ｍｅｔ
争点
シアン
遊離
修斗
ヨコ
##バスティアン
次代
起こ
拾い
##トリング
ＭＩＴ
高千穂
スギ
幼体
事後
バイエルン州
光星
アメー
##Ｐａ
不調に
##猟
真剣に
フレディ
けれども
##ｉｒｃ
料亭
##そば
加圧
##１，
イット
奉還
ブラウンシュヴァイク
ホルヘ
スピリット
##Ｆｅ
##Ｒａｉｌ
麻原
研鑽
義隆
街並み
茂雄
便利な
宿敵
緑化
ウッズ
完璧な
##八幡
譲受
シェリー
フュ
出奔
##ライド
但
##ｕｂｅ
コロナ
武豊
責め
柏木
##アーツ
真壁
Ｃｈｒｉｓｔ
##團
有用な
しっ
##べて
##１億
散ら
華僑
ドラゴンズ
##ボリューション
ドルトムント
ペンタ
タッ
ガロ
ブロンズ
加治
ドミニク
##ノサウルス
宝島
ローバー
##テンブルク
凌駕
ゴダール
恥ず
##分けて
##忙
##の川
関取
射出
##−Ｘ
##ライザー
滅多に
アブドゥル
##ネフ
１７５８
ダイハツ
備蓄
ＯＧ
プチ
##ミド
##キノ
コロシアム
##キッド
##ジンガー
オリオン
エポ
小谷
##ＦＯ
陰茎
１７６４
ゾロ
##ｒｉｎｇ
##摂
ノウ
青海
誌面
柔軟な
孤
桃太郎
整える
##ソフ
冴
##ＳＴＡＲ
樹上
高梁
井口
隷
充分に
テオドール
##リーダー
づか
##ヒャー
重なった
膠着
渡部
デフレ
くわ
リッキー
##廻
ガイア
##諾
ひげ
##ｐｌｅ
マインド
岩盤
ヘキサ
岩瀬
くみあい
有様
##グループ
シュレースヴィヒ
いただ
理系
タイタン
サンチェス
##ＰＤ
ｗｗｗ．
１４９
ランチ
##淀川
##ボウル
オルガニスト
ノートルダム
##唇
不十分な
##Ｍｏｔ
##争
藤枝
切れる
明らかである
協約
##租
中之島
両脇
聴いた
##ｏｓｐｈ
##べり
編隊
満ち
分室
殺そう
いちばん
##Ｃａｎ
##陶
##Ｗｅｂ
プログレス
##ネク
前原
モンゴメリー
打ち合わせ
すく
キングレコード
ヴァッ
č
##葺
モルダー
##ｅｔｈｅ
##キウス
いつしか
磨き
##ブリッジ
茹
優越
日替わり
##デッド
##Ｂｉ
ジェラルド
##屯
藁
ゴッ
##遂
エレクト
##ａｔｉｏｎｏｆ
中尾
フレッチャー
のぞみ
シャドウ
##ストック
寄合
感受性
##たま
調べて
棄
信雄
惜しくも
##心の
スプリングス
細野
##Ｓａｌ
１６８８
クラクフ
コミカルな
##手に
ザム
乳房
見なして
##樫
新規の
梯
拍手
##奪
生年月日
ＡＨ
##Ｊｏｈｎ
ヴァージニア
マクシ
０．８
１８４
アフリカン
##なお
家出
##ナック
ゲット
ｃｏ
##重に
フォルム
つとめて
##禎
窒
##大なる
ジュリー
テイスト
ぎふ
答
##トゥーン
ニュアンス
##テルン
アルザス
城山
カービィ
リハビリテーション
ぬま
荀
氏子
##ｅｒｙ
有価
ストーブ
レックス
黒幕
７７７
内モンゴル
ガザ
##ひと
横切る
書ける
清涼
##スポー
##д
軌条
届き
##Ｒｏｃｋ
##ムード
残虐
二の丸
##理子
送り出した
ウラジオストク
礼儀
ガバ
雑草
殊勲
秀次
交信
##ディナ
２，０
ブレイン
文春
目処
反旗
##莱
豪雪
快楽
江藤
残基
京葉
嫌がらせ
ウェストバージニア
ＯＰＢＦ
泳ぐ
上尾
##ウェーブ
はがき
ほっかいどう
野原
興した
オマハ
不要な
任せる
ＩＮＳＥＥ
##ロド
##ホルン
##ｏｗｅｒ
Ｂｒｏ
オイラー
２２２
Ｌ．
ブランコ
テンプレート
カカ
エナ
次走
##ハマ
ふし
##ＢＥＳＴ
ネクタイ
ジェイク
Ｓａ
ヘッドライト
恋する
Ａｍｅｒｉｃａｎ
##透
##隙
算定
Ｇｅｒ
Ｗ．
ウズベク
##瑚
スタミナ
グライ
コカイン
タンパベイ
##スティス
大夫
県令
チューリング
クメール
##怒
コーティング
博して
チャリティ
アドリア
奥村
微量
ビルド
受刑
クリッ
廿
河川敷
承知
ＵＲ
提
復調
ＫＡＤＯＫＡＷＡ
##Ｒｅｐ
くみ
##プレックス
テンション
悲惨な
蜂須賀
抜群の
##がし
布施
見事な
ＶＶＶＦ
シックス
チューリップ
##クレイ
三谷
##乃花
はずであった
応戦
サクソン
取りやめ
捧
樫
##グリー
##ガート
##レージ
##義語
曇
ジングル
複雑で
飛地
こなした
エイト
イザベル
デビ
鳥山
臆
コロンボ
コシ
洋風
インターフェイス
ＴＳ
木場
明徳
見舞い
サケ
私塾
会費
返り咲き
シューベルト
##Ｇｌ
＆Ｇ
引き揚げ
##腱
##データ
Ｗｉｌ
品位
##逐
コルドバ
ガルフ
赦免
日誌
サイヤ
マルセル
小人
##辱
ブレア
ジョシュ
オメガ
襲って
シャロン
刃物
##アミ
##ホーフェン
哲郎
１７，
使役
レフト
ルージュ
ＪＳＬ
##スワフ
ラーマ
最低の
堀越
##シーム
元文
試算
##こい
２．３
ベール
育てて
定常
伸縮
２０７
##ガーズ
##ｏｏｍ
等式
間柄
交雑
労働者党
まちづくり
叙位
政敵
頸部
ＤＴ
純一
春日部
マリノス
ソーセージ
##ｍａｎｎ
シュター
重度の
３部作
微妙に
ＣｏＡ
助役
茂木
散騎常侍
小路
未熟
ＩＳＩＬ
##Ｃｈｅ
##ラーン
恒常
イレブン
##ロッド
主審
プロバイダ
交わす
齋藤
##フライ
小結
ルイビル
同様で
ＧＰＵ
##しに
フレンド
偽り
老齢
##Ｃｏｕｎｔ
##ヴス
１５９８
##イギ
ＡＷＡ
時差
チームメート
長沼
露呈
武芸
享受
##ｕｌｅ
ローレンツ
高宗
完璧
投棄
古書
##クイ
２１５
##ネート
ご飯
マラウイ
ＡＴＣ
寺領
弁天
神体
迷彩
身代金
思春期
##ガエル
ジョブ
丼
征討
峡
##Ｃｅｎｔｅｒ
痴
##ＯＲＹ
旺盛
##然に
決起
フェスタ
マーカス
Ｉｎｔｅｒ
##井田
##オート
パンダ
深部
賭けた
##瓦
おこない
たどる
ＥＴＣ
群落
##ｏｆｆ
確証
##ｉｅｗ
処せ
マント
鋸
会頭
日銀
ひいては
ふじわら
Ｐａｎ
ドナ
歓喜
##絡
##恨
Ｃｒｏ
失明
##覇
不当
##コリ
風車
途絶えて
Ｊｕｌ
##Ｉｎｄ
##哀
２６００
##ぐれ
ナマ
##ワシ
トラベル
ａｖ
出水
ステファ
続か
グラウ
軟骨
##葉山
不純
##耕
１２．７
##ビウス
１６０３
##之江
偉業
いただき
##トランス
ディレクトリ
##メニ
巧みな
在留
恵子
浪速
##ミネーション
契丹
沈静
連射
墳墓
ヴォルフガング
連名
##Ａｄｖ
夕刻
表層
畏
Ｎａ
抱卵
見聞
撮った
キャバ
万治
わけである
トレンド
仙人
アスレティック
シュラクサイ
リムジン
異変
ひみつ
##うら
暖かい
##９・
ビオ
みずから
##刃
##ＡＢＡ
##われた
##でた
激闘
依拠
目立って
##Ｃｏｎｔ
##禍
レスト
イプ
意気投合
弘法
キングストン
審問
マンハイム
##浴
聖徳太子
コレラ
坂道
我孫子
怒って
##ウォール
続日本紀
ダイオード
ヴォロ
ケネス
##授
紆余
##スワ
##り合い
##彫り
ベンゼン
ゾフィー
##ティル
##ベッ
１７５６
インテリ
０．６
アレイ
糸魚川
テリア
##ｏｚ
アウェイ
注いだ
接待
##ＸＸ
小字
##彰
Ｇｅｏｒｇｅ
あっさり
##ｍｅｔ
蒐集
龍之介
ハク
大体
##暴な
李氏朝鮮
思わず
こだま
ｔｒ
七夕
ベロ
ファラオ
飯能
##われて
スターク
##怪
りつ
刺し
リミテッド
蔚
控除
##ｕｎｎ
##７．５
サイゴン
求婚
##Ｗｉｎｄｏｗｓ
自走砲
##ñ
##智子
２１３
仲良く
引き上げた
ａｖｅｘｔｒａｘ
歩む
ゴッホ
正常に
##メイド
遺した
眼球
自由形
キャッツ
##２億
##立つ
星系
バレン
##盛り
##ｅｐｔ
近かった
２１４
武夫
##棲
読切
３１１
ＲＣＡ
##ｅｒｃ
ポリシー
塚本
実話
ＩＷＧＰ
加勢
大型で
館林
暗闇
袁紹
元日
##サギ
##ジェス
ツイ
今夜
インスピレーション
一杯
アンデル
死闘
主事
赦
１５６８
新婚
確固たる
那賀
混ぜて
##ＩＥ
##ケート
掃海
##寅
ベーコン
当てはまる
柚
クリスティーナ
一翼
１６６１
象牙
ブリスベン
遮蔽
フリート
##ムン
寿永
##ｌｉｎｅ
##ズバーグ
心から
科挙
併せ持つ
フライブルク
カンタベリー
持ち前
闘う
ａｔ
##ハブ
弾いて
バーネット
そら
##圓
スリラー
勝手
##ホウ
断る
マクマ
##廣
ふくおか
Ｏｌ
##ＶＯ
##柴
スランプ
餓
##新聞
後編
節目
天台
同席
改姓
祝祭
フェイズ
ハンク
遷座
殉職
主管
先着
小僧
亡くした
ミステ
スターダスト
末っ子
##采
好機
チューン
##１２０
アバター
覇者
##滸
増結
コミンテルン
梁山泊
ウォード
わし
##蕊
能勢
安価に
気仙沼
住ま
##Ｌｉｎ
足元
巣穴
##日本
３０３
蒔
電離
ジャカルタ
瞬時
進法
気付く
外郭
ＮＰＣ
ピオ
がちである
##及
肢
連ねる
フラップ
ソノ
物部
ドネ
ウマイヤ
ロケッツ
##Ｃａ
タチ
##磁気
臼杵
選べる
##賛
ウェブブラウザ
##タキ
インスリン
##ｅｍｂ
整って
出入り口
エドウィン
喜んだ
詩作
##ストリア
もたらして
##み野
調べた
興隆
##朋
制止
高所
ＧＨ
近づき
ガレージ
石棺
スズメ
##縫
扱
瀋陽
グロスター
かかわり
##べつ
勧める
##堰
受勲
##モール
創部
##さら
混じって
ぎり
欣
蹄
著し
ジェレミー
探題
##２０１
##ＢＢ
本姓
メイヤー
惨事
被り
康夫
メダ
##ジュン
整った
金髪
レイチェル
##Ｆｉｌ
オデッサ
叱責
ハイドン
正直
##Ｔｅｃｈｎ
トレードマーク
金城
ひょ
ＲＸ
ＦＸ
のべ
コンペ
ＮＫ
印字
さやか
後宮
水平に
##川原
ハサン
橋下
##ｅａｎ
取り立て
居館
リアリズム
属州
しのぶ
亀岡
犀
マントル
店名
手中
方形
##３．５
インカレ
##消し
フレスコ
書写
書家
抜本
削ら
別居
アナスタ
過渡
デメリット
１５８７
水圧
有名であり
野砲
年月日
ＩＰｖ
##Ａｗａｒｄ
直義
行おう
１８，
初恋
暴徒
##刀流
花見
卜
ダマスカス
代わった
##テスト
Ｍａｌ
ハノイ
１５７５
シュメール
透明な
冥王星
建康
詮
こな
野鳥
##掛けて
牧草
##ラーノ
##クラフト
ほとり
発散
##クレス
繰り広げて
直子
筋力
ワニ
##セッ
ブータン
チャージャー
さかい
コルト
揚州
たどり着いた
鯖
掩
２４００
##れな
送受信
完治
ＤＶ
蜘蛛
エプ
##ｆｒｏｍ
##つま
鉄板
モダニズム
アライアンス
満載
デモンストレーション
##クロウ
近づいた
##Ｍａｇ
##ヤード
折衷
絞首刑
ナッツ
既成
∈
おんな
レイノルズ
モンキー
##璽
曲げ
１６８９
石造
##明け
Ｌｅｓ
##扉
左利き
##キュール
並走
融和
衣裳
減額
カーディ
１７６５
ビラ
高射砲
のぼり
諭吉
大宝
前川
肉眼
フッ
勿論
止まって
##戻
##ｓｅｒｖ
らし
久しぶ
軍港
正明
##替える
ナオ
##ドリア
Ｍｉｌ
##パリ
ा
寒河江
大月
埋も
ジュネーブ
レイズ
##出そう
ガレ
##ＩＣＳ
饅頭
ひろみ
ベルナ
野間
ヤク
##５０００万
エレン
義元
５・
##嫁
振替
Ｂｅｓｔ
１７０７
授かった
コメディアン
ロジャーズ
皮革
フロッピー
富む
##イット
##讃
##ｉｐｓ
スクランブル
獅
ナス
##食い
呪術
##賦
簡易な
向く
磁器
純度
ジョッキー
繊細な
アパッチ
##ロク
インスブルック
##の乱
下ろした
##ロピ
##ぶら
##ａｋａ
土居
縛ら
鳴らす
旅立つ
悩む
先例
法隆寺
##ゲージ
アナハイム
##Ｅｎｔｅｒｔａｉｎ
ヨル
##リンズ
嫁いだ
韋
１７６８
１７６２
ナバラ
##づけて
ミラージュ
敏感
黄海
##ナイン
いたずら
耽
##くわ
凌ぐ
千秋
リエージュ
出会って
##フール
右折
ファサード
ヴォーカリスト
ＭＢＣ
アパラ
根底
便乗
##キャップ
劣って
インスタント
##ＮＰ
Ｍｉｃ
宍
度数
ロックフェラー
ガメラ
当代
篆
##ソンズ
古馬
いら
##楠
ダルマ
誓った
怯
ヌエ
つぐ
沈下
シケリア
まとまり
ギニア
##聯
##靴
##かりな
ダンテ
アーサー王
芝浦
境遇
１７５９
諫早
効用
##ブソン
熱烈な
動かし
関羽
クラスメイト
鑑別
ＤＲＥＡＭ
独走
ほうじん
ＶＥ
サンマリノ
大和田
５１２
習性
素性
⇒
競売
##卑
味わい
##Ｓｉｎｇ
金型
京子
サイクリング
シグマ
ペイン
掲揚
水彩
##ｅｎａ
東シナ
暗黙
神代
レスリー
輪郭
遭う
３・
##メラーゼ
ジュリエット
快勝
体感
ａｄ
回遊
##ひん
ＵＦ
ドミトリー
十分で
綾瀬
投機
##っぽ
織り交
茜
建材
侮
ロッキーズ
ＰＰＶ
##居士
集成
書評
##デリア
##禅寺
##ばい
##Ｍａｎａｇ
信義
プン
１６８０
隔て
不仲
##マヌ
賭けて
ＡＮＡ
１７０１
登山口
識
険しい
灌
羽衣
わけに
触角
２２３
##ワク
取手
エスパニョーラ
とんねるず
##キッ
ミランダ
和菓子
選挙人
ワイヤ
##ｐｏｓ
段差
新馬戦
敗訴
野獣
##コナ
神保
とどめ
官公庁
鶏肉
打破
翠
定価
悪霊
##れない
クルス
後妻
小栗
ホームレス
##れに
アラム
園長
慎重な
労使
##カメ
４・
##召
##＆Ａ
降級
ニューロン
##テオ
家譜
すえ
顧
各人
##葛
プロダク
一晩
愛着
##チーム
##でて
小津
スパイス
沈む
南雲
##串
募ら
四角
捉えた
幸運
降った
スプレー
##えろ
ライデン
密告
服飾
よしだ
協働
##ｅｓｓｉｏｎ
模式
アンパンマン
ハウンド
パラマウント
カスター
コンサ
フレッ
被験者
アムール
##埋め
爆風
植田
空いた
羊毛
列した
##そこ
##グマン
##ＵＮＴ
ＡＭＤ
極性
プッシュ
##縞
界隈
設営
##ソーン
叛
ファクター
わい
７２０
みえる
帰納
##ａｕｄ
呼びかけて
好奇心
育英
##ｏｔｏ
南山
レイプ
##胆
露見
アルカ
凝縮
正治
生長
Ｇａｍ
１７５７
著して
##鋭
##狐
Ｐｅｎｔｉ
拠る
##暮れ
石岡
テノール
岩見沢
ともかく
呑
袁世凱
橙色
ウェストミンスター
ＮＧＣ
振り返る
見当たら
只
宮原
##いわ
蛍
英二
Ｂｒｅ
##ツル
タマネギ
ボウイ
オスト
当の
緋
２４６
痛めて
ＲＫＯ
０．４
##ゥー
##シアス
賢者
リマ
同じに
##ッツィ
##スカル
溶融
あとがき
メンデルスゾーン
艦種
紳助
神山
ＴＣＰ
茅ヶ崎
##Ａｓ
クトゥ
血筋
##ビデンス
庚
##レウス
仏典
走破
アクター
当たり前
Ｐｅｔ
折れ
##歩く
寺内
界面
##Ｔｅｒ
新居浜
隠れた
##ヴァーン
稲田
##リータ
私的な
貧乏
はじ
或
カルボン
書誌
##巌
双方向
髙
バチ
##質の
三代
##シュテ
##パシー
ミード
鉾
のすけ
オマーン
##ｇｒｏ
えび
ＺＯ
異色の
ヒース
指南
烏丸
ヴィリ
区切ら
りぼん
手札
ｍａｃＯＳ
シャッ
送金
半月
刻んだ
ｅｔ
ムスタ
禅宗
注記
そごう
##千代
グリニッジ
束縛
デイズ
Ａｎｄｒｅ
##Ｈｅａｒｔ
尾部
Ｂ−１
日照
斥
１５６９
休眠
イオンモール
充てる
##追
##ｉｃｏ
##であろう
エントロピー
クリン
兆し
撲滅
オバ
##ＫＫ
散発
矩
##歓
##マグ
ツバ
穆
##企
健太郎
遊覧
読める
ブレット
アリソン
ヴィレッジ
阿賀野
長沙
安中
隣人
ベティ
マーズ
同棲
ハルビン
ハイド
異種
##ヴィエ
クモハ
減らした
マルガ
様々に
飛び出して
着信
##ＡＭＡ
##ニカル
δ
鍼灸
精油
天山
村社
ポータブル
義光
パンクラス
本領
元弘
##ｉｅｌ
##蝶
浮動
##チェク
遊具
##トニー
ウェッ
アヤックス
ミネ
リベリア
カズ
允
裏腹に
##ｒａｃ
##杵
##偉
沈んで
西北
Ｍａｓｔ
妾
ｏｐ
甘粛
操り
##ニアス
ぶんか
##レコ
１９，
##ステージ
くえん
親密な
ブルーム
マリーナ
##アウ
ロリータ
##アキ
床面積
リッペ
彷
##烏
##Ａ．
背負い
思える
テリ
根絶
分科
雑食
初級
##Ｂｕ
みょう
いわく
カリブ
納める
憧
松川
アット
##楽寺
ウィンチェスター
フォーカス
なんらか
こんだ
厭
姉弟
支払って
##ｏｖｅ
Ｔｕｒ
アフリ
パウエル
##昧
##堺
容貌
交わり
パレット
唾
ベレ
金丸
見守る
題し
駆潜艇
解さ
なんと
両腕
マーフィー
復古
中和
導出
１７１０
##トゥム
洋服
中森
課す
政体
２．７
##ｃｋ
##深い
サリン
大事に
両足
鉄橋
仕掛けて
病棟
莫
３０２
##ＶＴ
ニシ
放題
元親
２，７
深めた
クレイジー
人件
使えば
雨季
山小屋
##ＴＦ
##回って
オカ
##セウス
かつら
乳幼児
繋ぎ
Ｓ．
１７３０
カルヴァン
割り振ら
悩んで
##−６
ＥＳ
パント
売れ行き
あし
１６１０
危険である
忍び
盟主
対流
靱
宝亀
予後
何か
拓郎
アブラハム
白鵬
決選
表皮
##マウス
成さ
共振
ナビゲーション
バイオリン
##ＨｉｇｈＳｃｈｏｏｌ
##ヶ原
下村
我慢
在校
ナッサウ
吊る
##亨
危害
試写
コーカサス
ため池
成型
賑わう
##Ｌｉｂ
ローザ
ウィンザー
演者
クロロ
ルピー
カビ
ストラヴィンスキー
##らみ
がかり
平賀
アヤ
簒奪
商学
４３０
##カツ
スカラ
藤波
集い
軽巡
##Ｗｏｒ
極度の
豪商
変質
トランシルヴァニア
一挙に
##メリア
泣いて
Ｍａｙ
黒潮
饗
ＮＥＸ
怖い
鐘楼
繰り出す
義仲
##兄弟
優子
植村
素質
学舎
栄えて
記し
略号
樹齢
振って
ラグラン
狸
##わう
ＴＯＫＹＯＦＭ
##ｒｏｌ
##ウォーク
無声
決別
名主
愛読
１６０９
腹心
ＬＧＢＴ
##跋
採石
けっ
１７７１
オーラ
有望
彫ら
ＭＧＭ
１７４０
１６４０
しい
もっ
Ｂｕｒ
取次
蓄電池
利息
シンフォ
コルネ
##はる
ディナー
喜ば
退けた
ミレニアム
盗んだ
１９４
ジェネレーション
##キヤ
捕らえた
サマセット
隅田川
ルド
##ムーン
##よい
１７６９
シュヴァ
聴か
アピ
訪ねた
Ｖｉ
労務
ログイン
エリトリア
オゾン
メチ
##ｅｌａ
辰巳
救護
##莉
Ａｆ
ＥＣＷ
往時
Ｄａｖ
シャンソン
南アルプス
モハメド
名曲
製糸
Ｂｅｌ
##残り
取り仕
堆
六郎
ラインラント
４０１
Ｍｅｌ
勝田
道長
禁じた
##へ
##ッディーン
##ました
隠棲
戒厳
##ＧＮ
##レオン
##バーマン
大通
帯状
ナチュラル
##レンベルク
オーガスタ
ファイヤー
##ヴォニア
伽
セオドア
クィン
反攻
逼迫
##ＳＧ
英会話
草地
##フェア
閘門
大まかな
##エース
滅ぼす
##渡さ
改元
##ニッシュ
優しく
ナイアガラ
称えて
膠
謀略
草食
０．７
##乏
外し
フィジー
##意味
尽くして
童子
負ける
越谷
保釈
高杉
##フォーム
登って
##泳ぎ
##Ｌｉｆｅ
金森
扇状地
鄴
回折
織機
##ロル
##ネーゼ
丸子
龍谷
勧進
スカリー
##コッ
本選
実例
ベガ
傲
悟った
供出
焼いて
泳ぎ
##暢
平沼
類する
おろし
モア
違法な
太閤
リモート
担い手
アーカイ
らせん
ほっ
ホエールズ
テューリンゲン
兵団
法要
##ティブな
放り
城門
白雪
画廊
重篤な
逗子
幸子
##こそ
大伴
##ＸＰ
譲り受けた
防弾
奥行き
ガリレオ
##海岸
気付か
##ＧＵ
温水
##まき
甲種
##ニーク
閉会
宮澤
おおい
月組
結びついた
憶測
ポット
##まとめ
##痴
ヴェーダ
ユトレヒト
ブルン
ベルガモ
敬称
野中
コンバット
##畜
肇
サンゴ礁
モジュ
熱血
匡
敵意
マテ
漁村
帰途
２．８
フレンズ
身の
アウレ
減らさ
ッ
##マジ
果汁
額田
##簿
メディチ
撮る
格安
配流
黄緑
時として
##スナー
１７０４
ジェニファー
ユーリ
楓
玖
１７９
接尾辞
陰性
シュルツ
##婿
３．１
##巻き
エッグ
箏
##ほく
ヨハ
##トゲ
デビスカップ
##ジアン
コンピューティング
礫
Ｓｕｎ
##ｇｅｎａｓｅ
戦史
ウィリス
快適
ヒーター
融解
正一
フルシチョフ
抗菌
##鉾
エベ
カーク
成り立た
アコー
とらわれ
貪
ウェーバー
ナット
##м
ハッスル
経つ
ナツ
要綱
２３８
エトルリア
##署
##シーナ
落差
語り手
沢村
実母
##ンドール
失意
八十八
扮する
綴ら
西魏
谷崎
##ッテ
借りる
落と
生死
##淑
カポ
オタワ
８００万
シンプソン
##一人
シュナイダー
櫻
突如と
従三位
ほうそう
幼く
リタイヤ
姓名
１６０２
シリン
##リアーズ
##ッツォ
寄宿
クア
ブラス
##Ｔｒｅ
おおた
一直線
##フェイス
巣鴨
切り替えた
富士川
松方
##ビーノ
捨
投射
生まれ育った
シンクタンク
##イント
果てた
勉学
コーンウォール
偽名
海溝
黙認
間違った
##カメラ
ユダ
##チェロ
秀夫
ディズレーリ
変わ
##こり
##４．５
将門
素粒子
巻き起こした
落胆
１７６１
割り当てる
ＴＳＵ
##カリー
まつもと
芙
山腹
##淀
##ストロン
楽隊
動輪
ＥＢ
クローバー
##叔
リュック
だて
デカルト
##謂
システ
２．６
ケッペン
##アット
##ズボロ
眺める
喜ぶ
Ｍｉｃｈａｅｌ
##るま
複々線
界磁
ヴィーナス
小道具
義弟
##ａｔｉｏｎｓ
##落とさ
##カラー
ロット
ジェシカ
ミケランジェロ
蜂蜜
雨水
##られ
エスパーニャ
成って
そうだ
無限の
傍受
ロバートソン
悪用
ディストリビューション
##й
本場
リチャーズ
刈り
##愁
##ティーニ
##ツカ
##ＩＳＣ
軽傷
ｓｃ
貧血
ぴあ
ホステル
優良
グリフィス
カメオ
驚愕
御嶽
不可欠な
プレゼンテーション
気づいて
Ｓ−１
西域
前倒し
ヴェルナー
互角
送球
打ち明
##ａｓｋ
レザー
不発
のこ
##ｅｉ
足軽
Ｎｉｇｈｔ
ゲール
香水
##れたら
コレステロール
たどり着く
##建て
キングダム
曹長
ＰＡＳＭＯ
技研工業
河東
大槻
##Ｅｎｇｉｎｅ
手袋
薬師如来
##ウェイズ
さっぽろ
ビッ
追った
１，６００
小金井
２１７
ラウル
##ｏｃｏｍ
イマーム
ルソー
強度の
蓮華
勝訴
花月
##ルール
血小板
##＊
セーラームーン
##ｅｒｓｏｎ
免れ
木々
ミオ
##寸
きたす
学徒
有益
遼東
メッキ
ＮＦＣ
姶良
グレゴリー
破局
グアダ
遺志
性器
いのち
外した
こふん
シェフィールド
##ズビル
制する
写って
##寄せて
２１００
八雲
讃え
揚力
##ＨＦ
##ドゥル
##並み
１６３０
カタパルト
インダ
難関
##シュタ
委譲
昇圧
兆候
ドキ
禁じて
校章
ハルク
整えた
##神経
ＲＤ
金堂
麾下
オンデマンド
Ｔｕ
コンスタントに
##林寺
韮
##下げた
迄
薫陶
２，５
ＳＩＭ
##洛
不可能であった
戸数
山水
##ｅｓｃ
グレアム
ダイアモンド
英和
ホップ
ブリュー
隔壁
##ネオ
友愛
##旧
衛兵
痛め
作れる
おかしい
集う
体現
クローザー
ドリル
全会
##ロマ
歳時
たって
免職
彫り
Ｉ／Ｏ
引火
サガ
親鸞
ゴルバチョフ
Ｔｈｏｍａｓ
完敗
ＳＵＰＥＲＧＴ
##ニコフ
トミ
サザエ
実刑
オールバニ
##ッキ
昨今
輝いて
バイアス
桐朋
##ｐｅ
脊
イノシシ
##ファックス
##読み
論じる
閉幕
大杉
結託
##体字
祓
壽
晩餐
##ｐｔ
##ｖｅｎ
２０，
臨み
供する
さらば
叫んだ
マッスル
バロン
ソールズベリー
##マインデ
コンセプ
##見る
冗
スキーム
１６８３
##買
乱獲
猶
更改
戦地
鎮痛
家賃
琢
Ｗｅｓｔ
姑
##詠
草創期
馴染
スクープ
耐熱
##ＰＭ
##日市
留めて
チキン
心境
テキ
##だか
ノックス
バール
##Ｐｒｏｇ
増産
かざ
気絶
刑部
漁場
湿った
観る
葡萄
##６０００
初段
募り
予知
##今
Ｎｏｔ
ベイビー
開学
##ぺい
虞
肋骨
スモレンスク
エヴ
##Ｓｔｒｅｅｔ
クッキー
島村
##ヘビ
##薙
包丁
インディペンデント
九七
##モナ
シュガー
##ザクラ
氷期
バイナリ
指宿
エジソン
##分けた
１５９１
榛名
コンゴ民主共和国
引き出し
##グア
避けた
ｒａ
ビーズ
別個の
背負って
いっぽう
ルク
Ｋｅ
総帥
##キム
何事
神託
谷山
借入
Ｄｅｓ
潰瘍
##駆
全校
##コート
ブロンクス
偏り
２５，０００
代入
アンモニウム
ウィザード
シンクロ
立て直し
十代
留任
鳴る
路地
後円部
禎
閉じて
ターリバーン
鋼管
嗜
ＣＤＵ
前駆
カウンセラー
##汗
沖積
ビョ
内国
嚢
##コフスキー
ＪＴ
新進
電工
ペガサス
ＦＵ
##暁
二階堂
新居
蔵王
いっそう
Ｅｖｅｒ
疑わしい
パーカッション
大湊
僅
マルグリット
Ｊａｎ
１５７８
こぎ
##鬱
カウンセリング
電卓
少量
文系
勧業
##ｕｌａ
解隊
##冶
##田町
与那
##杜
丸太
美穂
ブレーン
強力に
内山
##套
端役
逐次
##くう
めざま
ドライバ
平和な
駒場
##胸
ピリ
離さ
見な
無意識
グラッドストン
傑
生け
##ゴロ
ヌル
腰痛
稼いだ
真澄
ユーティリティ
無敵
申込
##Ｃｒｅ
報じて
アギ
##ーる
##桓
##フェルド
種子島
小競り合い
##ｈｙｌ
立役者
##おき
##Ｃｏｍｍｕｎ
##高い
段落
あろう
トラキア
共犯
相殺
薬草
シヴァ
ファウ
ハンコック
##向け
放た
グリム
サンフレッチェ
牝
ファンタジア
西安
畝
クェ
テッサロニキ
Ｄｒ
グランデ
訊
##シュカ
アパ
ポリュ
著名である
両替
相鉄
タイタニック
##払わ
研磨
サタン
席巻
##ＤＡＹ
##ホーム
４８５
駅弁
団子
神祇
##Ａｌｂ
ＵＲＬ
##蘇
生え
ランカ
モートン
引っ越し
１５８６
称える
亡く
リリ
鋸歯
Ａｒｔ
チョー
##彌
リベンジ
射手
そろって
ビレッジ
ＳＫＥ４８
フョー
任意に
１７０２
文壇
飛び出し
１６３２
岩波書店
##電機
阿久
ジェローム
##ｉｆｉｃ
揃え
トラウマ
３．６
摘出
善戦
ノベライズ
平ら
国士舘
倉吉
##轄
##チーノ
面識
往還
ハバナ
出かける
##生児
コーネル
プラネット
##ｉｋｏ
ポエ
共立
対価
モリエール
禍
##肺
笑う
##チェル
小石川
ブラッ
減税
妊婦
##ミズ
カイル
大樹
生贄
原語
蒲郡
マゼラン
まともに
目印
おっ
##ｅｎｔａｌ
Ｖｉｒ
渓流
##郊
伏せ
評し
##レロ
クオリティ
レフ
##翠
志士
##われる
##デッカー
毒物
九鬼
ツイート
１６１６
川岸
##у
##カスター
断言
Ｅｌｅ
##ベルデ
##Ｒａｄｉｏ
異例
ジャーマン
三枝
フォーレ
##閉
##急に
点滅
１７６７
##きょく
スクーター
##ＡＩＮ
障子
Ｍｃ
##アビ
##マース
総力
ＷＥＣ
コンソーシアム
親類
##ｐｒｉｓ
##祚
##たけ
##ジャール
##ｒｏｗ
##紹
１２万
ウィッ
パスカル
なんでも
##ジャック
波乱
ＴＲＰＧ
決壊
##がね
竜江
裕子
離宮
マギー
王政復古
色調
大河内
葉山
三崎
廠
９５０
控える
プルー
タフ
ハムレット
乖離
絡んで
ちか
１６４４
うけた
サヴォ
##守り
Ｇｅｎ
ワンセグ
緩やかに
##ドッ
##チナ
ローガン
列せ
##ｍｂ
人骨
旧作
オーケ
エクリプス
大滝
犬山
ヘンリク
##ウルス
みらい
ブックス
北洋
盟約
##疆
チラシ
浅川
ソリッド
キャラバン
義明
##ザンヌ
不当な
飯山
##テレビ
ミヒャエル
マネージャ
中谷
ＮＲＮ
絞め
涼子
５億
説か
##鳩
ザック
##ズラ
Ｄｉｇ
とれる
イング
プランク
折衝
ＴｈｅＬ
##ルダー
Ｒｕｂ
渋沢
反り
Ｊｏｓｅｐｈ
エリザベ
##ｕｊ
##の里
半額
俊一
体高
挙がって
正人
##懿
##ゆり
燈
レコン
ラティ
康熙
##チド
##グローブ
海辺
##トレイン
入館
##ＢＤ
即応
アミール
好転
ハミ
集電
アルキル
弁明
とやま
特訓
垣間
電場
付き添
フリップ
二・
荒尾
レヴィ
ドラキュラ
平仮名
ＯＥＣＤ
因んだ
朱子
７．６２
ビートたけし
##シム
清正
通産
ハーマン
オイゲン
##モロ
チロル
義教
##ｉｅｖ
##また
史記
##カミ
必死
沈め
##ＡＮＴ
テック
##ＫＩ
アウトドア
貴方
##かき
火傷
ベーシック
５．１
##ゼント
肩書
江ノ島
ヴワディスワフ
背甲
三星
喧
淫
１７１５
拒み
拘
小柄な
##利益
好感
擁
スピードウェイ
モンテカルロ
##Ｐｌａｙ
##ＲＡＣ
琴平
船上
エーゲ
##晋
スカーレット
力量
##連れ
コミッション
架装
無限に
降臨
##ピスト
用心
カブ
##Ｌａｂ
時限
戒律
##分の
重光
雨量
３１２
固い
まだまだ
行商
モンケ
坑道
敵陣
ミリタリー
柑橘
##ケ丘
ミハ
校尉
##Ｋｎ
Ｍｉｋ
##ＩＴＹ
出かけた
認
植林
カザ
##ｚａ
こけ
##改
##里子
でんき
デイビス
ジュピター
砲架
払拭
違いない
メキシカン
浜崎
わた
##クターズ
てんかん
クーラー
水星
扶持
##慧
薩摩川内
慣用
##遅れ
##４０００
##チュアル
##佐美
##ウラ
##ニール
２５２
舜
##ｕｍｅ
スキン
遠ざかって
アマチュアの
Ｓｉｎｇ
的中
##十六
ピアース
##鼓
這
サラトガ
##入る
義務づけ
##ｕｔｅ
辞し
##るみ
縮尺
堂々と
##．Ｄ．
##舗
速達
ō
持ち上がった
##槻
略記
Ｈｅｌ
バイロイト
サミー
女官
インディアナポリス
ジョエル
イートン
生野
あめ
##ＧＴ
エリクソン
幾らか
１，３００
長城
合資
##ポップ
一緒
藤山
モノラル
ユウ
ＦＤＡ
外戚
##Ｒｉｖ
ｆｏｒ
快く
はかる
##起こす
効か
挙句
Ｉｇ
##んに
家斉
わり
百合
##ＧＢ
油脂
Ｏｓ
ب
##ファイア
動け
帰ら
後手
##ｈｏｒ
渾名
１５７２
##輪車
揺る
ｑｕ
實
二十四
ランドルフ
病態
時宗
ストリー
キノ
花形
パーシー
次ぎ
単葉
##濱
大義
見いだ
可愛い
緩急
##メンツ
滑ら
佃
##３００万
盛んであった
円周
風雲
ブリヂストン
##わしく
本屋
弁済
ピカソ
ＡＩＭ
テレサ
大声
##実に
デリバ
１６１９
##餌
น
##大路
マルス
執着
降りた
ふつう
隠した
良質な
ドリフト
越境
内通
##遜
もうける
マンモス
来襲
ダナ
コーダ
クラゲ
１７１６
Ω
幸せに
太古
勝浦
はやし
長久手
皆殺し
蘆名
待った
守ろう
値下げ
天敵
霊魂
境地
カド
##ＡＰＰ
伊奈
住持
アグネス
郵送
吉永
低空
１５５０
上って
シトロエン
Ｌｕｃ
冷や
称す
オースチン
事績
欠落
常滑
変圧器
##付いた
Ｐｈ．Ｄ．
浩一
イコン
唱歌
##ＥＣＴ
ストライプ
空知
##払った
間違え
カミーユ
居合
ペイトリオッツ
断行
ノートン
片仮名
架設
##ニャク
下請け
オリンピア
発振
マネジャー
大事な
タイトー
漢人
##リーガ
仮装
音素
ガードナー
殴ら
ローザンヌ
##ミッツ
ヘラルド
Ｂｒａ
迅速な
中空
##ゴケ
ラージ
##皿
チャイム
九重
防府
痙攣
笠松
組員
本性
マイソール
##ディーノ
ライツ
##のぼ
薬用
ラディ
ＬＣ
Ｊａｃ
見込んで
カウル
##こもり
顕著である
２０２２
##宋
マメ
国衙
クイック
助長
置き場
沸騰
##デム
天長
長けて
ａｂ
ルーブル
吉見
天然痘
##祭り
学研
##ジュラ
スンナ
楽しま
##ｕｍｐ
ジョゼ
錆
過剰に
ＡＢＳ
##ＤＶＤ
パーダーボルン
頚
汲み
浪費
目論む
ラツィオ
難し
持ちかけ
Ｐｅｔｅｒ
なごや
##エント
バディ
ゆか
##チャイルド
乗り越え
##ソロ
迫力
天子
８．５
１６２４
生かす
確かめ
浴びせ
##コネン
##トヴァ
追いつか
パーム
トラム
##ｓｋｉ
##ザス
##ニヤ
##推
付記
高専
星組
ポラ
ヨアヒム
ロンド
艦橋
満員
エスコ
讒言
ソーダ
雅子
新たなる
##らしく
血栓
１７１１
Ｓａｉｎ
##ステリア
正雄
あがり
モニタ
##ソム
ＳＢＳ
##ｄｕ
転籍
##りば
##ＬＥＣＴ
ウィンド
##シール
フォロー
サウサンプトン
##Ｄｅｖｅｌｏｐ
コックス
##ＳＯＮ
##ＣＵ
除雪
アユタヤ
##シャフト
仙北
字母
任じた
デンプン
少輔
Ｔ−３
ポッター
Ｆｅｌ
小郡
極右
形勢
縫い
##ｒｏｓ
ヴェスト
城址
サンガ
あてて
オラン
１６３４
南国
っこ
駅長
ロマネスク
結び目
ＭＩＤＩ
踏まえた
濾過
それとも
ジア
下限
エスペラント
小出
プロダクト
フィリッ
拓跋
空戦
関西電力
##Ｐａｒｋ
ブランチ
Ｐｒｏｊｅｃｔ
アステカ
Ｌｉｂ
##刹
##だれ
矢印
チカ
越智
エリザベート
久世
風化
ＩＷ
蓄え
シナゴーグ
コンテンポラリー
ヒンデンブルク
Ｒｉｃｈａｒｄ
和ら
高貴
立像
ハズ
乗り出し
スプーン
強まり
キャベツ
賜り
分身
##かえ
イニシャル
##どき
２７５
なかったら
Ｔｉｍ
折り合い
ロレン
##ねこ
積ま
##ずみ
##厚い
大洲
さすが
グレゴリウス
グラフィー
Ｈｏｍ
フォークランド
一つ
エイドリアン
レシーバー
##マシン
好ましい
ビーバー
１７６６
風間
##ゼイ
交わして
キティ
上着
九龍
高額の
スクリ
辞表
衛門尉
##禽
アーリントン
オゴ
岡野
ラント
塗布
##適な
##ｏｒｄｓ
安西
１６９０
ビジ
Ｍｂｐｓ
##くに
義雄
##泡
降って
いじ
リッジ
矢島
##ただ
##町通
遊べる
Ａｄｖ
##Ｌｉ
##ｏｓｅ
木曾
剥離
ヒンディー
ブルジョワ
両党
版図
成蹊
##寝
山縣
２３３
項羽
ティア
スプラ
雪崩
半円
##ミッ
マヨ
廃部
神聖な
##靭
ウナギ
##いった
##ヴェリ
匠
##Ａｔ
天童
ステュアート
フーガ
晴信
城砦
水俣
エヴァンス
平川
フィット
大海
ヒルトン
でて
##頸
##アヌス
##生き
ビリヤード
豊富で
トス
２１６
##バイト
##ＰＡＲ
エキシビション
辿る
ティンパニ
１７５１
降ら
高名な
##津子
リバティ
１７５４
尽くさ
常総
##寂
Ｄ＆Ｄ
##０．０
テレコム
整流
沸点
奥山
ＦＲＥ
##ナンデス
##Ｇａｍ
教祖
容れ
スムーズに
齢
辞した
提灯
カルメン
ダイス
アワ
高熱
##ツェルン
議題
##脂
組み入れ
##届
引渡し
##締
##ｅｌｌａ
建安
派兵
無神論
馬齢
純一郎
腱
現物
２５１
ジュビロ
##サシ
##ビッド
##菅
ビアン
１６７０
##にか
感激
パブ
##Ｐｒｏｔ
##Ｌｅａｇ
##分の３
自在に
渡邊
利か
さし
ディストリクト
##琳
左折
##とき
海苔
持病
Ｐｌａｙ
防波堤
漠
３０，０００
##ヴァッ
##フェー
氷上
ブルッ
ライカ
アベンジャーズ
重巡
時価
##ドナ
##バトロン
能動
一命
立ち直
ＢＡＳ
##耐
ダイムラー
遊郭
異教徒
##線型
##カーナ
##瀧
ＬＩＮＥ
旧友
祟
綜
直方
ＳＶ
スマイ
仕業
##タマ
ＭａｃＯＳ
スイミング
デリ
見分け
繭
つばさ
私財
広まる
用例
いのうえ
１６９７
長春
ヴィシー
栗山
洲
みよう
ソケット
##ガーデン
##Ｓｙ
保元
アニマル
カトリーヌ
洗い
サイザー
語幹
気に入った
入り江
睨
##九郎
しり
##Ｏｐ
セイバー
取り除か
Ｈａｌ
冊封
輸血
ピザ
オペレーター
##般
##ひょう
脱皮
１７０３
ヴィクター
アーチャー
差分
たど
湯沢
ミンデン
Ｂａｂ
ディフェン
エメラルド
ヤシ
雄一
出火
ミルズ
オービ
コモンウェルス
共通である
総社
喝
略語
ナゴヤ
二重
##ｏｄｙ
ラヴェル
捕ら
セビリア
太政
墓碑
Ｊｏｎ
##ｅｔｔｅ
##ｒｅｃ
冠詞
こうつう
ヴェローナ
リヒテン
励む
色気
##丈夫
駐輪場
##Ｓｔａｔ
献名
底面
##ニュス
サニー
粕
一眼レフ
節度
Ｗｉｌｌ
背部
アトランティス
##文字
人家
討議
明子
Ｍａｘ
叩いて
吟味
失神
凛
罵倒
暗躍
まちまち
##人数
捕らえて
タジキスタン
多治見
乃木
##せたり
##ヴァーズ
シェルター
合同で
初号機
邦訳
嫌った
##めな
のど
##ティラ
ｍｏ
##凸
見送り
萱
軟禁
クリム
巻頭
カスピ
４６０
エミリア
ジプシー
いつまでも
きらら
まな
代議士
ヘプ
送出
倣い
##ｅｓｏｆ
ヘーラクレース
義久
カルタ
平凡
##井寺
##ニアーズ
##匹
ＤＥＥＰ
ニア
銘打って
樺
座談
##Ｔｒａｎ
全盛
難所
学識
##５．５
西本
レプ
カキ
多分
金具
潘
コノ
４１０
ｗｅｂ
はじまった
礁
##捨
Ｗｉｋ
具現
繋いで
鋏
##残って
強まった
スマッシュ
##ドラス
トルキスタン
ラモン
立石
２，４
ＰＲＯ
引っ越した
そうである
慰問
アデレード
踏み切った
市名
##漿
局地
与力
分遣隊
閉山
レベッカ
##戻す
うまい
イージー
ジェイコブ
森川
ドビュッシー
セレッソ
##なす
##３，０００
花子
##Ｍｉ
犯して
##妾
水和
表れて
アセチル
ポセイ
##ストゥス
##アスロン
２５４
ワタナベ
究明
チャガタイ
アスレ
きむら
屈曲
好ましく
##ねり
図ろう
しょかん
##幻
きっと
さきがけ
あしらった
スタント
不本
１７０９
ちょっ
実包
ペロポネソス
持分
名士
活気
手下
##ＥＧ
##ノ浦
民部
ＧＣ
##ＤＶ
シリウス
沼地
##さった
コンプリート
フィットネス
##欧
カザフ
罪人
一室
ＴＭ
##シノ
##れの
敏夫
##斯
かわい
##ｆｅｃｔ
##岬
自責
手入れ
##クラス
南蛮
江夏
草本
鼎
##っちゃ
㎞
動かさ
洗剤
サブカルチャー
##ａｎｄｔｈｅ
殿下
２６４
##り子
陽炎
工務
栄養素
１５５５
##ッケル
がみ
ポリゴン
ＡＲＴ
##ＭＵＳＩＣ
万延
単装砲架
マヨルカ
相手方
散り
６０１
敵艦
##ヴィッド
というのも
退いて
薩摩国
##ＧＲ
ヴァンパイア
アンドレアス
##マイシン
左近
##ｅａｔ
５３０
ＳＮＫ
##ローブ
##フルな
遠野
##智学
並立
##メンタル
食さ
Ｓｉｒ
星間
１７４５
ウラジ
##キオ
すご
政局
落書き
ヒラリー
##ビラ
八坂
クライスト
おる
##払う
チオ
本気で
##イック
ｆｅａｔ
芳文
アムロ
マフラー
軽蔑
##ッラー
参勤
ヘルツ
訪ねる
満鉄
フェニキア
布袋
##杖
##ｋｏ
##マナ
改軌
ラクダ
小野寺
則って
覆す
席上
乳業
ブラジ
直観
マダ
ヨーゼ
##Ｔ．
臥
崩して
寝屋川
引き取った
おれ
高速な
蹴球
呈した
##ｇａｒ
溺死
Ｋａｒ
つらい
中書
ｍｅｔ
例祭
有用である
スウィート
ＦＩＮＡＬ
スターター
##ステーション
##ラーダ
高畑
刺殺
Ｓｎ
オーウェン
植栽
翔鶴
上訴
１６８２
マニフェスト
月後
けれど
十郎
オリヴィエ
手の
ニーチェ
所轄
跨る
荏原
会所
海津
ジョイス
ビザンティン
##ＷＯＲＬＤ
あした
スピー
チャンドラー
エアポート
騙さ
湖岸
尊厳
及ぼして
##ワット
##ａｎｇｅ
プラネタリウム
三村
の子
公刊
ミルトン
確かめる
ケンタ
##くま
タイムス
岩村
空き地
戦意
帰結
高卒
Ｍｅｔａｃｒｉｔｉｃ
##抜く
付帯
つげ
##らった
次兄
大帝
##戚
##重な
３０００万
ラジカル
##祢
食道
雅楽
##Ｆｉｎ
##Ｄｏｎ
センチュリー
故に
みせ
##ｅｄｅｒ
マールブルク
部首
レリーフ
１６４２
##リーム
##しょく
無縁
ＬＬ
咽頭
##乞い
果敢
笠岡
##メド
##バト
癒し
好きだ
司令塔
間近に
数列
同伴
９９．
##コリー
##セロ
贖
液化
##ｉｔｅｄ
セクシー
買取
グルタミン
休校
聖体
##ｇｕ
チョコ
日出
府道
アンダルシア
暑い
##ヒロ
陳列
りんご
袂
菱形
フイ
##ｅａｄ
サンバ
##地域圏
禁じる
きゃ
自閉症
ゴスペル
ばらつき
明文
別れる
商家
助命
##崩れ
授けた
佐原
##ばな
##１９０
エレクトロニック
病弱
政経
オデ
喫
クロフォード
連接
##キット
困難であり
老婆
ハインツ
延ば
老衰
ワイヤレス
覚めた
自刃
ナリ
労力
公女
竹原
スム
##玩
与謝野
隆信
ガーランド
##割り
神通
７００万
##ライル
膨らま
ＧＮＵ
退会
瑠
繁盛
##センジャー
モラヴィア
サーベル
エクストラ
申し出る
縦横
コロッ
金網
碓
拘禁
フッ素
##ｂｕｒｇ
馨
洪武
##豚
ギュン
##ｙｌｅ
##屑
悪事
アナー
リアルな
ジョーカー
被写
追いつ
小渕
ピエロ
健康な
一向一揆
海王星
楔
##くち
##ニョール
１７４８
３１３
##懐
倉田
黙示録
スキップ
′
ジャージー
##ぶさ
定まる
受け取ら
俯仰
ヘンドリックス
ピストンズ
##Ｆｒａｎ
撥
メソ
顆粒
##フーン
３９０
ああ
殺虫
寺島
Ｈｉｇｈ
ナバー
ウェバー
木工
不詳である
無くなる
小杉
ザンビア
秘宝
リビング
##於
悪党
サングラス
増額
全日空
竪穴
鳳凰
##椒
##ｂｐｓ
心得
むね
経度
##セプ
後代
引き起こして
溥
##びき
笛吹
##貢
兵法
##â
##ステート
糾
１６０４
新一
君津
ロジック
##行き
習合
##ファス
##ＰＲＥ
バラモン
十津川
乱立
ライジング
突進
##曳
##イーン
##ａｎｃｅｄ
アフガン
ルック
下回った
掘ら
##ｓｅｌ
梅雨
##ｉｒｏ
攻守
##邇
油絵
##ブック
##ランダ
囁
斤
加味
羽島
清張
##着いた
##ドニ
シャーロック
光禄
Ａｌｅｘａｎｄ
##ａｚｚ
カダ
##ｔｏｒ
一方的な
Ｌａｎｔｉｓ
##込め
##ｕｎｅ
ハンガー
捷運
手伝う
グランパス
舟艇
ＳｏｆｔＢａｎｋ
Ｅｐ
ヨークタウン
バイン
土産物
♥
あしら
留保
飯野
ホキ
杉原
とれ
蘭学
奇しくも
胞子嚢
##ニンゲン
ＧＲＥ
##ｃｈｎ
農奴
叙述
##タミン
薬理
辞して
ニューファンド
リボル
オスカル
ハエ
真木
白熱
Ｒａｄｉｏ
日展
企てた
手ほどき
１６２３
##分の一
危ぶま
敷いた
##ポジット
##鉉
１６６４
休載
拘わら
康成
直隷
合気道
外食
起爆
豹
ＡＺ
揃った
##ＩＳＥ
##極拳
##サレス
サト
基隆
公孫
制空
ひろゆき
一関
あんな
##ステス
げな
受難
気軽に
流水
貨客船
掛かって
木管
Ｂｉｇ
##ｏｓｐ
官制
令状
きっ
親政
れよう
##煌
カルボニル
ＡＴ＆Ｔ
増補
##リバー
三菱重工
併せ
##サンス
ＺＩＰ
きょういく
北の
林檎
シメ
予想外
明帝
大腿
チルドレン
##ＥＡ
急峻
弱者
トワイ
##こん
トンボ
フリーに
惣領
##凶
夢中に
キタ
年長の
焼肉
どうろ
ハロウィン
オデュッセ
シーケンス
上半期
アダプタ
##ＭＯＲ
洲本
ロニー
ぢ
##裟
南緯
カンピオナート
困難で
柳原
受け持つ
エヴァンゲリオン
リチャードソン
Ｖｏｌ
鉄器
帯刀
##洪
ＭｏｔｏＧＰ
松野
取り壊し
##ごく
ホメ
##厚な
ロンメル
隠れ家
花茎
スペシャリスト
クァ
サリバン
##ラジオ
##ｃｙ
片面
##ずれ
メジロ
É
たかお
紘
ピーナッツ
シャーリー
##チェフ
軍将
フィール
##ロップ
２，６
##ｖｅｌ
切れた
##ムニ
辞める
弓矢
ファイアー
おさめた
インペリアル
セコンド
バリアフリー
治めた
ＥＨＥＳＳ
恐れる
１５８１
輪島
##ｅｍａ
岩屋
巡ら
ヘラクレス
年収
華麗な
アントウェルペン
サブユニット
Ｒｅｓ
旗手
取り締
３０４
塩酸
傾いて
キーボーディスト
アヴェ
求刑
##ヒン
煽り
めで
無印
##ザック
ソム
夜襲
しろう
係争
佩
教理
食卓
キャバレー
フェーズ
記章
疏
コンデンサ
６４０
めざす
##Ｇｅ
ニチ
円山
##デウス
Ｋｍ
下げた
単価
取締り
Ｗａｔ
衡
##Ｄａｎ
プレジ
埋没
１６７３
地場
小数
義興
黒沢
古市
ロールス・ロイス
Ｇａｌ
締約
用量
飲んだ
有効で
##ｔｅｒｎ
軽微
バクテリア
##Ｓｏｎ
満月
東村山
弛
とよ
野川
##ａｔｈｅｒ
１５８８
摘
##わす
大沼
那智
林野
##枚
##スキン
松代
右下
ピウス
コースター
膨れ
##バーランド
##ニックス
眼窩
族長
恩賞
芸妓
マンダ
須藤
洒
アッシュ
ローブ
貴州
不利に
##アノ
##ゲラ
##下げて
公選
##ｅｃｔｉｏｎ
疲
御影
カウボーイ
##アーゼ
鎌田
境川
##グロビン
ラサ
句集
０．９
垂水
云わ
１５８３
カルテル
１５７１
コップ
##エーカー
ローマン
人命
ＥＧ
氷川
揃えて
バッキンガム
解約
蛭
##フォルメ
酸味
葬式
ハプニング
ＢＳＤ
画報
ＮＥＯ
大奥
##Ｃａｌ
償還
##チウム
アブダビ
ＮＥＸＴ
みやこ
轄
食欲
だんだん
アジト
凶悪
渓
##棺
##らに
鎖国
エレベータ
体表
みせる
１７３５
##イダ
模して
その代わり
巻いて
硬く
##シューズ
ＭＢＡ
##でしょう
酷い
追い風
２３２
##替えて
##Ｄｉｖ
おや
Ｔ−１
尖閣諸島
校正
セビー
慣れて
##和田
ポリドール
１１８０
モーターズ
ガイドブック
ライリー
##ｈｙｔｈ
神主
生かさ
##Ａｓｓｏｃｉ
３３３
幸せな
イチゴ
##９万
ライブドア
クロニクル
##ティエンヌ
ひそかに
宍戸
減便
##焼け
Ｏｂ
花王
##ｒé
ピープル
##なった
##遁
マトリックス
資する
官民
暴落
##ジータ
割当
##切れる
昇る
大胆
Ｄｅｂ
戎
ちゃお
##駿
生き延びた
##遷
ピノ
剣士
Ｎａｔ
全治
マダム
ＩＷＡ
##Ｂｕｒ
八百
隧道
カンタータ
ベト
##ｏｕｌ
##虜
ＰＨ
極楽
複写
添えて
##ｈｙｄｒｏ
エカチェ
##ビリー
貨
１６４５
１５７４
##掛かった
##はつ
酒屋
ＪＲＮ
サンドイッチ
##ハチ
##Ｓｉｌ
目線
核酸
丁寧に
ベーカー
嵌
果たさ
球磨
##ックマン
２５５
アクリル
グレーター
##ノヴァ
猛攻
##ぶた
ネイサン
##喬
ジャイロ
##ボンヌ
##Ｄｉ
分与
宇品
湯治
副砲
下谷
塑
砥
ギリギリ
揮
まばら
##Ｐｒｏｊｅｃｔ
ゲッベルス
##シスト
保線
##ａｍｉｎ
佛
##デリ
ＰＯＷ
発病
##止めて
低圧
遡上
##ジーナ
実地
マニュ
##クリフ
俸
拭
##３億
アパルトヘイト
山の
軸受
売れる
プロポーズ
絵具
寄宿舎
促し
かげ
##迅
広め
カロライナ
前奏
選奨
悲しい
亢進
##スティヌス
高城
##ターノ
##妓
只見
ＬＴＤ
１７２４
一様
いちご
邪悪な
膣
##捨て
小判
ジューコフ
しだいに
サフォーク
一役
ボルボ
母屋
島崎
漢訳
搬
##リアーノ
１，８００
アルファロメオ
##ナッハ
##伊那
水木
インフィニ
シェリダン
##蕩
割る
田宮
折りたたみ
７０万
３１６６
##小な
彷彿と
ずれて
サラエヴォ
##ナンス
アルタイ
フォールズ
延命
##ズワース
塩尻
嵐山
まどか
張力
##かず
のであろう
村々
西城
片倉
咲き
プロローグ
スカンディナ
出勤
##嘗
疼痛
例の
##Ｅｄｉｔｉｏｎ
生き残る
##ａｂｉｌ
かねた
##わい
骨董
４．２
##ドニア
競り
ｉｍ
##篭
パトカー
いの
アザラシ
##勉
マスタ
過度の
龍一
文子
傷つけ
芦田
相姦
一・
くうこう
推す
ぶろう
##ホルム
＾
スパーク
狭隘
##嫡
##暇
明かす
オブザー
学習院
Ｂｅｎ
羨
##ガラス
全休
##ブレラ
顕在
休職
ＪＦＮ
郡司
昆布
アゴ
苞
難破
異に
カンブリア
##ワイン
ゲイツ
希薄
目指
##摺
帰京
θ
##ヶ瀬
地底
##縦
##讃線
##伍
デュエル
Ｔｒｅ
呈し
小澤
くるみ
有害な
##双
##ビーズ
ディクソン
##ッドソン
濠
奥義
皮肉に
特捜
罪状
膀胱
Ｄｅｒ
穂積
流儀
##０キロ
##がけ
１キロ
トンガ
角栄
白浜
##ドレス
プレイボーイ
原野
##ｂｏｒ
令嬢
１７１４
餓死
##スレー
錨
真鍮
フィナーレ
ＢＴ
索敵
##ヌーヴ
ｉＴｕｎ
ノーサン
マッチング
景虎
指紋
ショスタコーヴィチ
ＫＧＢ
##０．５
ヴィクト
カムチャ
##’ｓ
##ＲＥＣＯＲＤＳ
デール
##襟
ロバ
マルコム
##ｅｔｏ
シンジ
天上
般若
アエ
促さ
##ｓｐｏｒｔ
モウ
しみず
介した
叡
充足
ゲオルギ
マグナム
１７１８
ゴンザレス
##フロー
##ノワール
バンドル
１０．５
榛
##６．５
あおい
##タバタ
侍女
新撰
##ムリ
正和
桜木
いっしょ
建前
フィジカル
国号
やさしい
ルイージ
沖田
発育
タヌ
閔
ブルジョ
尽くし
ピサ
真人
##すう
１６４９
名寄
史観
多方面
##じって
##多野
パフォーマー
セヴァ
ジェニー
抒情
##刷
１６７２
１００１
取り下げ
##こし
ブレイド
クラウディウス
根強く
ヒーローズ
南極点
##Ｗｉｌｌｉａｍ
掴む
一女
Ｂｆ
製塩
フォーブス
##一位
意外な
集客
##ｈｅｄ
人気者
##ガルタ
名馬
##スーン
バレット
##Ｃｏｕｎ
狛
コーエン
１７４２
奈々
再審
□
見送った
定款
##理士
マーサ
１６３５
貫き
ルーン
紛ら
##Ｏｂ
##Ａｎｎｉｖｅｒｓ
##コビッチ
索引
武勇
名城
手軽に
詣
ドワーフ
些
ピットイン
工期
Ｄｏｍ
不通
１５６５
おさむ
##アミン
鴻巣
バハマ
論評
##かせる
偏光
オブライエン
対義語
##ポット
うれ
識字
エピック
バロ
Ｊｏｈａｎｎ
壊さ
宿禰
鋼材
##Ｐａｔ
##リド
ＳＰＥ
原価
遺領
バタフライ
持ち帰り
##シモ
九九
深層
１６１２
流失
##Ｓｏｆｔ
ネギ
マリーア
##ｖａ
チェンバロ
婚礼
棒状
片桐
##ｉｔａ
##ファスト
##ティナ
媒
##ｏｌｅ
ブート
順子
固形
周南
##ゆみ
ニンニク
迷路
川柳
歓楽
##がかり
変位
諌
リマスタリング
##連邦
##迷
特進
ｏｒｇ
宣下
賃借
３．７
静香
##ｏｐｅ
##バートン
ブロンコス
鐵
叙情
執務
ひだ
犬種
ＳＯＨＣ
底部
##ＢＦ
連峰
ニセ
タヒチ
ドーナツ
数式
顧み
ハーモニカ
再録
タング
ハーディ
##スール
とうとう
裏手
家人
即死
##反田
ＰＴＡ
##つれ
２５０万
むつ
東照宮
３２１
気化
イニシア
湖西
得意な
物性
アーリア
キク
旅立ち
ルーレット
##ａｎｉ
##ウェー
バーナー
##ｅｔｓ
日進
##ｃｏｍｅ
ファウン
ラバー
ええ
##キネ
平松
友軍
ポインタ
##抜ける
民社党
ＭＯＶＩＥ
三船
詐
モネ
ブラインド
ＣＬＵＢ
##加茂
乳製品
##ｉｍａ
マハ
球菌
儀同三司
ドナー
##ｒｉｋ
霞ヶ浦
９１１
たず
##ネスト
ＥＸＩＬＥ
謀殺
前立腺
ＧＰＬ
タシュケント
たむら
扮した
##ピーク
１６６２
居士
一回り
付け替え
得意で
##Ａｒｍ
##タイン
閉ざさ
リプ
いける
涅槃
##ＴＲＡ
ちく
激し
粘液
旧知
公正な
出稼ぎ
敬虔な
ć
ステイ
##ａｔｕｓ
準じる
１７１３
##サンドロ
１６２２
ねえ
##慕
エコール
##ｐａｒ
余分
名産
ライム
ジェダイ
観た
ドイ
全う
聖域
市村
アドリブ
##Ｏｆｆ
両性
変色
かんする
##聚
フィンガー
##サリー
サウスダコタ
公私
１６５１
##ドーレ
##ヒコ
アンティオキア
いつの
ＬＳＤ
##彬
かながわ
##煎
##塞
##Ａｍｅｒｉｃａｎ
##キングス
インディオ
##紀子
ゴンドラ
##ボトル
好調な
ルミ
論点
